
// This is a TensorFlow Lite model file that has been converted into a C data
// array using the tensorflow.lite.util.convert_bytes_to_c_source() function.
// This form is useful for compiling into a binary for devices that don't have a
// file system.


#include "model.h"

alignas(8) const unsigned char g_model[] = {
    0x20, 0x00, 0x00, 0x00, 0x54, 0x46, 0x4c, 0x33, 0x00, 0x00, 0x00, 0x00, 0x14,
    0x00, 0x20, 0x00, 0x1c, 0x00, 0x18, 0x00, 0x14, 0x00, 0x10, 0x00, 0x0c, 0x00,
    0x00, 0x00, 0x08, 0x00, 0x04, 0x00, 0x14, 0x00, 0x00, 0x00, 0x1c, 0x00, 0x00,
    0x00, 0x88, 0x00, 0x00, 0x00, 0x08, 0x01, 0x00, 0x00, 0x70, 0x13, 0x00, 0x00,
    0x80, 0x13, 0x00, 0x00, 0xdc, 0x2b, 0x00, 0x00, 0x03, 0x00, 0x00, 0x00, 0x01,
    0x00, 0x00, 0x00, 0x04, 0x00, 0x00, 0x00, 0x0e, 0xec, 0xff, 0xff, 0x0c, 0x00,
    0x00, 0x00, 0x1c, 0x00, 0x00, 0x00, 0x3c, 0x00, 0x00, 0x00, 0x0f, 0x00, 0x00,
    0x00, 0x73, 0x65, 0x72, 0x76, 0x69, 0x6e, 0x67, 0x5f, 0x64, 0x65, 0x66, 0x61,
    0x75, 0x6c, 0x74, 0x00, 0x01, 0x00, 0x00, 0x00, 0x04, 0x00, 0x00, 0x00, 0x6c,
    0xff, 0xff, 0xff, 0x18, 0x00, 0x00, 0x00, 0x04, 0x00, 0x00, 0x00, 0x08, 0x00,
    0x00, 0x00, 0x6f, 0x75, 0x74, 0x70, 0x75, 0x74, 0x5f, 0x30, 0x00, 0x00, 0x00,
    0x00, 0x01, 0x00, 0x00, 0x00, 0x04, 0x00, 0x00, 0x00, 0x16, 0xed, 0xff, 0xff,
    0x04, 0x00, 0x00, 0x00, 0x0b, 0x00, 0x00, 0x00, 0x69, 0x6e, 0x70, 0x75, 0x74,
    0x5f, 0x6c, 0x61, 0x79, 0x65, 0x72, 0x00, 0x03, 0x00, 0x00, 0x00, 0x5c, 0x00,
    0x00, 0x00, 0x2c, 0x00, 0x00, 0x00, 0x04, 0x00, 0x00, 0x00, 0xb8, 0xff, 0xff,
    0xff, 0x1c, 0x00, 0x00, 0x00, 0x04, 0x00, 0x00, 0x00, 0x13, 0x00, 0x00, 0x00,
    0x43, 0x4f, 0x4e, 0x56, 0x45, 0x52, 0x53, 0x49, 0x4f, 0x4e, 0x5f, 0x4d, 0x45,
    0x54, 0x41, 0x44, 0x41, 0x54, 0x41, 0x00, 0xdc, 0xff, 0xff, 0xff, 0x1b, 0x00,
    0x00, 0x00, 0x04, 0x00, 0x00, 0x00, 0x13, 0x00, 0x00, 0x00, 0x6d, 0x69, 0x6e,
    0x5f, 0x72, 0x75, 0x6e, 0x74, 0x69, 0x6d, 0x65, 0x5f, 0x76, 0x65, 0x72, 0x73,
    0x69, 0x6f, 0x6e, 0x00, 0x08, 0x00, 0x0c, 0x00, 0x08, 0x00, 0x04, 0x00, 0x08,
    0x00, 0x00, 0x00, 0x1a, 0x00, 0x00, 0x00, 0x04, 0x00, 0x00, 0x00, 0x13, 0x00,
    0x00, 0x00, 0x6d, 0x69, 0x6e, 0x5f, 0x72, 0x75, 0x6e, 0x74, 0x69, 0x6d, 0x65,
    0x5f, 0x76, 0x65, 0x72, 0x73, 0x69, 0x6f, 0x6e, 0x00, 0x1d, 0x00, 0x00, 0x00,
    0x64, 0x12, 0x00, 0x00, 0x5c, 0x12, 0x00, 0x00, 0x48, 0x12, 0x00, 0x00, 0x30,
    0x12, 0x00, 0x00, 0x18, 0x12, 0x00, 0x00, 0x00, 0x12, 0x00, 0x00, 0xe0, 0x11,
    0x00, 0x00, 0xb0, 0x11, 0x00, 0x00, 0x80, 0x11, 0x00, 0x00, 0xf0, 0x10, 0x00,
    0x00, 0xa0, 0x10, 0x00, 0x00, 0x90, 0x0e, 0x00, 0x00, 0x00, 0x0e, 0x00, 0x00,
    0xb0, 0x08, 0x00, 0x00, 0xf8, 0x07, 0x00, 0x00, 0x04, 0x01, 0x00, 0x00, 0xfc,
    0x00, 0x00, 0x00, 0xf4, 0x00, 0x00, 0x00, 0xec, 0x00, 0x00, 0x00, 0xe4, 0x00,
    0x00, 0x00, 0xdc, 0x00, 0x00, 0x00, 0xd4, 0x00, 0x00, 0x00, 0xcc, 0x00, 0x00,
    0x00, 0xc4, 0x00, 0x00, 0x00, 0xbc, 0x00, 0x00, 0x00, 0xb4, 0x00, 0x00, 0x00,
    0x94, 0x00, 0x00, 0x00, 0x74, 0x00, 0x00, 0x00, 0x04, 0x00, 0x00, 0x00, 0x2a,
    0xee, 0xff, 0xff, 0x04, 0x00, 0x00, 0x00, 0x60, 0x00, 0x00, 0x00, 0x0c, 0x00,
    0x00, 0x00, 0x08, 0x00, 0x0e, 0x00, 0x08, 0x00, 0x04, 0x00, 0x08, 0x00, 0x00,
    0x00, 0x10, 0x00, 0x00, 0x00, 0x28, 0x00, 0x00, 0x00, 0x00, 0x00, 0x06, 0x00,
    0x08, 0x00, 0x04, 0x00, 0x06, 0x00, 0x00, 0x00, 0x04, 0x00, 0x00, 0x00, 0x01,
    0x00, 0x00, 0x00, 0xeb, 0x03, 0x00, 0x00, 0x0c, 0x00, 0x18, 0x00, 0x14, 0x00,
    0x10, 0x00, 0x0c, 0x00, 0x04, 0x00, 0x0c, 0x00, 0x00, 0x00, 0x23, 0x67, 0x19,
    0xbe, 0xa7, 0xd3, 0x6c, 0x89, 0x02, 0x00, 0x00, 0x00, 0x02, 0x00, 0x00, 0x00,
    0x04, 0x00, 0x00, 0x00, 0x06, 0x00, 0x00, 0x00, 0x32, 0x2e, 0x31, 0x38, 0x2e,
    0x30, 0x00, 0x00, 0x96, 0xee, 0xff, 0xff, 0x04, 0x00, 0x00, 0x00, 0x10, 0x00,
    0x00, 0x00, 0x00, 0x00, 0x00, 0x00, 0x00, 0x00, 0x00, 0x00, 0x00, 0x00, 0x00,
    0x00, 0x00, 0x00, 0x00, 0x00, 0xb2, 0xee, 0xff, 0xff, 0x04, 0x00, 0x00, 0x00,
    0x10, 0x00, 0x00, 0x00, 0x31, 0x2e, 0x31, 0x34, 0x2e, 0x30, 0x00, 0x00, 0x00,
    0x00, 0x00, 0x00, 0x00, 0x00, 0x00, 0x00, 0xd4, 0xed, 0xff, 0xff, 0xd8, 0xed,
    0xff, 0xff, 0xdc, 0xed, 0xff, 0xff, 0xe0, 0xed, 0xff, 0xff, 0xe4, 0xed, 0xff,
    0xff, 0xe8, 0xed, 0xff, 0xff, 0xec, 0xed, 0xff, 0xff, 0xf0, 0xed, 0xff, 0xff,
    0xf4, 0xed, 0xff, 0xff, 0xf8, 0xed, 0xff, 0xff, 0xf6, 0xee, 0xff, 0xff, 0x04,
    0x00, 0x00, 0x00, 0xe4, 0x06, 0x00, 0x00, 0x1f, 0x4d, 0x71, 0xc4, 0x47, 0x3d,
    0x81, 0x34, 0xb7, 0xd6, 0xc4, 0x0e, 0xab, 0xed, 0xc8, 0xf1, 0xb6, 0xea, 0xb7,
    0x28, 0x25, 0x10, 0xfc, 0x30, 0xd9, 0x43, 0x0a, 0x1c, 0x13, 0xef, 0xf2, 0xa7,
    0xe7, 0xd1, 0x44, 0xca, 0xf1, 0x22, 0x2d, 0xfb, 0x25, 0x32, 0x14, 0x9a, 0x81,
    0x01, 0x1a, 0xd1, 0xec, 0x4d, 0x30, 0xdf, 0x5d, 0xd7, 0x52, 0x2b, 0xbe, 0xe8,
    0xf0, 0x62, 0xfe, 0xdf, 0xf7, 0x37, 0xf4, 0xd3, 0xf3, 0x17, 0xea, 0x0c, 0xdc,
    0x19, 0x0a, 0xe5, 0x0c, 0x5e, 0xbc, 0xc6, 0x4a, 0xab, 0x0a, 0x1a, 0x25, 0xd9,
    0xff, 0x7a, 0x46, 0x12, 0xfa, 0x5e, 0x10, 0x09, 0xaf, 0x00, 0xd4, 0xe0, 0xed,
    0xca, 0x22, 0x08, 0x57, 0x43, 0xa4, 0xeb, 0xcc, 0xd1, 0xcd, 0x0d, 0xd8, 0x0d,
    0xfb, 0xff, 0xd5, 0xb7, 0x2b, 0x43, 0x81, 0xd0, 0xf9, 0xad, 0x0d, 0xe4, 0x0c,
    0xfa, 0x0b, 0xe9, 0xf6, 0xfa, 0xda, 0x41, 0xf5, 0x7f, 0xdc, 0xa0, 0xae, 0x61,
    0x14, 0x11, 0xe2, 0xd8, 0x3c, 0xea, 0x52, 0x3f, 0xeb, 0x4d, 0x1a, 0x47, 0x6b,
    0x1e, 0xfa, 0xbf, 0x8b, 0x58, 0x05, 0xb7, 0xa6, 0x7c, 0x7d, 0x00, 0x33, 0x1a,
    0xe1, 0x26, 0xdb, 0xfc, 0x04, 0x22, 0x24, 0xef, 0x81, 0x5a, 0x2b, 0x20, 0x3e,
    0xe9, 0xe7, 0x0e, 0xd3, 0x2b, 0x05, 0xde, 0x18, 0xe6, 0x01, 0x51, 0x40, 0x57,
    0x1a, 0x41, 0x0c, 0xc9, 0x40, 0xde, 0x19, 0xf4, 0xb1, 0x29, 0x08, 0x43, 0x1b,
    0x0f, 0xe3, 0xbf, 0x16, 0x28, 0x22, 0x07, 0x48, 0xb9, 0xf9, 0xd8, 0x07, 0xd5,
    0xbe, 0x94, 0xee, 0xce, 0x49, 0x3e, 0xcb, 0x9d, 0xc9, 0x6d, 0x0f, 0xf8, 0xc6,
    0x11, 0xf6, 0xfa, 0xa5, 0x3e, 0x26, 0xe8, 0x22, 0x0d, 0x1d, 0xd2, 0x81, 0x3c,
    0x43, 0x59, 0x74, 0x58, 0x39, 0x2f, 0x26, 0xa6, 0xd3, 0x3a, 0x0e, 0xa8, 0x31,
    0xa3, 0x41, 0x36, 0xa5, 0x35, 0x61, 0x66, 0xbb, 0xd1, 0xca, 0x21, 0x6b, 0xe2,
    0x4a, 0x43, 0xdc, 0xce, 0xb7, 0xeb, 0x88, 0x39, 0xe0, 0x05, 0xf8, 0x14, 0xf9,
    0x72, 0xb4, 0xc8, 0xc9, 0x9c, 0xef, 0xc3, 0xaa, 0x39, 0x00, 0x81, 0xa9, 0x0a,
    0x37, 0x58, 0xf6, 0x39, 0x21, 0xdc, 0x9b, 0x1a, 0x95, 0x13, 0x2f, 0x7f, 0x28,
    0x14, 0xd0, 0x61, 0x28, 0x13, 0xcf, 0xdb, 0x47, 0xc3, 0xee, 0xdc, 0x07, 0xfe,
    0x32, 0xe9, 0x1f, 0xde, 0x1a, 0x2f, 0xa4, 0xdb, 0x37, 0x85, 0xec, 0x34, 0x00,
    0x26, 0xee, 0xef, 0x75, 0xc2, 0x0a, 0x75, 0x49, 0xe3, 0xff, 0xcc, 0x9c, 0xb6,
    0xdb, 0xdf, 0x81, 0xfb, 0xdf, 0xfa, 0xa9, 0x01, 0xd6, 0x0b, 0x46, 0xa3, 0xb0,
    0xaa, 0x28, 0xd1, 0x0c, 0x15, 0x0a, 0x0e, 0x42, 0xce, 0x51, 0x93, 0x67, 0x2e,
    0x22, 0xad, 0xd6, 0xab, 0xe8, 0xde, 0xdd, 0xd1, 0x20, 0x13, 0xdc, 0x39, 0xf9,
    0xf7, 0x3f, 0xe1, 0xff, 0xae, 0x1a, 0xda, 0x35, 0xe2, 0x52, 0xf8, 0x7f, 0x1a,
    0x3c, 0x62, 0xd8, 0x40, 0x2e, 0xe4, 0xc7, 0x1b, 0xcf, 0x1d, 0xfc, 0x3e, 0xb5,
    0xd1, 0x34, 0xed, 0x11, 0xcd, 0xeb, 0xbb, 0x29, 0x59, 0x38, 0x1d, 0xee, 0xf0,
    0xd9, 0xca, 0xce, 0xd5, 0xe7, 0x08, 0xd5, 0x40, 0x47, 0xfd, 0x1b, 0x27, 0x2a,
    0x53, 0xdb, 0x19, 0xfe, 0x47, 0xbe, 0xc5, 0xe2, 0x81, 0x1b, 0xf8, 0x3a, 0xa4,
    0x4c, 0x20, 0x30, 0x01, 0x4c, 0x05, 0x37, 0xd3, 0xfc, 0xf4, 0x98, 0xaf, 0x06,
    0xff, 0x37, 0xc7, 0xb6, 0x42, 0x03, 0x54, 0x9c, 0x11, 0xb7, 0xd8, 0xb3, 0x26,
    0x5f, 0x0a, 0xe9, 0x20, 0x76, 0x36, 0x46, 0xfb, 0x30, 0x26, 0x70, 0x87, 0xa5,
    0x1c, 0x56, 0x8a, 0xee, 0x4a, 0x9c, 0x52, 0x03, 0xb8, 0xcc, 0x81, 0xa0, 0x88,
    0x94, 0x4a, 0x72, 0xe6, 0x02, 0x08, 0x81, 0x10, 0xcd, 0x11, 0xfb, 0xef, 0xd3,
    0xfc, 0x10, 0x37, 0xeb, 0x2b, 0xc7, 0x34, 0xe8, 0x3e, 0xd6, 0x45, 0x37, 0x1a,
    0xcc, 0x3f, 0x0e, 0xc6, 0xd7, 0xd4, 0x2d, 0x36, 0xe4, 0x17, 0xf4, 0x26, 0xfe,
    0xef, 0xff, 0xd9, 0x0f, 0xf4, 0xd1, 0xe1, 0x01, 0x4a, 0xe1, 0xde, 0x0b, 0x0f,
    0xe9, 0x41, 0xf4, 0x6d, 0xe9, 0x8a, 0x5a, 0x3c, 0xf3, 0xee, 0x1f, 0xb4, 0x69,
    0x41, 0x36, 0xea, 0xcc, 0x25, 0x1d, 0xaa, 0xfa, 0x66, 0x2f, 0x44, 0x59, 0xc1,
    0x54, 0xd4, 0x91, 0x5d, 0xbb, 0x1a, 0xdf, 0xec, 0x81, 0x3d, 0xfb, 0x4d, 0x11,
    0xe9, 0x2a, 0x24, 0xb9, 0xf0, 0x10, 0x52, 0xd8, 0xec, 0x7f, 0xde, 0xb5, 0x28,
    0x0d, 0xa5, 0xd0, 0xe6, 0xbd, 0x2b, 0x1f, 0x48, 0x2f, 0xed, 0xd7, 0xbb, 0xd5,
    0x0e, 0xda, 0xee, 0x40, 0xee, 0x0f, 0xb7, 0xdb, 0x12, 0x3f, 0x09, 0xc6, 0xcc,
    0x09, 0xea, 0xf5, 0x06, 0x07, 0x07, 0x2a, 0x0c, 0x2c, 0x7f, 0xfc, 0xe6, 0xf7,
    0xd6, 0x03, 0x21, 0x0b, 0xf7, 0xf7, 0x03, 0x1c, 0x29, 0x06, 0xf5, 0xf2, 0xfd,
    0xee, 0xf0, 0xed, 0x40, 0xf8, 0x1a, 0xdc, 0xdd, 0x0f, 0x0a, 0x0e, 0x13, 0x0b,
    0x0e, 0x1a, 0x2c, 0xfa, 0x59, 0x8d, 0x38, 0xe5, 0x55, 0xaa, 0x9a, 0x33, 0xc0,
    0xac, 0x15, 0x70, 0x8a, 0xf3, 0x92, 0x1e, 0x0b, 0xc5, 0xcc, 0xe7, 0x03, 0xf6,
    0x16, 0xab, 0x11, 0x8e, 0x7f, 0xea, 0x25, 0xf9, 0xd1, 0xcf, 0xcd, 0xf5, 0x22,
    0x9b, 0x05, 0xe8, 0xf3, 0xd1, 0xf1, 0xf0, 0x84, 0xed, 0xfc, 0x81, 0xee, 0x61,
    0x14, 0xd3, 0x21, 0x36, 0x1f, 0x36, 0x1c, 0x1d, 0xbe, 0xda, 0xd8, 0x0c, 0x25,
    0x0b, 0xbd, 0x3d, 0x27, 0xd1, 0x5a, 0xf6, 0x1e, 0xfc, 0x2f, 0xe4, 0x1b, 0xce,
    0xae, 0xef, 0xde, 0xc5, 0xba, 0x04, 0xf9, 0x2b, 0x18, 0x05, 0x15, 0xa8, 0xd4,
    0x25, 0x32, 0x40, 0x33, 0xc7, 0xd9, 0x12, 0xdb, 0xe2, 0x4f, 0xcd, 0xb1, 0xe4,
    0x7f, 0xe8, 0x0e, 0x1f, 0xeb, 0xd9, 0xcc, 0x1f, 0x21, 0xd4, 0xec, 0xc8, 0x08,
    0x4a, 0x06, 0xc3, 0x1d, 0xdf, 0x11, 0xf6, 0xf0, 0xe4, 0xe4, 0x25, 0x10, 0x29,
    0xeb, 0xee, 0x30, 0xb3, 0xd7, 0x7c, 0x74, 0x13, 0x4b, 0x1c, 0xec, 0xf4, 0xf7,
    0xa9, 0x28, 0xed, 0x5c, 0x7f, 0x63, 0x39, 0x1a, 0x4f, 0x09, 0x4a, 0x58, 0x12,
    0xae, 0x33, 0x4e, 0x8b, 0x2d, 0xa0, 0xd0, 0x00, 0x61, 0x1b, 0x95, 0xcf, 0xcb,
    0xca, 0x0a, 0xf2, 0xa4, 0xaa, 0xb4, 0xd0, 0x9f, 0xdc, 0x28, 0xd6, 0x54, 0xea,
    0xa1, 0x23, 0x2c, 0xda, 0x11, 0x93, 0x11, 0x7b, 0x35, 0xcc, 0x11, 0xec, 0xe4,
    0xf3, 0x3e, 0x45, 0x17, 0x4d, 0x5f, 0x26, 0xd1, 0x6b, 0x15, 0xf4, 0xd1, 0xad,
    0xea, 0x19, 0x7f, 0xad, 0x31, 0x05, 0x2b, 0x1b, 0x7f, 0x11, 0x79, 0x35, 0x20,
    0x82, 0x9c, 0x4b, 0x18, 0x49, 0x37, 0x06, 0x59, 0x40, 0x32, 0x90, 0xdb, 0xba,
    0x04, 0xc8, 0xdf, 0x0a, 0x19, 0xf6, 0xde, 0xff, 0x96, 0xce, 0x08, 0xaa, 0x48,
    0x66, 0xbe, 0xea, 0xba, 0x32, 0x0d, 0x2d, 0xb6, 0x19, 0xe7, 0x1d, 0x06, 0x1e,
    0x64, 0x18, 0x37, 0x32, 0x23, 0x06, 0x11, 0x0c, 0xbd, 0x60, 0x28, 0x7f, 0x00,
    0x2a, 0x0b, 0xd3, 0x41, 0x26, 0xc8, 0x1c, 0x22, 0xfe, 0x1d, 0xd3, 0x33, 0x04,
    0xf0, 0x07, 0x58, 0x11, 0x34, 0x4c, 0x02, 0xad, 0x1c, 0xb4, 0x23, 0x0a, 0x7f,
    0x40, 0x74, 0xf6, 0x4c, 0xa6, 0xf4, 0xe0, 0xcc, 0xef, 0x02, 0x23, 0xd3, 0xbc,
    0x1b, 0x0a, 0xf2, 0xed, 0x0a, 0x0d, 0xb0, 0x11, 0xe0, 0x1a, 0xdf, 0xe8, 0x12,
    0xdd, 0xc8, 0xf3, 0x16, 0xf8, 0xfc, 0x05, 0xe2, 0x36, 0xff, 0x0e, 0xb2, 0xff,
    0xeb, 0x07, 0xd5, 0x49, 0x7f, 0xd5, 0x2b, 0x04, 0xb9, 0xed, 0xdd, 0xc0, 0x57,
    0xed, 0xd7, 0xf9, 0x22, 0x43, 0xb7, 0x19, 0xc0, 0xe6, 0x57, 0xfc, 0xf2, 0xc9,
    0x30, 0xf1, 0xf1, 0x06, 0xbf, 0xbb, 0x3b, 0xe7, 0x1c, 0x21, 0xe7, 0x06, 0xfa,
    0x1b, 0xc3, 0x06, 0xe6, 0x2d, 0x1e, 0xf5, 0x36, 0xdd, 0x19, 0x61, 0xcf, 0xd3,
    0x03, 0xca, 0xc4, 0x10, 0x18, 0x1c, 0xe0, 0x4a, 0xdd, 0xdc, 0x31, 0x0b, 0x0b,
    0xf6, 0x81, 0xf5, 0xdc, 0xc6, 0x32, 0xd5, 0x1e, 0x94, 0x16, 0xdc, 0xef, 0x15,
    0xf6, 0xc7, 0x16, 0x12, 0x07, 0xd4, 0x99, 0x1e, 0xc5, 0xbe, 0xf7, 0x94, 0x49,
    0xa3, 0xc5, 0x10, 0x81, 0x3c, 0x90, 0xaa, 0x3b, 0xc4, 0x0f, 0xf7, 0xec, 0xf1,
    0x9e, 0xce, 0x23, 0xba, 0x9a, 0xb8, 0xd9, 0xa1, 0x0f, 0x46, 0x0d, 0x0a, 0x17,
    0xa3, 0xf8, 0xe0, 0xd6, 0x47, 0xf4, 0xb3, 0x3e, 0x73, 0x67, 0xf6, 0xca, 0x14,
    0xd8, 0xa2, 0xe3, 0xe7, 0xe5, 0x43, 0x1e, 0x16, 0x12, 0x81, 0x40, 0x58, 0x2b,
    0xd0, 0xef, 0x4d, 0x05, 0xe6, 0x13, 0x31, 0xb1, 0xf3, 0x09, 0x2e, 0xc2, 0x22,
    0x61, 0x20, 0x82, 0x47, 0xdb, 0xdc, 0x1f, 0xe9, 0x1a, 0xeb, 0x39, 0xee, 0xf5,
    0x03, 0x81, 0xe0, 0xf6, 0x99, 0x27, 0xd0, 0x03, 0xe6, 0xf4, 0x12, 0xa1, 0xe7,
    0xc8, 0x1f, 0xd0, 0xe9, 0x18, 0x4d, 0x2c, 0x4c, 0x33, 0xc6, 0xf5, 0xf6, 0xe5,
    0xd5, 0x3f, 0x24, 0x38, 0x46, 0x18, 0xfe, 0x19, 0x36, 0x0b, 0xf1, 0xe0, 0x31,
    0x2b, 0x5a, 0x35, 0x07, 0x87, 0x86, 0x81, 0x20, 0x3d, 0x9f, 0x01, 0xa0, 0xdb,
    0xf6, 0xfb, 0x41, 0x10, 0xc3, 0x44, 0xef, 0xf4, 0x04, 0x02, 0x35, 0xd1, 0x32,
    0x3e, 0xf6, 0xc1, 0x17, 0xfd, 0xf4, 0x26, 0xe8, 0x04, 0xfc, 0xcf, 0xda, 0x04,
    0xf7, 0x1e, 0x13, 0x1f, 0xe7, 0x04, 0xf3, 0xc7, 0xf1, 0xf0, 0xfc, 0xef, 0x1b,
    0x9a, 0x3f, 0x6c, 0xc0, 0x13, 0x0c, 0xd7, 0x41, 0xfb, 0xec, 0x85, 0xcc, 0x08,
    0xce, 0x5c, 0x37, 0x52, 0xe0, 0xe1, 0x2a, 0xf1, 0xc8, 0xdc, 0xc1, 0xdf, 0xf5,
    0x81, 0xc7, 0x2d, 0xd9, 0xeb, 0xee, 0x21, 0xca, 0x12, 0x1b, 0xe0, 0xfe, 0x17,
    0xe4, 0x02, 0x45, 0x26, 0x7f, 0xcf, 0x06, 0xf5, 0x4a, 0x10, 0x53, 0x4f, 0x22,
    0xb6, 0x29, 0xf2, 0xd3, 0x5a, 0xb4, 0xf1, 0xc7, 0x46, 0xa9, 0xda, 0xfb, 0x26,
    0x02, 0x32, 0xeb, 0x0e, 0xb0, 0xbb, 0xfb, 0xce, 0x2d, 0x0e, 0xcb, 0x31, 0x06,
    0x23, 0x7f, 0x37, 0xa2, 0xcb, 0xdf, 0xca, 0xb6, 0xe0, 0x3c, 0x22, 0xcc, 0xc9,
    0xeb, 0x18, 0x48, 0xff, 0x08, 0x1a, 0xd9, 0x4f, 0x0c, 0xeb, 0x10, 0xcc, 0xe9,
    0x08, 0x4f, 0x15, 0xf3, 0x0c, 0x2c, 0xe4, 0x15, 0x29, 0x03, 0xb4, 0xc2, 0x2a,
    0x19, 0xeb, 0xf6, 0x27, 0x60, 0x2c, 0xf7, 0x2e, 0x2c, 0xe6, 0x3c, 0x12, 0xb3,
    0x2b, 0x27, 0x0a, 0xbe, 0x2c, 0x7f, 0x92, 0xd5, 0xae, 0xfb, 0xad, 0x56, 0x12,
    0xfb, 0xd3, 0xfd, 0xe0, 0xe8, 0x82, 0xb3, 0xe8, 0x8e, 0xd4, 0x02, 0xf4, 0x4a,
    0x9d, 0x1f, 0xae, 0x3e, 0x9d, 0x03, 0xae, 0xf9, 0x57, 0xe7, 0xd7, 0x81, 0x1a,
    0x3b, 0xd5, 0xd6, 0x21, 0xcc, 0xec, 0x09, 0x07, 0x1c, 0x15, 0x40, 0x1d, 0xf7,
    0xfe, 0xd5, 0xf1, 0x4a, 0x14, 0x35, 0xf0, 0x0c, 0x64, 0xb9, 0xdd, 0x0b, 0xc5,
    0x46, 0x04, 0x01, 0xef, 0x1e, 0x34, 0x2c, 0xd7, 0x05, 0xbf, 0x50, 0x1a, 0x36,
    0xb7, 0x06, 0x9e, 0xc1, 0xf1, 0x35, 0xc4, 0x27, 0xf9, 0xf9, 0xd9, 0xa5, 0x1d,
    0xe6, 0x33, 0x0e, 0x0a, 0x3b, 0xac, 0x31, 0x7f, 0x4b, 0x09, 0x41, 0x09, 0x53,
    0xc6, 0x1e, 0x25, 0x23, 0x16, 0x0c, 0x3c, 0xd1, 0x08, 0x53, 0x36, 0x08, 0x05,
    0xa5, 0x7f, 0x2f, 0xb0, 0xa7, 0xc9, 0xff, 0xe1, 0xcb, 0x97, 0x0c, 0xb1, 0x0f,
    0x3d, 0xae, 0x31, 0x13, 0x23, 0x20, 0x51, 0xe1, 0xbe, 0xf6, 0x03, 0x33, 0x07,
    0x1e, 0x1b, 0xe4, 0xe8, 0x24, 0x6a, 0xf2, 0xf4, 0xc2, 0xcc, 0xc4, 0x2d, 0xa4,
    0xe1, 0x05, 0x29, 0x6f, 0x17, 0x38, 0xc5, 0xa9, 0x28, 0xc0, 0xf2, 0x7f, 0x2e,
    0x0c, 0x2b, 0xf3, 0xfd, 0xea, 0xe4, 0x3f, 0x32, 0xe3, 0xfe, 0x2d, 0xc6, 0xd1,
    0x20, 0xff, 0x26, 0x11, 0xc6, 0x61, 0x03, 0xb1, 0x0f, 0x26, 0xa5, 0xef, 0xd0,
    0xd8, 0xc9, 0x22, 0x13, 0xf6, 0x37, 0xdf, 0x0a, 0xfd, 0xbe, 0xb7, 0xfb, 0x21,
    0x7f, 0xfd, 0x16, 0xd9, 0xd6, 0x2b, 0xf1, 0x04, 0xd5, 0xfd, 0x14, 0xb5, 0x35,
    0x0d, 0x13, 0x0f, 0x15, 0xcc, 0x01, 0xef, 0x1e, 0x30, 0x06, 0x0d, 0x07, 0xce,
    0x04, 0xf7, 0xbd, 0x23, 0x29, 0x14, 0xed, 0x07, 0xe0, 0x9f, 0x81, 0xd9, 0x35,
    0xac, 0xfc, 0x17, 0xe4, 0xcf, 0x38, 0x08, 0x23, 0xbe, 0xff, 0xa9, 0xf8, 0x49,
    0x3b, 0xfd, 0xf7, 0x23, 0x23, 0xd1, 0x35, 0x29, 0x0b, 0xd5, 0xe3, 0x44, 0x49,
    0xd6, 0xe4, 0xe5, 0xac, 0xea, 0x32, 0xef, 0xeb, 0xef, 0x33, 0x04, 0xb8, 0x3e,
    0x30, 0x8b, 0xf2, 0x69, 0x5c, 0x9f, 0xee, 0x69, 0xc2, 0x39, 0x74, 0x47, 0xbc,
    0x50, 0x2c, 0xda, 0xcf, 0xdd, 0x4e, 0xd0, 0x97, 0xe0, 0x6a, 0x16, 0xc4, 0xd9,
    0xba, 0x52, 0x97, 0x09, 0xf1, 0x17, 0x53, 0x35, 0xfd, 0x81, 0xfc, 0x73, 0x60,
    0x04, 0x15, 0xf8, 0x22, 0x81, 0x25, 0x0e, 0xd9, 0x0d, 0xe6, 0xf6, 0x01, 0xa3,
    0x49, 0x38, 0xa2, 0x3a, 0xf0, 0x2f, 0xd4, 0x17, 0xf2, 0x25, 0xd4, 0xff, 0xc4,
    0xcd, 0xd1, 0xd2, 0x0d, 0xbb, 0xef, 0x18, 0xda, 0x21, 0xf5, 0x2a, 0xe4, 0xe2,
    0x0a, 0x4e, 0xca, 0xe6, 0xf5, 0xff, 0xff, 0x04, 0x00, 0x00, 0x00, 0xa8, 0x00,
    0x00, 0x00, 0x0d, 0x00, 0x00, 0x00, 0xf4, 0xff, 0xff, 0xff, 0xde, 0xff, 0xff,
    0xff, 0x98, 0xff, 0xff, 0xff, 0xc8, 0xff, 0xff, 0xff, 0x01, 0x00, 0x00, 0x00,
    0x6f, 0xff, 0xff, 0xff, 0x28, 0x00, 0x00, 0x00, 0x74, 0xff, 0xff, 0xff, 0xb5,
    0xff, 0xff, 0xff, 0x92, 0xff, 0xff, 0xff, 0xd7, 0xff, 0xff, 0xff, 0xcc, 0xff,
    0xff, 0xff, 0xe8, 0xff, 0xff, 0xff, 0xcf, 0xff, 0xff, 0xff, 0x37, 0x00, 0x00,
    0x00, 0x81, 0xff, 0xff, 0xff, 0xe6, 0xff, 0xff, 0xff, 0x88, 0xff, 0xff, 0xff,
    0xdf, 0xff, 0xff, 0xff, 0xcd, 0xff, 0xff, 0xff, 0x4b, 0xff, 0xff, 0xff, 0x9e,
    0xff, 0xff, 0xff, 0xa7, 0xff, 0xff, 0xff, 0x8b, 0xff, 0xff, 0xff, 0x8c, 0xff,
    0xff, 0xff, 0x74, 0xff, 0xff, 0xff, 0xd8, 0xff, 0xff, 0xff, 0xd7, 0xff, 0xff,
    0xff, 0x9b, 0xff, 0xff, 0xff, 0xec, 0xff, 0xff, 0xff, 0x9b, 0xff, 0xff, 0xff,
    0xd0, 0xff, 0xff, 0xff, 0x99, 0xff, 0xff, 0xff, 0xbd, 0xff, 0xff, 0xff, 0x8d,
    0xff, 0xff, 0xff, 0xa9, 0xff, 0xff, 0xff, 0x81, 0xff, 0xff, 0xff, 0xd7, 0xff,
    0xff, 0xff, 0xc6, 0xff, 0xff, 0xff, 0x57, 0xff, 0xff, 0xff, 0xb5, 0xff, 0xff,
    0xff, 0x9a, 0xf6, 0xff, 0xff, 0x04, 0x00, 0x00, 0x00, 0x40, 0x05, 0x00, 0x00,
    0x94, 0x3e, 0x37, 0x1a, 0xec, 0xd7, 0xfb, 0xbc, 0xb5, 0xb3, 0xf6, 0xc2, 0x96,
    0xf8, 0xca, 0xca, 0x13, 0xfa, 0x7f, 0xc1, 0x97, 0x4e, 0xb8, 0xd0, 0xee, 0x37,
    0xa1, 0xc6, 0x67, 0xa8, 0xb6, 0x3f, 0xd0, 0x30, 0x94, 0x18, 0xa4, 0x34, 0xf8,
    0xb8, 0x1f, 0xbb, 0xdd, 0xf3, 0x2a, 0x0d, 0xc5, 0xda, 0x28, 0xdc, 0x63, 0x1b,
    0xfb, 0xd3, 0x7f, 0x35, 0x2d, 0xd0, 0x2e, 0xdc, 0xf7, 0xd5, 0xf0, 0x35, 0xee,
    0x58, 0x01, 0xf1, 0xd0, 0xdd, 0x04, 0xf2, 0xf7, 0xf0, 0x40, 0xec, 0x48, 0x14,
    0x6f, 0xf1, 0xf6, 0x0b, 0xf0, 0x21, 0xf7, 0x2d, 0xcd, 0x32, 0x1d, 0x15, 0xcf,
    0x37, 0xc0, 0x34, 0xf7, 0xfd, 0x83, 0xfb, 0x0f, 0x5e, 0xf8, 0x26, 0xfe, 0x24,
    0xd0, 0xdc, 0x0f, 0xad, 0xe0, 0x12, 0x43, 0x1e, 0xdf, 0x9e, 0x17, 0x47, 0x81,
    0xf0, 0x92, 0xbd, 0xeb, 0xf2, 0x0b, 0x9b, 0xde, 0x82, 0x4b, 0xac, 0x93, 0xc6,
    0xbf, 0xec, 0x14, 0x8f, 0xbb, 0x9e, 0x92, 0xa6, 0xa5, 0x26, 0x0d, 0x89, 0x4c,
    0x35, 0x79, 0xc9, 0xec, 0x18, 0x5d, 0x47, 0xbd, 0xf4, 0x5b, 0x0d, 0x39, 0xb9,
    0xa1, 0xe9, 0xdf, 0x31, 0x09, 0xa4, 0xbe, 0x87, 0xfa, 0x29, 0xd3, 0x81, 0x06,
    0x9f, 0x3a, 0x39, 0xe8, 0x1f, 0x11, 0x19, 0x5e, 0xcc, 0xb7, 0x09, 0x2c, 0xe5,
    0xe1, 0xb1, 0xd8, 0x08, 0xa5, 0xe6, 0x08, 0x3a, 0x13, 0x36, 0x50, 0x1f, 0xe4,
    0xf3, 0xe1, 0xd7, 0x1d, 0x00, 0x1b, 0x22, 0x50, 0x42, 0x4e, 0xff, 0x05, 0xec,
    0xdc, 0x7f, 0x45, 0x34, 0xc8, 0xeb, 0xef, 0xd4, 0x3d, 0x23, 0xdd, 0x6d, 0x1c,
    0xd3, 0xb9, 0x39, 0xfa, 0x7c, 0x33, 0xca, 0xb9, 0x68, 0x25, 0xd7, 0x2d, 0x8f,
    0x00, 0x37, 0x10, 0xfc, 0x9b, 0xca, 0xe2, 0x18, 0xb0, 0x33, 0xc9, 0xf6, 0x83,
    0xaf, 0x13, 0x81, 0x39, 0xf4, 0xab, 0x30, 0xf2, 0x05, 0xf9, 0xde, 0x1d, 0xc5,
    0x2f, 0xfb, 0x1a, 0x00, 0x32, 0x0d, 0xe4, 0xe7, 0xfc, 0xf5, 0x1c, 0xb6, 0x1d,
    0xbd, 0xc9, 0x24, 0xe5, 0x0d, 0x1b, 0xf5, 0x5d, 0x2b, 0xf6, 0xeb, 0x7f, 0xd0,
    0x2c, 0x26, 0x4c, 0x08, 0x1e, 0x57, 0x2e, 0x6c, 0x04, 0xb5, 0xd1, 0xf7, 0xf9,
    0xef, 0xdf, 0xe1, 0x0e, 0xf2, 0xdd, 0xc2, 0x2b, 0x30, 0x50, 0xad, 0x09, 0xef,
    0x2c, 0x10, 0xd7, 0xbd, 0x0e, 0x1e, 0x05, 0x22, 0xc3, 0xcf, 0xd6, 0x04, 0xf5,
    0x25, 0x68, 0xf8, 0x19, 0x40, 0x06, 0x4b, 0x44, 0x55, 0x0b, 0x7f, 0xa7, 0xcd,
    0xab, 0x06, 0x13, 0xd7, 0x1f, 0x24, 0xf6, 0x06, 0x19, 0xf3, 0x64, 0x14, 0xcd,
    0xee, 0x27, 0xf1, 0x10, 0x1f, 0xd4, 0xca, 0xf9, 0xf0, 0xef, 0xf9, 0x15, 0xdb,
    0xf7, 0x09, 0x03, 0x07, 0xf1, 0x09, 0x67, 0xd5, 0x7f, 0xdb, 0xd9, 0x6c, 0xcb,
    0x39, 0xef, 0xcd, 0x0a, 0x23, 0x50, 0x1c, 0x4f, 0xeb, 0xaf, 0x2e, 0x30, 0x39,
    0xf8, 0xef, 0x29, 0x62, 0xcd, 0x16, 0xcf, 0x01, 0x2b, 0x0a, 0x2e, 0xa4, 0x9c,
    0x4a, 0xf3, 0xee, 0xa2, 0xe3, 0x23, 0xf3, 0x97, 0x1f, 0xb1, 0xca, 0x0a, 0x05,
    0x0e, 0xf2, 0xb8, 0x81, 0xb2, 0x3c, 0x29, 0x08, 0xca, 0xce, 0x0e, 0xe7, 0x56,
    0xf3, 0xdd, 0xe2, 0x5f, 0xad, 0x18, 0xe9, 0xc5, 0x10, 0x30, 0x17, 0xb6, 0x3d,
    0xbe, 0x05, 0x28, 0xd6, 0xf1, 0xb4, 0xeb, 0x2b, 0xff, 0x28, 0x7f, 0x31, 0x70,
    0x50, 0xcd, 0x16, 0xc7, 0xf6, 0x32, 0x52, 0xa2, 0x88, 0x0c, 0x4e, 0x25, 0xb0,
    0x96, 0xba, 0x5e, 0x2f, 0x13, 0xc7, 0x51, 0xc2, 0x2f, 0x29, 0x14, 0x17, 0x7f,
    0x15, 0xf2, 0x4e, 0xeb, 0x79, 0x14, 0xfc, 0x3a, 0x89, 0xab, 0x18, 0xda, 0x94,
    0x5d, 0x49, 0xea, 0x59, 0x0c, 0xfb, 0xaf, 0x26, 0x1e, 0x03, 0x21, 0xe8, 0xe3,
    0xe8, 0x03, 0x0e, 0xc3, 0x04, 0x29, 0xc6, 0x28, 0xfb, 0x20, 0xf7, 0x1d, 0x02,
    0xcd, 0x14, 0xf6, 0xed, 0xe2, 0xf9, 0xd8, 0x57, 0x14, 0x1a, 0xf0, 0x10, 0x72,
    0x6e, 0xe2, 0xc9, 0x49, 0x0d, 0x72, 0x5b, 0x74, 0xef, 0xe5, 0x29, 0x2c, 0x7f,
    0xda, 0xf2, 0xf2, 0x05, 0x27, 0xe1, 0x05, 0xf2, 0xc1, 0xdb, 0x2d, 0x6a, 0x81,
    0xc7, 0x24, 0x23, 0x00, 0x08, 0xe6, 0x03, 0x11, 0x37, 0x56, 0xbd, 0xb2, 0x66,
    0x10, 0x0b, 0x99, 0xd0, 0x48, 0x62, 0xe5, 0xf7, 0x9e, 0xa9, 0x92, 0x0b, 0xf9,
    0xb3, 0x35, 0x99, 0x45, 0x5d, 0x25, 0x27, 0x13, 0x81, 0x6b, 0x83, 0xf4, 0x59,
    0x98, 0x01, 0x22, 0xa4, 0xb7, 0x4d, 0x98, 0xbb, 0xf3, 0xa0, 0x3c, 0xd0, 0xc1,
    0x51, 0x92, 0x0b, 0xdc, 0x38, 0xa7, 0x33, 0xa9, 0x23, 0xe1, 0x0e, 0x17, 0x07,
    0xc5, 0x1b, 0x1e, 0x96, 0x2d, 0x35, 0xf2, 0x86, 0xbc, 0x88, 0x48, 0x9e, 0x03,
    0x43, 0x27, 0x9b, 0x51, 0x8f, 0xa3, 0xc9, 0xfb, 0x1c, 0xac, 0xac, 0x27, 0x81,
    0xd4, 0x04, 0xcd, 0xf1, 0xe4, 0x3c, 0xd4, 0x86, 0x35, 0x8d, 0x54, 0x88, 0xbd,
    0xe1, 0x6a, 0xc3, 0xa3, 0x8a, 0xe2, 0xdf, 0x4b, 0x99, 0x51, 0x0f, 0x3e, 0xd7,
    0xb0, 0xea, 0xc7, 0xf0, 0x3a, 0xfa, 0xfb, 0xc7, 0x7f, 0xd3, 0xd4, 0x0b, 0xf4,
    0xfd, 0xb0, 0x13, 0x34, 0xd6, 0xf6, 0xd6, 0xcd, 0xc7, 0xff, 0x2a, 0x56, 0xd8,
    0x03, 0xe6, 0x78, 0xed, 0x52, 0x5d, 0x2c, 0x1a, 0xda, 0x3c, 0x40, 0x06, 0x3e,
    0x34, 0xc9, 0xeb, 0x94, 0x2e, 0xbe, 0x5d, 0x3b, 0xbf, 0xc5, 0xae, 0xda, 0xb1,
    0xe4, 0xce, 0x51, 0xc3, 0xd7, 0xb9, 0xbd, 0xff, 0x1e, 0xdd, 0x69, 0xfa, 0x32,
    0x1f, 0x53, 0xf3, 0xea, 0x41, 0x78, 0x57, 0x7f, 0x35, 0x5a, 0xe6, 0x11, 0x7a,
    0xc3, 0x4c, 0x10, 0x72, 0x43, 0x4a, 0x25, 0x6b, 0x06, 0xa2, 0x9c, 0x03, 0x2b,
    0xce, 0xae, 0x11, 0x71, 0xeb, 0x88, 0xe7, 0x04, 0xc6, 0x9a, 0xda, 0x0b, 0xc0,
    0xc9, 0x70, 0xef, 0x3a, 0xea, 0x26, 0x5b, 0x41, 0xa2, 0x22, 0xb5, 0xa1, 0x81,
    0xd5, 0x57, 0xb6, 0xde, 0xad, 0xc6, 0x2a, 0xed, 0x99, 0xe5, 0x66, 0xa7, 0x15,
    0x95, 0xbd, 0xd2, 0x94, 0xad, 0x81, 0x32, 0x08, 0x61, 0xf3, 0xe6, 0x09, 0x2b,
    0xc8, 0x52, 0xd1, 0xee, 0x9d, 0xf4, 0xdb, 0xe0, 0x56, 0xce, 0xd3, 0x27, 0x0b,
    0x57, 0x27, 0x9b, 0xe5, 0x8f, 0xc4, 0x12, 0xb5, 0xc7, 0x4b, 0xf5, 0xe6, 0x40,
    0xe1, 0x5b, 0xd0, 0x0a, 0x2d, 0xcf, 0xb0, 0xf4, 0x8f, 0x0b, 0x02, 0xe6, 0x97,
    0xf9, 0x15, 0xe9, 0xef, 0x03, 0x02, 0xe0, 0x7a, 0x4e, 0x09, 0x3d, 0xce, 0x0e,
    0x04, 0x38, 0x32, 0xd5, 0x45, 0x3e, 0x0a, 0x81, 0xed, 0x01, 0x0f, 0x2e, 0x10,
    0x09, 0xfb, 0xee, 0xe2, 0xf5, 0x26, 0x2b, 0x10, 0x14, 0x1c, 0x37, 0xf4, 0x20,
    0xc0, 0xff, 0xe3, 0x21, 0xb0, 0x00, 0x0c, 0xe1, 0x35, 0x0b, 0xce, 0xe7, 0xf8,
    0x66, 0x3e, 0xfc, 0xf6, 0x42, 0xf9, 0x53, 0xfe, 0x19, 0x22, 0x11, 0x7f, 0xca,
    0x39, 0xd1, 0x54, 0xdc, 0x1a, 0x2f, 0x29, 0xce, 0xd6, 0xaa, 0xd8, 0x09, 0x05,
    0x20, 0x06, 0xa9, 0xdc, 0xeb, 0x34, 0x1d, 0xfd, 0x18, 0xcf, 0xdd, 0xca, 0xfb,
    0xd2, 0x31, 0x0a, 0x7f, 0x39, 0x0b, 0xd1, 0xe9, 0xe4, 0xf1, 0x1b, 0xf2, 0xf4,
    0xcc, 0x2c, 0x16, 0x2d, 0xf8, 0xb8, 0x67, 0xcd, 0xdf, 0x2a, 0x36, 0x34, 0xc1,
    0xc0, 0x0d, 0xb9, 0x10, 0x22, 0x96, 0xbd, 0xd7, 0xe6, 0x7f, 0x0e, 0xd7, 0x5c,
    0xe3, 0xe2, 0xe2, 0xf9, 0x2c, 0x2e, 0x5b, 0xdd, 0xb8, 0xe9, 0x16, 0xf3, 0x0b,
    0xd1, 0xdc, 0xf1, 0xf4, 0x0d, 0x39, 0x18, 0x93, 0x61, 0x2f, 0x09, 0xc3, 0x1f,
    0xa7, 0x10, 0x23, 0x66, 0x22, 0xb8, 0x67, 0x2f, 0xb3, 0x68, 0xa5, 0x0c, 0x48,
    0x19, 0xef, 0xa4, 0xf0, 0x07, 0xc5, 0xd0, 0xb6, 0xfd, 0x81, 0xa7, 0x22, 0xc6,
    0x64, 0xa1, 0x1d, 0xc5, 0xbf, 0xbf, 0xa9, 0x20, 0x9c, 0x0c, 0xda, 0xef, 0x23,
    0x00, 0xa0, 0xb7, 0xba, 0x2a, 0x88, 0xcd, 0x36, 0x0a, 0x2a, 0xb2, 0xca, 0x08,
    0xb9, 0x13, 0x76, 0xbc, 0x01, 0x3e, 0x61, 0xca, 0xf4, 0xc6, 0x46, 0xcf, 0x51,
    0x03, 0x49, 0x98, 0x91, 0x60, 0x7e, 0xf4, 0xef, 0x10, 0x81, 0x86, 0x41, 0xd1,
    0xaf, 0xdc, 0x81, 0xf7, 0x3f, 0x1e, 0xb3, 0xf0, 0xf4, 0x01, 0xda, 0xc1, 0xbd,
    0x11, 0x12, 0x2c, 0x14, 0xf2, 0x9d, 0xad, 0x30, 0x1e, 0xb6, 0x8a, 0xef, 0x12,
    0xf7, 0x48, 0x9b, 0x03, 0x1a, 0x30, 0x9b, 0x0c, 0xee, 0x20, 0xa1, 0xb6, 0xcf,
    0xdd, 0xfe, 0xd9, 0x27, 0x0d, 0xac, 0xbc, 0xc8, 0x20, 0xc3, 0xdf, 0x1f, 0x37,
    0xc4, 0x18, 0x81, 0x03, 0xa7, 0x26, 0x49, 0xb4, 0xe8, 0x87, 0xf0, 0xf0, 0x86,
    0xf5, 0xdb, 0xcd, 0xd5, 0xf8, 0xa8, 0x2e, 0x8c, 0x34, 0x9c, 0x34, 0x19, 0xce,
    0x5f, 0xf3, 0xd2, 0xad, 0x12, 0x65, 0xb4, 0x50, 0xe0, 0xc7, 0x5f, 0xc1, 0x5d,
    0x1c, 0xd9, 0x0a, 0x51, 0xf6, 0xb4, 0xc7, 0x03, 0xc6, 0x5f, 0xb0, 0xdb, 0xbb,
    0xbf, 0xe0, 0xd7, 0xfa, 0xf4, 0xd7, 0xd0, 0x44, 0x98, 0xb0, 0xd3, 0x3e, 0x0b,
    0xf2, 0x81, 0x08, 0xa2, 0xe1, 0xee, 0x10, 0x18, 0xe9, 0xae, 0x3a, 0xe4, 0x0e,
    0x22, 0xe9, 0xcd, 0xa9, 0xf1, 0xfb, 0xc5, 0xe0, 0x7f, 0xd4, 0x29, 0x0a, 0x41,
    0xf2, 0x50, 0xf4, 0xdd, 0x2e, 0xec, 0x3c, 0x32, 0xc9, 0x0b, 0xe3, 0x1a, 0x57,
    0x39, 0x22, 0x0c, 0x0b, 0x64, 0xc1, 0x78, 0xc8, 0xeb, 0x25, 0x2a, 0xea, 0xf0,
    0xe7, 0x1b, 0x9f, 0xa1, 0x3c, 0xec, 0x22, 0xfe, 0x60, 0xdc, 0xc2, 0x00, 0xcc,
    0xd3, 0xdc, 0x3b, 0xf0, 0xbb, 0x64, 0x6f, 0xb3, 0x2a, 0xaa, 0xcc, 0x92, 0x2c,
    0xba, 0xb4, 0x30, 0x1d, 0x65, 0xcd, 0x0c, 0xa1, 0x0d, 0xa8, 0x7f, 0x14, 0xf4,
    0x1a, 0xc3, 0x05, 0xb1, 0x53, 0x29, 0x2d, 0x2e, 0x1f, 0x0a, 0x0e, 0x47, 0x2c,
    0x17, 0x0f, 0xde, 0x09, 0x4d, 0xad, 0x00, 0x8d, 0xf8, 0xdc, 0xa4, 0x19, 0x0e,
    0x4b, 0xcf, 0x14, 0xe0, 0xf2, 0x05, 0x28, 0x3c, 0xe9, 0x22, 0x2b, 0x1a, 0x8c,
    0x26, 0x17, 0x81, 0x17, 0xcf, 0xe6, 0xfb, 0xff, 0xff, 0x04, 0x00, 0x00, 0x00,
    0x80, 0x00, 0x00, 0x00, 0x9a, 0xff, 0xff, 0xff, 0x02, 0xff, 0xff, 0xff, 0x75,
    0x01, 0x00, 0x00, 0x0b, 0xfe, 0xff, 0xff, 0x64, 0xfe, 0xff, 0xff, 0x8f, 0x01,
    0x00, 0x00, 0x70, 0xfe, 0xff, 0xff, 0xf7, 0xfe, 0xff, 0xff, 0xc6, 0xfe, 0xff,
    0xff, 0x0a, 0x01, 0x00, 0x00, 0x3e, 0xfe, 0xff, 0xff, 0x12, 0xfe, 0xff, 0xff,
    0xd7, 0xfe, 0xff, 0xff, 0x5d, 0x02, 0x00, 0x00, 0xb6, 0xff, 0xff, 0xff, 0x50,
    0xfe, 0xff, 0xff, 0xbc, 0xfe, 0xff, 0xff, 0x83, 0xfe, 0xff, 0xff, 0x90, 0x01,
    0x00, 0x00, 0xae, 0xff, 0xff, 0xff, 0xb5, 0xff, 0xff, 0xff, 0x54, 0xfe, 0xff,
    0xff, 0x03, 0xff, 0xff, 0xff, 0x66, 0xff, 0xff, 0xff, 0xf5, 0xfe, 0xff, 0xff,
    0x23, 0xff, 0xff, 0xff, 0x73, 0x00, 0x00, 0x00, 0x4b, 0xff, 0xff, 0xff, 0x3e,
    0x00, 0x00, 0x00, 0x10, 0xff, 0xff, 0xff, 0xaa, 0x00, 0x00, 0x00, 0xec, 0xff,
    0xff, 0xff, 0x72, 0xfc, 0xff, 0xff, 0x04, 0x00, 0x00, 0x00, 0x00, 0x02, 0x00,
    0x00, 0xb2, 0xf9, 0x10, 0x2f, 0x08, 0x3d, 0x15, 0x81, 0x43, 0x10, 0x22, 0xad,
    0x97, 0x1e, 0x3b, 0xda, 0x08, 0x92, 0x21, 0x01, 0xde, 0x98, 0xfd, 0xc1, 0x68,
    0x18, 0xe3, 0x0a, 0x1a, 0xe9, 0xd1, 0x0b, 0x23, 0x7f, 0x26, 0x00, 0x68, 0xee,
    0x37, 0x21, 0xfc, 0xc1, 0x3c, 0x4f, 0x47, 0xe7, 0xd7, 0x13, 0x47, 0x4e, 0x1a,
    0xaf, 0x0c, 0xf1, 0x52, 0xd8, 0x37, 0x43, 0x34, 0x12, 0x45, 0xf0, 0x1f, 0x04,
    0x7f, 0x2f, 0xa9, 0x39, 0xdd, 0xd2, 0x3b, 0x4c, 0x14, 0xaa, 0x75, 0x5f, 0x3c,
    0x36, 0x4d, 0xbd, 0x3c, 0xb5, 0x89, 0xfc, 0xd0, 0xdf, 0x14, 0x67, 0x6c, 0x50,
    0xd6, 0xca, 0x1e, 0xfc, 0xab, 0xcb, 0x69, 0x43, 0xeb, 0x26, 0xc0, 0xa1, 0xe0,
    0x37, 0xf6, 0xe0, 0xc9, 0x50, 0xd4, 0x81, 0x49, 0xf2, 0x43, 0x2d, 0xfd, 0x96,
    0xeb, 0xac, 0xc0, 0xf2, 0xc0, 0x15, 0x0c, 0x05, 0x23, 0x1c, 0x33, 0x2b, 0x5b,
    0x40, 0xdd, 0x3e, 0x4a, 0xf0, 0x35, 0x12, 0xd3, 0xed, 0x6d, 0x3f, 0x7f, 0xd0,
    0x0f, 0x59, 0xd1, 0x38, 0x17, 0xed, 0x96, 0x26, 0x77, 0x2a, 0x4d, 0x46, 0xae,
    0x55, 0x3e, 0x2d, 0x0b, 0x01, 0x39, 0x7f, 0xc3, 0x30, 0xfd, 0x03, 0x6f, 0xbc,
    0x3f, 0x25, 0x23, 0xda, 0x69, 0xe8, 0xfe, 0x52, 0xd2, 0xf4, 0xd1, 0x0f, 0xc0,
    0xda, 0x76, 0x5b, 0xed, 0xcb, 0x09, 0x67, 0xb2, 0x45, 0x46, 0xd2, 0x47, 0xb3,
    0xd5, 0x06, 0x90, 0x1e, 0x59, 0x04, 0xdc, 0xf7, 0xff, 0x3c, 0xa4, 0xae, 0x40,
    0xff, 0xa2, 0xde, 0x2d, 0x6b, 0xac, 0xb2, 0x98, 0xeb, 0xe7, 0x7f, 0x52, 0xff,
    0x1d, 0x42, 0x55, 0xe3, 0xf0, 0xef, 0x50, 0x36, 0xfc, 0x1b, 0x24, 0xbb, 0x31,
    0xed, 0x17, 0xe7, 0x8c, 0x4d, 0xa7, 0x0e, 0x81, 0x92, 0x0f, 0xcd, 0x32, 0xeb,
    0xc4, 0xd8, 0xd4, 0xcf, 0x1c, 0xc3, 0xe1, 0xa2, 0xc8, 0x22, 0x3b, 0x7f, 0xa6,
    0x0e, 0x28, 0xe5, 0x39, 0x3b, 0x35, 0xd9, 0x61, 0xdf, 0x15, 0xc7, 0xa6, 0xf1,
    0x57, 0xf8, 0xc3, 0x41, 0x26, 0x6e, 0x74, 0x25, 0xdf, 0x0e, 0xe2, 0xbe, 0xcf,
    0x42, 0xcc, 0x29, 0x14, 0x21, 0xf8, 0x17, 0xd1, 0xfd, 0xe6, 0xfb, 0x4e, 0x11,
    0x11, 0x15, 0x3e, 0x8f, 0xfd, 0xf9, 0x36, 0x1f, 0x1f, 0xd3, 0xce, 0x7f, 0x52,
    0x59, 0x4b, 0xdd, 0xc6, 0xb3, 0xc2, 0x75, 0x10, 0xce, 0x1c, 0x24, 0xe2, 0xb9,
    0x43, 0xc7, 0x76, 0x33, 0x2a, 0xc0, 0x63, 0x56, 0x7f, 0xdb, 0xe5, 0xd3, 0x4f,
    0x6d, 0xb4, 0xbf, 0xd1, 0xfa, 0xfc, 0x6b, 0xe7, 0xf3, 0x06, 0x1c, 0xd0, 0x12,
    0xd8, 0x0e, 0xfc, 0x5d, 0xfd, 0xef, 0x18, 0xb0, 0x96, 0x31, 0x2b, 0xf5, 0x7f,
    0x6b, 0x9e, 0xcb, 0x18, 0xb8, 0x15, 0xb0, 0xa7, 0x06, 0xef, 0x42, 0xda, 0x2c,
    0x81, 0x08, 0x3d, 0x4c, 0xfa, 0x9f, 0xa8, 0xc8, 0x3c, 0xff, 0x57, 0xe0, 0x2c,
    0xb4, 0x06, 0x0f, 0xba, 0x2f, 0x1b, 0xb0, 0xce, 0x39, 0x35, 0x6e, 0xba, 0xdd,
    0xba, 0x70, 0x32, 0xd5, 0x9e, 0xbb, 0xaf, 0xd2, 0x6b, 0x56, 0x7f, 0x06, 0x2d,
    0xb4, 0xa2, 0xea, 0xf5, 0x82, 0xc2, 0xc7, 0x44, 0x16, 0x8e, 0x15, 0xf7, 0x37,
    0xb8, 0x10, 0x10, 0x81, 0x30, 0xf8, 0xc5, 0x86, 0x5d, 0xf7, 0x3e, 0xc8, 0xcb,
    0x0e, 0xb9, 0x1e, 0xad, 0xd8, 0xb9, 0xc1, 0xa3, 0xd2, 0xc0, 0x38, 0xac, 0x92,
    0x2d, 0x3b, 0xdd, 0x97, 0x10, 0xb5, 0xda, 0xe9, 0xab, 0xdd, 0x4d, 0x1a, 0xcf,
    0x5e, 0x99, 0x2b, 0x5e, 0x05, 0x1b, 0x48, 0x3f, 0x48, 0x81, 0xec, 0x47, 0xeb,
    0x2b, 0x4b, 0x6c, 0xbe, 0x81, 0xdc, 0x8a, 0x75, 0x8f, 0x07, 0xc1, 0xf6, 0xae,
    0xf2, 0x8a, 0xc3, 0x38, 0x53, 0x50, 0x5a, 0xcd, 0x6b, 0xb3, 0x3f, 0x79, 0x3b,
    0xfb, 0x86, 0x97, 0x9c, 0x03, 0x92, 0x7e, 0xfe, 0xff, 0xff, 0x04, 0x00, 0x00,
    0x00, 0x40, 0x00, 0x00, 0x00, 0xa9, 0x00, 0x00, 0x00, 0x10, 0xff, 0xff, 0xff,
    0xee, 0xfe, 0xff, 0xff, 0x32, 0xff, 0xff, 0xff, 0xab, 0xfe, 0xff, 0xff, 0x02,
    0xff, 0xff, 0xff, 0x3a, 0x00, 0x00, 0x00, 0xae, 0x00, 0x00, 0x00, 0xfc, 0xfe,
    0xff, 0xff, 0x0f, 0xff, 0xff, 0xff, 0xf4, 0xfe, 0xff, 0xff, 0x64, 0xfe, 0xff,
    0xff, 0x8f, 0x01, 0x00, 0x00, 0xa0, 0xfe, 0xff, 0xff, 0x27, 0xff, 0xff, 0xff,
    0x04, 0x00, 0x00, 0x00, 0xca, 0xfe, 0xff, 0xff, 0x04, 0x00, 0x00, 0x00, 0x80,
    0x00, 0x00, 0x00, 0x1d, 0xc5, 0x7a, 0xc2, 0x7f, 0x6e, 0x49, 0xe2, 0x76, 0x1e,
    0x69, 0x70, 0x1c, 0xc7, 0xe5, 0x4d, 0x6d, 0xca, 0x85, 0x60, 0xb6, 0x84, 0x65,
    0x7f, 0x82, 0xe9, 0xed, 0xe7, 0x34, 0x28, 0xfb, 0x32, 0xb9, 0x01, 0x5a, 0x36,
    0x7f, 0xe8, 0x08, 0xff, 0x5d, 0xf3, 0xeb, 0x0b, 0xcf, 0xfb, 0x61, 0xf6, 0xdb,
    0x2a, 0xfa, 0x23, 0x1b, 0x5c, 0xfa, 0xc5, 0x2c, 0x0b, 0x7f, 0x23, 0xf5, 0x0e,
    0xd8, 0x35, 0x12, 0xe4, 0xf0, 0x23, 0xc7, 0x68, 0xb0, 0xa3, 0xfa, 0x7f, 0xe9,
    0x03, 0xb0, 0x41, 0x22, 0x16, 0xce, 0x7f, 0x33, 0x47, 0xe2, 0xe1, 0x63, 0xfb,
    0x20, 0x6e, 0x44, 0xb0, 0xec, 0x1b, 0x6e, 0xb3, 0xd8, 0x33, 0x27, 0x5a, 0x7f,
    0xe2, 0x01, 0x17, 0xaf, 0x04, 0xe3, 0xec, 0xaa, 0xa1, 0x57, 0xd3, 0xf3, 0x32,
    0xd6, 0x1a, 0xf4, 0x12, 0x21, 0xaf, 0x2b, 0x76, 0x7f, 0xdf, 0xd2, 0x5a, 0xd2,
    0x16, 0x56, 0xff, 0xff, 0xff, 0x04, 0x00, 0x00, 0x00, 0x20, 0x00, 0x00, 0x00,
    0x9f, 0xfe, 0xff, 0xff, 0x35, 0x01, 0x00, 0x00, 0x6f, 0xff, 0xff, 0xff, 0xb0,
    0xff, 0xff, 0xff, 0x5a, 0xff, 0xff, 0xff, 0x8e, 0xff, 0xff, 0xff, 0x4f, 0xff,
    0xff, 0xff, 0x34, 0xff, 0xff, 0xff, 0x82, 0xff, 0xff, 0xff, 0x04, 0x00, 0x00,
    0x00, 0x20, 0x00, 0x00, 0x00, 0x52, 0xaa, 0x2c, 0x3e, 0x28, 0x3a, 0xf1, 0x7f,
    0x2a, 0xc4, 0x7f, 0x7b, 0x59, 0x06, 0x44, 0x4f, 0xd9, 0x7f, 0x0d, 0xb2, 0xd4,
    0xd1, 0xb7, 0x01, 0x7f, 0xba, 0x55, 0x00, 0xd7, 0x74, 0x03, 0x21, 0xae, 0xff,
    0xff, 0xff, 0x04, 0x00, 0x00, 0x00, 0x10, 0x00, 0x00, 0x00, 0x93, 0xff, 0xff,
    0xff, 0x65, 0xff, 0xff, 0xff, 0x31, 0x01, 0x00, 0x00, 0x8f, 0xff, 0xff, 0xff,
    0xca, 0xff, 0xff, 0xff, 0x04, 0x00, 0x00, 0x00, 0x08, 0x00, 0x00, 0x00, 0xd6,
    0xe1, 0x7f, 0xdd, 0x50, 0x7f, 0x9c, 0x2b, 0xde, 0xff, 0xff, 0xff, 0x04, 0x00,
    0x00, 0x00, 0x08, 0x00, 0x00, 0x00, 0xd8, 0x00, 0x00, 0x00, 0xdd, 0xff, 0xff,
    0xff, 0xf2, 0xff, 0xff, 0xff, 0x04, 0x00, 0x00, 0x00, 0x02, 0x00, 0x00, 0x00,
    0x81, 0x36, 0x06, 0x00, 0x08, 0x00, 0x04, 0x00, 0x06, 0x00, 0x00, 0x00, 0x04,
    0x00, 0x00, 0x00, 0x04, 0x00, 0x00, 0x00, 0xf8, 0xff, 0xff, 0xff, 0x1c, 0xff,
    0xff, 0xff, 0x20, 0xff, 0xff, 0xff, 0x0f, 0x00, 0x00, 0x00, 0x4d, 0x4c, 0x49,
    0x52, 0x20, 0x43, 0x6f, 0x6e, 0x76, 0x65, 0x72, 0x74, 0x65, 0x64, 0x2e, 0x00,
    0x01, 0x00, 0x00, 0x00, 0x14, 0x00, 0x00, 0x00, 0x00, 0x00, 0x0e, 0x00, 0x18,
    0x00, 0x14, 0x00, 0x10, 0x00, 0x0c, 0x00, 0x08, 0x00, 0x04, 0x00, 0x0e, 0x00,
    0x00, 0x00, 0x14, 0x00, 0x00, 0x00, 0x1c, 0x00, 0x00, 0x00, 0x54, 0x02, 0x00,
    0x00, 0x58, 0x02, 0x00, 0x00, 0x5c, 0x02, 0x00, 0x00, 0x04, 0x00, 0x00, 0x00,
    0x6d, 0x61, 0x69, 0x6e, 0x00, 0x00, 0x00, 0x00, 0x0a, 0x00, 0x00, 0x00, 0x1c,
    0x02, 0x00, 0x00, 0xcc, 0x01, 0x00, 0x00, 0x80, 0x01, 0x00, 0x00, 0x44, 0x01,
    0x00, 0x00, 0x08, 0x01, 0x00, 0x00, 0xcc, 0x00, 0x00, 0x00, 0x90, 0x00, 0x00,
    0x00, 0x54, 0x00, 0x00, 0x00, 0x30, 0x00, 0x00, 0x00, 0x04, 0x00, 0x00, 0x00,
    0x16, 0xfe, 0xff, 0xff, 0x08, 0x00, 0x00, 0x00, 0x0c, 0x00, 0x00, 0x00, 0x01,
    0x00, 0x00, 0x00, 0x18, 0x00, 0x00, 0x00, 0x01, 0x00, 0x00, 0x00, 0x17, 0x00,
    0x00, 0x00, 0x00, 0x00, 0x0a, 0x00, 0x10, 0x00, 0x0c, 0x00, 0x08, 0x00, 0x04,
    0x00, 0x0a, 0x00, 0x00, 0x00, 0x0c, 0x00, 0x00, 0x00, 0x10, 0x00, 0x00, 0x00,
    0x02, 0x00, 0x00, 0x00, 0x01, 0x00, 0x00, 0x00, 0x17, 0x00, 0x00, 0x00, 0x01,
    0x00, 0x00, 0x00, 0x16, 0x00, 0x00, 0x00, 0xae, 0xfe, 0xff, 0xff, 0x18, 0x00,
    0x00, 0x00, 0x00, 0x00, 0x00, 0x08, 0x14, 0x00, 0x00, 0x00, 0x18, 0x00, 0x00,
    0x00, 0x01, 0x00, 0x00, 0x00, 0x04, 0x00, 0x04, 0x00, 0x04, 0x00, 0x00, 0x00,
    0x01, 0x00, 0x00, 0x00, 0x16, 0x00, 0x00, 0x00, 0x03, 0x00, 0x00, 0x00, 0x15,
    0x00, 0x00, 0x00, 0x02, 0x00, 0x00, 0x00, 0x01, 0x00, 0x00, 0x00, 0xe6, 0xfe,
    0xff, 0xff, 0x14, 0x00, 0x00, 0x00, 0x00, 0x00, 0x00, 0x08, 0x14, 0x00, 0x00,
    0x00, 0x18, 0x00, 0x00, 0x00, 0x01, 0x00, 0x00, 0x00, 0xd6, 0xfe, 0xff, 0xff,
    0x00, 0x00, 0x00, 0x01, 0x01, 0x00, 0x00, 0x00, 0x15, 0x00, 0x00, 0x00, 0x03,
    0x00, 0x00, 0x00, 0x14, 0x00, 0x00, 0x00, 0x04, 0x00, 0x00, 0x00, 0x03, 0x00,
    0x00, 0x00, 0x1e, 0xff, 0xff, 0xff, 0x14, 0x00, 0x00, 0x00, 0x00, 0x00, 0x00,
    0x08, 0x14, 0x00, 0x00, 0x00, 0x18, 0x00, 0x00, 0x00, 0x01, 0x00, 0x00, 0x00,
    0x0e, 0xff, 0xff, 0xff, 0x00, 0x00, 0x00, 0x01, 0x01, 0x00, 0x00, 0x00, 0x14,
    0x00, 0x00, 0x00, 0x03, 0x00, 0x00, 0x00, 0x13, 0x00, 0x00, 0x00, 0x06, 0x00,
    0x00, 0x00, 0x05, 0x00, 0x00, 0x00, 0x56, 0xff, 0xff, 0xff, 0x14, 0x00, 0x00,
    0x00, 0x00, 0x00, 0x00, 0x08, 0x14, 0x00, 0x00, 0x00, 0x18, 0x00, 0x00, 0x00,
    0x01, 0x00, 0x00, 0x00, 0x46, 0xff, 0xff, 0xff, 0x00, 0x00, 0x00, 0x01, 0x01,
    0x00, 0x00, 0x00, 0x13, 0x00, 0x00, 0x00, 0x03, 0x00, 0x00, 0x00, 0x12, 0x00,
    0x00, 0x00, 0x08, 0x00, 0x00, 0x00, 0x07, 0x00, 0x00, 0x00, 0x8e, 0xff, 0xff,
    0xff, 0x14, 0x00, 0x00, 0x00, 0x00, 0x00, 0x00, 0x08, 0x14, 0x00, 0x00, 0x00,
    0x18, 0x00, 0x00, 0x00, 0x01, 0x00, 0x00, 0x00, 0x7e, 0xff, 0xff, 0xff, 0x00,
    0x00, 0x00, 0x01, 0x01, 0x00, 0x00, 0x00, 0x12, 0x00, 0x00, 0x00, 0x03, 0x00,
    0x00, 0x00, 0x11, 0x00, 0x00, 0x00, 0x0a, 0x00, 0x00, 0x00, 0x09, 0x00, 0x00,
    0x00, 0xc6, 0xff, 0xff, 0xff, 0x14, 0x00, 0x00, 0x00, 0x00, 0x00, 0x00, 0x08,
    0x14, 0x00, 0x00, 0x00, 0x18, 0x00, 0x00, 0x00, 0x01, 0x00, 0x00, 0x00, 0xb6,
    0xff, 0xff, 0xff, 0x00, 0x00, 0x00, 0x01, 0x01, 0x00, 0x00, 0x00, 0x11, 0x00,
    0x00, 0x00, 0x03, 0x00, 0x00, 0x00, 0x10, 0x00, 0x00, 0x00, 0x0c, 0x00, 0x00,
    0x00, 0x0b, 0x00, 0x00, 0x00, 0x00, 0x00, 0x0e, 0x00, 0x1a, 0x00, 0x14, 0x00,
    0x10, 0x00, 0x0c, 0x00, 0x0b, 0x00, 0x04, 0x00, 0x0e, 0x00, 0x00, 0x00, 0x1c,
    0x00, 0x00, 0x00, 0x00, 0x00, 0x00, 0x08, 0x1c, 0x00, 0x00, 0x00, 0x20, 0x00,
    0x00, 0x00, 0x01, 0x00, 0x00, 0x00, 0x00, 0x00, 0x06, 0x00, 0x08, 0x00, 0x07,
    0x00, 0x06, 0x00, 0x00, 0x00, 0x00, 0x00, 0x00, 0x01, 0x01, 0x00, 0x00, 0x00,
    0x10, 0x00, 0x00, 0x00, 0x03, 0x00, 0x00, 0x00, 0x0f, 0x00, 0x00, 0x00, 0x0e,
    0x00, 0x00, 0x00, 0x0d, 0x00, 0x00, 0x00, 0x00, 0x00, 0x0a, 0x00, 0x0c, 0x00,
    0x00, 0x00, 0x08, 0x00, 0x04, 0x00, 0x0a, 0x00, 0x00, 0x00, 0x08, 0x00, 0x00,
    0x00, 0x0c, 0x00, 0x00, 0x00, 0x01, 0x00, 0x00, 0x00, 0x0f, 0x00, 0x00, 0x00,
    0x01, 0x00, 0x00, 0x00, 0x00, 0x00, 0x00, 0x00, 0x01, 0x00, 0x00, 0x00, 0x18,
    0x00, 0x00, 0x00, 0x01, 0x00, 0x00, 0x00, 0x00, 0x00, 0x00, 0x00, 0x19, 0x00,
    0x00, 0x00, 0x48, 0x15, 0x00, 0x00, 0xd0, 0x14, 0x00, 0x00, 0x54, 0x14, 0x00,
    0x00, 0xe8, 0x13, 0x00, 0x00, 0x74, 0x13, 0x00, 0x00, 0xf0, 0x12, 0x00, 0x00,
    0x64, 0x12, 0x00, 0x00, 0xb0, 0x11, 0x00, 0x00, 0xf4, 0x10, 0x00, 0x00, 0xe0,
    0x0f, 0x00, 0x00, 0xc4, 0x0e, 0x00, 0x00, 0xf0, 0x0c, 0x00, 0x00, 0x14, 0x0b,
    0x00, 0x00, 0xc8, 0x08, 0x00, 0x00, 0x74, 0x06, 0x00, 0x00, 0x00, 0x06, 0x00,
    0x00, 0x4c, 0x05, 0x00, 0x00, 0x90, 0x04, 0x00, 0x00, 0xd4, 0x03, 0x00, 0x00,
    0x18, 0x03, 0x00, 0x00, 0x5c, 0x02, 0x00, 0x00, 0xa0, 0x01, 0x00, 0x00, 0x04,
    0x01, 0x00, 0x00, 0x80, 0x00, 0x00, 0x00, 0x04, 0x00, 0x00, 0x00, 0x32, 0xeb,
    0xff, 0xff, 0x00, 0x00, 0x00, 0x01, 0x18, 0x00, 0x00, 0x00, 0x20, 0x00, 0x00,
    0x00, 0x3c, 0x00, 0x00, 0x00, 0x19, 0x00, 0x00, 0x00, 0x00, 0x00, 0x00, 0x03,
    0x50, 0x00, 0x00, 0x00, 0x02, 0x00, 0x00, 0x00, 0xff, 0xff, 0xff, 0xff, 0x01,
    0x00, 0x00, 0x00, 0x1c, 0xeb, 0xff, 0xff, 0x08, 0x00, 0x00, 0x00, 0x10, 0x00,
    0x00, 0x00, 0x01, 0x00, 0x00, 0x00, 0x00, 0x00, 0x00, 0x00, 0x00, 0x00, 0x00,
    0x00, 0x01, 0x00, 0x00, 0x00, 0x00, 0x00, 0x80, 0x3b, 0x1b, 0x00, 0x00, 0x00,
    0x53, 0x74, 0x61, 0x74, 0x65, 0x66, 0x75, 0x6c, 0x50, 0x61, 0x72, 0x74, 0x69,
    0x74, 0x69, 0x6f, 0x6e, 0x65, 0x64, 0x43, 0x61, 0x6c, 0x6c, 0x5f, 0x31, 0x3a,
    0x30, 0x00, 0x02, 0x00, 0x00, 0x00, 0x01, 0x00, 0x00, 0x00, 0x01, 0x00, 0x00,
    0x00, 0xaa, 0xeb, 0xff, 0xff, 0x00, 0x00, 0x00, 0x01, 0x18, 0x00, 0x00, 0x00,
    0x20, 0x00, 0x00, 0x00, 0x40, 0x00, 0x00, 0x00, 0x18, 0x00, 0x00, 0x00, 0x00,
    0x00, 0x00, 0x09, 0x58, 0x00, 0x00, 0x00, 0x02, 0x00, 0x00, 0x00, 0xff, 0xff,
    0xff, 0xff, 0x01, 0x00, 0x00, 0x00, 0x94, 0xeb, 0xff, 0xff, 0x08, 0x00, 0x00,
    0x00, 0x14, 0x00, 0x00, 0x00, 0x01, 0x00, 0x00, 0x00, 0x80, 0xff, 0xff, 0xff,
    0xff, 0xff, 0xff, 0xff, 0x00, 0x00, 0x00, 0x00, 0x01, 0x00, 0x00, 0x00, 0x00,
    0x00, 0x80, 0x3b, 0x1c, 0x00, 0x00, 0x00, 0x53, 0x74, 0x61, 0x74, 0x65, 0x66,
    0x75, 0x6c, 0x50, 0x61, 0x72, 0x74, 0x69, 0x74, 0x69, 0x6f, 0x6e, 0x65, 0x64,
    0x43, 0x61, 0x6c, 0x6c, 0x5f, 0x31, 0x3a, 0x30, 0x31, 0x00, 0x00, 0x00, 0x00,
    0x02, 0x00, 0x00, 0x00, 0x01, 0x00, 0x00, 0x00, 0x01, 0x00, 0x00, 0x00, 0x2a,
    0xec, 0xff, 0xff, 0x00, 0x00, 0x00, 0x01, 0x18, 0x00, 0x00, 0x00, 0x20, 0x00,
    0x00, 0x00, 0x3c, 0x00, 0x00, 0x00, 0x17, 0x00, 0x00, 0x00, 0x00, 0x00, 0x00,
    0x09, 0x70, 0x00, 0x00, 0x00, 0x02, 0x00, 0x00, 0x00, 0xff, 0xff, 0xff, 0xff,
    0x01, 0x00, 0x00, 0x00, 0x14, 0xec, 0xff, 0xff, 0x08, 0x00, 0x00, 0x00, 0x10,
    0x00, 0x00, 0x00, 0x01, 0x00, 0x00, 0x00, 0x91, 0xff, 0xff, 0xff, 0xff, 0xff,
    0xff, 0xff, 0x01, 0x00, 0x00, 0x00, 0x08, 0x2f, 0x54, 0x3f, 0x38, 0x00, 0x00,
    0x00, 0x73, 0x65, 0x71, 0x75, 0x65, 0x6e, 0x74, 0x69, 0x61, 0x6c, 0x5f, 0x31,
    0x2f, 0x64, 0x65, 0x6e, 0x73, 0x65, 0x5f, 0x36, 0x5f, 0x31, 0x2f, 0x4d, 0x61,
    0x74, 0x4d, 0x75, 0x6c, 0x3b, 0x73, 0x65, 0x71, 0x75, 0x65, 0x6e, 0x74, 0x69,
    0x61, 0x6c, 0x5f, 0x31, 0x2f, 0x64, 0x65, 0x6e, 0x73, 0x65, 0x5f, 0x36, 0x5f,
    0x31, 0x2f, 0x41, 0x64, 0x64, 0x00, 0x00, 0x00, 0x00, 0x02, 0x00, 0x00, 0x00,
    0x01, 0x00, 0x00, 0x00, 0x01, 0x00, 0x00, 0x00, 0xc2, 0xec, 0xff, 0xff, 0x00,
    0x00, 0x00, 0x01, 0x18, 0x00, 0x00, 0x00, 0x20, 0x00, 0x00, 0x00, 0x3c, 0x00,
    0x00, 0x00, 0x16, 0x00, 0x00, 0x00, 0x00, 0x00, 0x00, 0x09, 0x90, 0x00, 0x00,
    0x00, 0x02, 0x00, 0x00, 0x00, 0xff, 0xff, 0xff, 0xff, 0x02, 0x00, 0x00, 0x00,
    0xac, 0xec, 0xff, 0xff, 0x08, 0x00, 0x00, 0x00, 0x10, 0x00, 0x00, 0x00, 0x01,
    0x00, 0x00, 0x00, 0x80, 0xff, 0xff, 0xff, 0xff, 0xff, 0xff, 0xff, 0x01, 0x00,
    0x00, 0x00, 0x78, 0x59, 0x6a, 0x3f, 0x58, 0x00, 0x00, 0x00, 0x73, 0x65, 0x71,
    0x75, 0x65, 0x6e, 0x74, 0x69, 0x61, 0x6c, 0x5f, 0x31, 0x2f, 0x64, 0x65, 0x6e,
    0x73, 0x65, 0x5f, 0x35, 0x5f, 0x31, 0x2f, 0x4d, 0x61, 0x74, 0x4d, 0x75, 0x6c,
    0x3b, 0x73, 0x65, 0x71, 0x75, 0x65, 0x6e, 0x74, 0x69, 0x61, 0x6c, 0x5f, 0x31,
    0x2f, 0x64, 0x65, 0x6e, 0x73, 0x65, 0x5f, 0x35, 0x5f, 0x31, 0x2f, 0x52, 0x65,
    0x6c, 0x75, 0x3b, 0x73, 0x65, 0x71, 0x75, 0x65, 0x6e, 0x74, 0x69, 0x61, 0x6c,
    0x5f, 0x31, 0x2f, 0x64, 0x65, 0x6e, 0x73, 0x65, 0x5f, 0x35, 0x5f, 0x31, 0x2f,
    0x42, 0x69, 0x61, 0x73, 0x41, 0x64, 0x64, 0x00, 0x00, 0x00, 0x00, 0x02, 0x00,
    0x00, 0x00, 0x01, 0x00, 0x00, 0x00, 0x02, 0x00, 0x00, 0x00, 0x7a, 0xed, 0xff,
    0xff, 0x00, 0x00, 0x00, 0x01, 0x18, 0x00, 0x00, 0x00, 0x20, 0x00, 0x00, 0x00,
    0x3c, 0x00, 0x00, 0x00, 0x15, 0x00, 0x00, 0x00, 0x00, 0x00, 0x00, 0x09, 0x90,
    0x00, 0x00, 0x00, 0x02, 0x00, 0x00, 0x00, 0xff, 0xff, 0xff, 0xff, 0x04, 0x00,
    0x00, 0x00, 0x64, 0xed, 0xff, 0xff, 0x08, 0x00, 0x00, 0x00, 0x10, 0x00, 0x00,
    0x00, 0x01, 0x00, 0x00, 0x00, 0x80, 0xff, 0xff, 0xff, 0xff, 0xff, 0xff, 0xff,
    0x01, 0x00, 0x00, 0x00, 0xe1, 0x99, 0x8c, 0x3f, 0x58, 0x00, 0x00, 0x00, 0x73,
    0x65, 0x71, 0x75, 0x65, 0x6e, 0x74, 0x69, 0x61, 0x6c, 0x5f, 0x31, 0x2f, 0x64,
    0x65, 0x6e, 0x73, 0x65, 0x5f, 0x34, 0x5f, 0x31, 0x2f, 0x4d, 0x61, 0x74, 0x4d,
    0x75, 0x6c, 0x3b, 0x73, 0x65, 0x71, 0x75, 0x65, 0x6e, 0x74, 0x69, 0x61, 0x6c,
    0x5f, 0x31, 0x2f, 0x64, 0x65, 0x6e, 0x73, 0x65, 0x5f, 0x34, 0x5f, 0x31, 0x2f,
    0x52, 0x65, 0x6c, 0x75, 0x3b, 0x73, 0x65, 0x71, 0x75, 0x65, 0x6e, 0x74, 0x69,
    0x61, 0x6c, 0x5f, 0x31, 0x2f, 0x64, 0x65, 0x6e, 0x73, 0x65, 0x5f, 0x34, 0x5f,
    0x31, 0x2f, 0x42, 0x69, 0x61, 0x73, 0x41, 0x64, 0x64, 0x00, 0x00, 0x00, 0x00,
    0x02, 0x00, 0x00, 0x00, 0x01, 0x00, 0x00, 0x00, 0x04, 0x00, 0x00, 0x00, 0x32,
    0xee, 0xff, 0xff, 0x00, 0x00, 0x00, 0x01, 0x18, 0x00, 0x00, 0x00, 0x20, 0x00,
    0x00, 0x00, 0x3c, 0x00, 0x00, 0x00, 0x14, 0x00, 0x00, 0x00, 0x00, 0x00, 0x00,
    0x09, 0x90, 0x00, 0x00, 0x00, 0x02, 0x00, 0x00, 0x00, 0xff, 0xff, 0xff, 0xff,
    0x08, 0x00, 0x00, 0x00, 0x1c, 0xee, 0xff, 0xff, 0x08, 0x00, 0x00, 0x00, 0x10,
    0x00, 0x00, 0x00, 0x01, 0x00, 0x00, 0x00, 0x80, 0xff, 0xff, 0xff, 0xff, 0xff,
    0xff, 0xff, 0x01, 0x00, 0x00, 0x00, 0x46, 0x29, 0x00, 0x3f, 0x58, 0x00, 0x00,
    0x00, 0x73, 0x65, 0x71, 0x75, 0x65, 0x6e, 0x74, 0x69, 0x61, 0x6c, 0x5f, 0x31,
    0x2f, 0x64, 0x65, 0x6e, 0x73, 0x65, 0x5f, 0x33, 0x5f, 0x31, 0x2f, 0x4d, 0x61,
    0x74, 0x4d, 0x75, 0x6c, 0x3b, 0x73, 0x65, 0x71, 0x75, 0x65, 0x6e, 0x74, 0x69,
    0x61, 0x6c, 0x5f, 0x31, 0x2f, 0x64, 0x65, 0x6e, 0x73, 0x65, 0x5f, 0x33, 0x5f,
    0x31, 0x2f, 0x52, 0x65, 0x6c, 0x75, 0x3b, 0x73, 0x65, 0x71, 0x75, 0x65, 0x6e,
    0x74, 0x69, 0x61, 0x6c, 0x5f, 0x31, 0x2f, 0x64, 0x65, 0x6e, 0x73, 0x65, 0x5f,
    0x33, 0x5f, 0x31, 0x2f, 0x42, 0x69, 0x61, 0x73, 0x41, 0x64, 0x64, 0x00, 0x00,
    0x00, 0x00, 0x02, 0x00, 0x00, 0x00, 0x01, 0x00, 0x00, 0x00, 0x08, 0x00, 0x00,
    0x00, 0xea, 0xee, 0xff, 0xff, 0x00, 0x00, 0x00, 0x01, 0x18, 0x00, 0x00, 0x00,
    0x20, 0x00, 0x00, 0x00, 0x3c, 0x00, 0x00, 0x00, 0x13, 0x00, 0x00, 0x00, 0x00,
    0x00, 0x00, 0x09, 0x90, 0x00, 0x00, 0x00, 0x02, 0x00, 0x00, 0x00, 0xff, 0xff,
    0xff, 0xff, 0x10, 0x00, 0x00, 0x00, 0xd4, 0xee, 0xff, 0xff, 0x08, 0x00, 0x00,
    0x00, 0x10, 0x00, 0x00, 0x00, 0x01, 0x00, 0x00, 0x00, 0x80, 0xff, 0xff, 0xff,
    0xff, 0xff, 0xff, 0xff, 0x01, 0x00, 0x00, 0x00, 0xca, 0xe8, 0x9f, 0x3e, 0x58,
    0x00, 0x00, 0x00, 0x73, 0x65, 0x71, 0x75, 0x65, 0x6e, 0x74, 0x69, 0x61, 0x6c,
    0x5f, 0x31, 0x2f, 0x64, 0x65, 0x6e, 0x73, 0x65, 0x5f, 0x32, 0x5f, 0x31, 0x2f,
    0x4d, 0x61, 0x74, 0x4d, 0x75, 0x6c, 0x3b, 0x73, 0x65, 0x71, 0x75, 0x65, 0x6e,
    0x74, 0x69, 0x61, 0x6c, 0x5f, 0x31, 0x2f, 0x64, 0x65, 0x6e, 0x73, 0x65, 0x5f,
    0x32, 0x5f, 0x31, 0x2f, 0x52, 0x65, 0x6c, 0x75, 0x3b, 0x73, 0x65, 0x71, 0x75,
    0x65, 0x6e, 0x74, 0x69, 0x61, 0x6c, 0x5f, 0x31, 0x2f, 0x64, 0x65, 0x6e, 0x73,
    0x65, 0x5f, 0x32, 0x5f, 0x31, 0x2f, 0x42, 0x69, 0x61, 0x73, 0x41, 0x64, 0x64,
    0x00, 0x00, 0x00, 0x00, 0x02, 0x00, 0x00, 0x00, 0x01, 0x00, 0x00, 0x00, 0x10,
    0x00, 0x00, 0x00, 0xa2, 0xef, 0xff, 0xff, 0x00, 0x00, 0x00, 0x01, 0x18, 0x00,
    0x00, 0x00, 0x20, 0x00, 0x00, 0x00, 0x3c, 0x00, 0x00, 0x00, 0x12, 0x00, 0x00,
    0x00, 0x00, 0x00, 0x00, 0x09, 0x90, 0x00, 0x00, 0x00, 0x02, 0x00, 0x00, 0x00,
    0xff, 0xff, 0xff, 0xff, 0x20, 0x00, 0x00, 0x00, 0x8c, 0xef, 0xff, 0xff, 0x08,
    0x00, 0x00, 0x00, 0x10, 0x00, 0x00, 0x00, 0x01, 0x00, 0x00, 0x00, 0x80, 0xff,
    0xff, 0xff, 0xff, 0xff, 0xff, 0xff, 0x01, 0x00, 0x00, 0x00, 0x54, 0x29, 0x54,
    0x3e, 0x58, 0x00, 0x00, 0x00, 0x73, 0x65, 0x71, 0x75, 0x65, 0x6e, 0x74, 0x69,
    0x61, 0x6c, 0x5f, 0x31, 0x2f, 0x64, 0x65, 0x6e, 0x73, 0x65, 0x5f, 0x31, 0x5f,
    0x32, 0x2f, 0x4d, 0x61, 0x74, 0x4d, 0x75, 0x6c, 0x3b, 0x73, 0x65, 0x71, 0x75,
    0x65, 0x6e, 0x74, 0x69, 0x61, 0x6c, 0x5f, 0x31, 0x2f, 0x64, 0x65, 0x6e, 0x73,
    0x65, 0x5f, 0x31, 0x5f, 0x32, 0x2f, 0x52, 0x65, 0x6c, 0x75, 0x3b, 0x73, 0x65,
    0x71, 0x75, 0x65, 0x6e, 0x74, 0x69, 0x61, 0x6c, 0x5f, 0x31, 0x2f, 0x64, 0x65,
    0x6e, 0x73, 0x65, 0x5f, 0x31, 0x5f, 0x32, 0x2f, 0x42, 0x69, 0x61, 0x73, 0x41,
    0x64, 0x64, 0x00, 0x00, 0x00, 0x00, 0x02, 0x00, 0x00, 0x00, 0x01, 0x00, 0x00,
    0x00, 0x20, 0x00, 0x00, 0x00, 0x5a, 0xf0, 0xff, 0xff, 0x00, 0x00, 0x00, 0x01,
    0x18, 0x00, 0x00, 0x00, 0x20, 0x00, 0x00, 0x00, 0x3c, 0x00, 0x00, 0x00, 0x11,
    0x00, 0x00, 0x00, 0x00, 0x00, 0x00, 0x09, 0x88, 0x00, 0x00, 0x00, 0x02, 0x00,
    0x00, 0x00, 0xff, 0xff, 0xff, 0xff, 0x2a, 0x00, 0x00, 0x00, 0x44, 0xf0, 0xff,
    0xff, 0x08, 0x00, 0x00, 0x00, 0x10, 0x00, 0x00, 0x00, 0x01, 0x00, 0x00, 0x00,
    0x80, 0xff, 0xff, 0xff, 0xff, 0xff, 0xff, 0xff, 0x01, 0x00, 0x00, 0x00, 0x52,
    0x18, 0x23, 0x3e, 0x52, 0x00, 0x00, 0x00, 0x73, 0x65, 0x71, 0x75, 0x65, 0x6e,
    0x74, 0x69, 0x61, 0x6c, 0x5f, 0x31, 0x2f, 0x64, 0x65, 0x6e, 0x73, 0x65, 0x5f,
    0x31, 0x2f, 0x4d, 0x61, 0x74, 0x4d, 0x75, 0x6c, 0x3b, 0x73, 0x65, 0x71, 0x75,
    0x65, 0x6e, 0x74, 0x69, 0x61, 0x6c, 0x5f, 0x31, 0x2f, 0x64, 0x65, 0x6e, 0x73,
    0x65, 0x5f, 0x31, 0x2f, 0x52, 0x65, 0x6c, 0x75, 0x3b, 0x73, 0x65, 0x71, 0x75,
    0x65, 0x6e, 0x74, 0x69, 0x61, 0x6c, 0x5f, 0x31, 0x2f, 0x64, 0x65, 0x6e, 0x73,
    0x65, 0x5f, 0x31, 0x2f, 0x42, 0x69, 0x61, 0x73, 0x41, 0x64, 0x64, 0x00, 0x00,
    0x02, 0x00, 0x00, 0x00, 0x01, 0x00, 0x00, 0x00, 0x2a, 0x00, 0x00, 0x00, 0x0a,
    0xf1, 0xff, 0xff, 0x00, 0x00, 0x00, 0x01, 0x18, 0x00, 0x00, 0x00, 0x20, 0x00,
    0x00, 0x00, 0x40, 0x00, 0x00, 0x00, 0x10, 0x00, 0x00, 0x00, 0x00, 0x00, 0x00,
    0x09, 0x48, 0x00, 0x00, 0x00, 0x02, 0x00, 0x00, 0x00, 0xff, 0xff, 0xff, 0xff,
    0x2a, 0x00, 0x00, 0x00, 0xf4, 0xf0, 0xff, 0xff, 0x08, 0x00, 0x00, 0x00, 0x14,
    0x00, 0x00, 0x00, 0x01, 0x00, 0x00, 0x00, 0xd5, 0xff, 0xff, 0xff, 0xff, 0xff,
    0xff, 0xff, 0x00, 0x00, 0x00, 0x00, 0x01, 0x00, 0x00, 0x00, 0x78, 0xd5, 0xf8,
    0x3e, 0x0c, 0x00, 0x00, 0x00, 0x74, 0x66, 0x6c, 0x2e, 0x71, 0x75, 0x61, 0x6e,
    0x74, 0x69, 0x7a, 0x65, 0x00, 0x00, 0x00, 0x00, 0x02, 0x00, 0x00, 0x00, 0x01,
    0x00, 0x00, 0x00, 0x2a, 0x00, 0x00, 0x00, 0xee, 0xf1, 0xff, 0xff, 0x00, 0x00,
    0x00, 0x01, 0x14, 0x00, 0x00, 0x00, 0x20, 0x02, 0x00, 0x00, 0x0f, 0x00, 0x00,
    0x00, 0x00, 0x00, 0x00, 0x09, 0x2c, 0x02, 0x00, 0x00, 0x54, 0xf1, 0xff, 0xff,
    0x08, 0x00, 0x00, 0x00, 0x5c, 0x01, 0x00, 0x00, 0x2a, 0x00, 0x00, 0x00, 0x00,
    0x00, 0x00, 0x00, 0x00, 0x00, 0x00, 0x00, 0x00, 0x00, 0x00, 0x00, 0x00, 0x00,
    0x00, 0x00, 0x00, 0x00, 0x00, 0x00, 0x00, 0x00, 0x00, 0x00, 0x00, 0x00, 0x00,
    0x00, 0x00, 0x00, 0x00, 0x00, 0x00, 0x00, 0x00, 0x00, 0x00, 0x00, 0x00, 0x00,
    0x00, 0x00, 0x00, 0x00, 0x00, 0x00, 0x00, 0x00, 0x00, 0x00, 0x00, 0x00, 0x00,
    0x00, 0x00, 0x00, 0x00, 0x00, 0x00, 0x00, 0x00, 0x00, 0x00, 0x00, 0x00, 0x00,
    0x00, 0x00, 0x00, 0x00, 0x00, 0x00, 0x00, 0x00, 0x00, 0x00, 0x00, 0x00, 0x00,
    0x00, 0x00, 0x00, 0x00, 0x00, 0x00, 0x00, 0x00, 0x00, 0x00, 0x00, 0x00, 0x00,
    0x00, 0x00, 0x00, 0x00, 0x00, 0x00, 0x00, 0x00, 0x00, 0x00, 0x00, 0x00, 0x00,
    0x00, 0x00, 0x00, 0x00, 0x00, 0x00, 0x00, 0x00, 0x00, 0x00, 0x00, 0x00, 0x00,
    0x00, 0x00, 0x00, 0x00, 0x00, 0x00, 0x00, 0x00, 0x00, 0x00, 0x00, 0x00, 0x00,
    0x00, 0x00, 0x00, 0x00, 0x00, 0x00, 0x00, 0x00, 0x00, 0x00, 0x00, 0x00, 0x00,
    0x00, 0x00, 0x00, 0x00, 0x00, 0x00, 0x00, 0x00, 0x00, 0x00, 0x00, 0x00, 0x00,
    0x00, 0x00, 0x00, 0x00, 0x00, 0x00, 0x00, 0x00, 0x00, 0x00, 0x00, 0x00, 0x00,
    0x00, 0x00, 0x00, 0x00, 0x00, 0x00, 0x00, 0x00, 0x00, 0x00, 0x00, 0x00, 0x00,
    0x00, 0x00, 0x00, 0x00, 0x00, 0x00, 0x00, 0x00, 0x00, 0x00, 0x00, 0x00, 0x00,
    0x00, 0x00, 0x00, 0x00, 0x00, 0x00, 0x00, 0x00, 0x00, 0x00, 0x00, 0x00, 0x00,
    0x00, 0x00, 0x00, 0x00, 0x00, 0x00, 0x00, 0x00, 0x00, 0x00, 0x00, 0x00, 0x00,
    0x00, 0x00, 0x00, 0x00, 0x00, 0x00, 0x00, 0x00, 0x00, 0x00, 0x00, 0x00, 0x00,
    0x00, 0x00, 0x00, 0x00, 0x00, 0x00, 0x00, 0x00, 0x00, 0x00, 0x00, 0x00, 0x00,
    0x00, 0x00, 0x00, 0x00, 0x00, 0x00, 0x00, 0x00, 0x00, 0x00, 0x00, 0x00, 0x00,
    0x00, 0x00, 0x00, 0x00, 0x00, 0x00, 0x00, 0x00, 0x00, 0x00, 0x00, 0x00, 0x00,
    0x00, 0x00, 0x00, 0x00, 0x00, 0x00, 0x00, 0x00, 0x00, 0x00, 0x00, 0x00, 0x00,
    0x00, 0x00, 0x00, 0x00, 0x00, 0x00, 0x00, 0x00, 0x00, 0x00, 0x00, 0x00, 0x00,
    0x00, 0x00, 0x00, 0x00, 0x00, 0x00, 0x00, 0x00, 0x00, 0x00, 0x00, 0x00, 0x00,
    0x00, 0x00, 0x00, 0x00, 0x00, 0x00, 0x00, 0x00, 0x00, 0x00, 0x00, 0x00, 0x00,
    0x00, 0x00, 0x00, 0x00, 0x00, 0x00, 0x00, 0x00, 0x00, 0x00, 0x00, 0x00, 0x00,
    0x00, 0x2a, 0x00, 0x00, 0x00, 0x82, 0x7a, 0x60, 0x3b, 0x79, 0xe7, 0x79, 0x3b,
    0xdc, 0x04, 0x56, 0x3b, 0xbd, 0xe4, 0x1f, 0x3b, 0xbd, 0xac, 0x50, 0x3b, 0xf5,
    0xb7, 0x26, 0x3b, 0x48, 0x0d, 0x19, 0x3b, 0x92, 0x65, 0x24, 0x3b, 0x05, 0x96,
    0x76, 0x3b, 0x43, 0xa5, 0x54, 0x3b, 0x06, 0x25, 0x39, 0x3b, 0x73, 0x5a, 0x07,
    0x3b, 0xd6, 0x5e, 0x9b, 0x3b, 0x7f, 0x0b, 0x2a, 0x3b, 0xbb, 0x40, 0x5e, 0x3b,
    0xe9, 0x2c, 0xd6, 0x3b, 0x9e, 0xb4, 0x4e, 0x3b, 0x3e, 0xf6, 0x45, 0x3b, 0xe6,
    0x87, 0x95, 0x3b, 0xf6, 0x9e, 0x23, 0x3b, 0x69, 0x50, 0x37, 0x3b, 0x90, 0x67,
    0x4b, 0x3b, 0x95, 0x0a, 0x72, 0x3b, 0xdd, 0xff, 0x8e, 0x3b, 0xc2, 0xde, 0x8e,
    0x3b, 0xcc, 0x29, 0x4f, 0x3b, 0xc8, 0x3e, 0x2d, 0x3b, 0xac, 0x48, 0x85, 0x3b,
    0xd1, 0x99, 0x8d, 0x3b, 0xfe, 0x97, 0x84, 0x3b, 0xd1, 0xa8, 0x40, 0x3b, 0xd7,
    0xe7, 0x45, 0x3b, 0x13, 0xe0, 0x97, 0x3b, 0x89, 0xf2, 0x1f, 0x3b, 0x71, 0x44,
    0x88, 0x3b, 0xf3, 0x3e, 0x8d, 0x3b, 0x04, 0x89, 0x80, 0x3b, 0xf4, 0x6e, 0x47,
    0x3b, 0x49, 0x15, 0x66, 0x3b, 0xd6, 0xcc, 0x89, 0x3b, 0xf4, 0xb8, 0x30, 0x3b,
    0xd4, 0x47, 0xa5, 0x3b, 0x13, 0x00, 0x00, 0x00, 0x74, 0x66, 0x6c, 0x2e, 0x70,
    0x73, 0x65, 0x75, 0x64, 0x6f, 0x5f, 0x71, 0x63, 0x6f, 0x6e, 0x73, 0x74, 0x31,
    0x33, 0x00, 0x02, 0x00, 0x00, 0x00, 0x2a, 0x00, 0x00, 0x00, 0x2a, 0x00, 0x00,
    0x00, 0x3e, 0xf4, 0xff, 0xff, 0x00, 0x00, 0x00, 0x01, 0x14, 0x00, 0x00, 0x00,
    0x1c, 0x02, 0x00, 0x00, 0x0e, 0x00, 0x00, 0x00, 0x00, 0x00, 0x00, 0x02, 0x28,
    0x02, 0x00, 0x00, 0xa4, 0xf3, 0xff, 0xff, 0x08, 0x00, 0x00, 0x00, 0x58, 0x01,
    0x00, 0x00, 0x2a, 0x00, 0x00, 0x00, 0x00, 0x00, 0x00, 0x00, 0x00, 0x00, 0x00,
    0x00, 0x00, 0x00, 0x00, 0x00, 0x00, 0x00, 0x00, 0x00, 0x00, 0x00, 0x00, 0x00,
    0x00, 0x00, 0x00, 0x00, 0x00, 0x00, 0x00, 0x00, 0x00, 0x00, 0x00, 0x00, 0x00,
    0x00, 0x00, 0x00, 0x00, 0x00, 0x00, 0x00, 0x00, 0x00, 0x00, 0x00, 0x00, 0x00,
    0x00, 0x00, 0x00, 0x00, 0x00, 0x00, 0x00, 0x00, 0x00, 0x00, 0x00, 0x00, 0x00,
    0x00, 0x00, 0x00, 0x00, 0x00, 0x00, 0x00, 0x00, 0x00, 0x00, 0x00, 0x00, 0x00,
    0x00, 0x00, 0x00, 0x00, 0x00, 0x00, 0x00, 0x00, 0x00, 0x00, 0x00, 0x00, 0x00,
    0x00, 0x00, 0x00, 0x00, 0x00, 0x00, 0x00, 0x00, 0x00, 0x00, 0x00, 0x00, 0x00,
    0x00, 0x00, 0x00, 0x00, 0x00, 0x00, 0x00, 0x00, 0x00, 0x00, 0x00, 0x00, 0x00,
    0x00, 0x00, 0x00, 0x00, 0x00, 0x00, 0x00, 0x00, 0x00, 0x00, 0x00, 0x00, 0x00,
    0x00, 0x00, 0x00, 0x00, 0x00, 0x00, 0x00, 0x00, 0x00, 0x00, 0x00, 0x00, 0x00,
    0x00, 0x00, 0x00, 0x00, 0x00, 0x00, 0x00, 0x00, 0x00, 0x00, 0x00, 0x00, 0x00,
    0x00, 0x00, 0x00, 0x00, 0x00, 0x00, 0x00, 0x00, 0x00, 0x00, 0x00, 0x00, 0x00,
    0x00, 0x00, 0x00, 0x00, 0x00, 0x00, 0x00, 0x00, 0x00, 0x00, 0x00, 0x00, 0x00,
    0x00, 0x00, 0x00, 0x00, 0x00, 0x00, 0x00, 0x00, 0x00, 0x00, 0x00, 0x00, 0x00,
    0x00, 0x00, 0x00, 0x00, 0x00, 0x00, 0x00, 0x00, 0x00, 0x00, 0x00, 0x00, 0x00,
    0x00, 0x00, 0x00, 0x00, 0x00, 0x00, 0x00, 0x00, 0x00, 0x00, 0x00, 0x00, 0x00,
    0x00, 0x00, 0x00, 0x00, 0x00, 0x00, 0x00, 0x00, 0x00, 0x00, 0x00, 0x00, 0x00,
    0x00, 0x00, 0x00, 0x00, 0x00, 0x00, 0x00, 0x00, 0x00, 0x00, 0x00, 0x00, 0x00,
    0x00, 0x00, 0x00, 0x00, 0x00, 0x00, 0x00, 0x00, 0x00, 0x00, 0x00, 0x00, 0x00,
    0x00, 0x00, 0x00, 0x00, 0x00, 0x00, 0x00, 0x00, 0x00, 0x00, 0x00, 0x00, 0x00,
    0x00, 0x00, 0x00, 0x00, 0x00, 0x00, 0x00, 0x00, 0x00, 0x00, 0x00, 0x00, 0x00,
    0x00, 0x00, 0x00, 0x00, 0x00, 0x00, 0x00, 0x00, 0x00, 0x00, 0x00, 0x00, 0x00,
    0x00, 0x00, 0x00, 0x00, 0x00, 0x00, 0x00, 0x00, 0x00, 0x00, 0x00, 0x00, 0x00,
    0x00, 0x00, 0x00, 0x00, 0x00, 0x00, 0x00, 0x00, 0x00, 0x00, 0x00, 0x00, 0x00,
    0x00, 0x00, 0x00, 0x00, 0x00, 0x00, 0x00, 0x00, 0x00, 0x00, 0x00, 0x00, 0x00,
    0x00, 0x00, 0x00, 0x00, 0x2a, 0x00, 0x00, 0x00, 0xdd, 0x31, 0xda, 0x3a, 0xa0,
    0xe8, 0xf2, 0x3a, 0x2b, 0x07, 0xd0, 0x3a, 0xeb, 0x6a, 0x9b, 0x3a, 0x59, 0xd5,
    0xca, 0x3a, 0x3b, 0x0d, 0xa2, 0x3a, 0x7e, 0xc4, 0x94, 0x3a, 0x7b, 0xcb, 0x9f,
    0x3a, 0xf3, 0xae, 0xef, 0x3a, 0x6a, 0xb1, 0xce, 0x3a, 0x40, 0xf6, 0xb3, 0x3a,
    0x7d, 0x90, 0x83, 0x3a, 0x6e, 0x05, 0x17, 0x3b, 0xee, 0x48, 0xa5, 0x3a, 0x09,
    0x08, 0xd8, 0x3a, 0x19, 0x2e, 0x50, 0x3b, 0x56, 0xeb, 0xc8, 0x3a, 0x9f, 0x6b,
    0xc0, 0x3a, 0x57, 0x58, 0x11, 0x3b, 0x6e, 0x0a, 0x9f, 0x3a, 0xc2, 0x2e, 0xb2,
    0x3a, 0xf0, 0xb5, 0xc5, 0x3a, 0x15, 0x44, 0xeb, 0x3a, 0x1c, 0xff, 0x0a, 0x3b,
    0xee, 0xde, 0x0a, 0x3b, 0x3d, 0x5d, 0xc9, 0x3a, 0x48, 0x65, 0xa8, 0x3a, 0x8b,
    0x8d, 0x01, 0x3b, 0x16, 0xa3, 0x09, 0x3b, 0xcf, 0xe1, 0x00, 0x3b, 0x31, 0x44,
    0xbb, 0x3a, 0x9f, 0x5d, 0xc0, 0x3a, 0xb7, 0x9f, 0x13, 0x3b, 0x54, 0x78, 0x9b,
    0x3a, 0xee, 0x73, 0x04, 0x3b, 0xc3, 0x4a, 0x09, 0x3b, 0xd4, 0xdf, 0xf9, 0x3a,
    0xc9, 0xd9, 0xc1, 0x3a, 0x7a, 0xa4, 0xdf, 0x3a, 0x57, 0xf1, 0x05, 0x3b, 0x89,
    0xc6, 0xab, 0x3a, 0x68, 0xa7, 0x20, 0x3b, 0x13, 0x00, 0x00, 0x00, 0x74, 0x66,
    0x6c, 0x2e, 0x70, 0x73, 0x65, 0x75, 0x64, 0x6f, 0x5f, 0x71, 0x63, 0x6f, 0x6e,
    0x73, 0x74, 0x31, 0x32, 0x00, 0x01, 0x00, 0x00, 0x00, 0x2a, 0x00, 0x00, 0x00,
    0x86, 0xf6, 0xff, 0xff, 0x00, 0x00, 0x00, 0x01, 0x14, 0x00, 0x00, 0x00, 0xa8,
    0x01, 0x00, 0x00, 0x0d, 0x00, 0x00, 0x00, 0x00, 0x00, 0x00, 0x09, 0xb4, 0x01,
    0x00, 0x00, 0xec, 0xf5, 0xff, 0xff, 0x08, 0x00, 0x00, 0x00, 0x0c, 0x01, 0x00,
    0x00, 0x20, 0x00, 0x00, 0x00, 0x00, 0x00, 0x00, 0x00, 0x00, 0x00, 0x00, 0x00,
    0x00, 0x00, 0x00, 0x00, 0x00, 0x00, 0x00, 0x00, 0x00, 0x00, 0x00, 0x00, 0x00,
    0x00, 0x00, 0x00, 0x00, 0x00, 0x00, 0x00, 0x00, 0x00, 0x00, 0x00, 0x00, 0x00,
    0x00, 0x00, 0x00, 0x00, 0x00, 0x00, 0x00, 0x00, 0x00, 0x00, 0x00, 0x00, 0x00,
    0x00, 0x00, 0x00, 0x00, 0x00, 0x00, 0x00, 0x00, 0x00, 0x00, 0x00, 0x00, 0x00,
    0x00, 0x00, 0x00, 0x00, 0x00, 0x00, 0x00, 0x00, 0x00, 0x00, 0x00, 0x00, 0x00,
    0x00, 0x00, 0x00, 0x00, 0x00, 0x00, 0x00, 0x00, 0x00, 0x00, 0x00, 0x00, 0x00,
    0x00, 0x00, 0x00, 0x00, 0x00, 0x00, 0x00, 0x00, 0x00, 0x00, 0x00, 0x00, 0x00,
    0x00, 0x00, 0x00, 0x00, 0x00, 0x00, 0x00, 0x00, 0x00, 0x00, 0x00, 0x00, 0x00,
    0x00, 0x00, 0x00, 0x00, 0x00, 0x00, 0x00, 0x00, 0x00, 0x00, 0x00, 0x00, 0x00,
    0x00, 0x00, 0x00, 0x00, 0x00, 0x00, 0x00, 0x00, 0x00, 0x00, 0x00, 0x00, 0x00,
    0x00, 0x00, 0x00, 0x00, 0x00, 0x00, 0x00, 0x00, 0x00, 0x00, 0x00, 0x00, 0x00,
    0x00, 0x00, 0x00, 0x00, 0x00, 0x00, 0x00, 0x00, 0x00, 0x00, 0x00, 0x00, 0x00,
    0x00, 0x00, 0x00, 0x00, 0x00, 0x00, 0x00, 0x00, 0x00, 0x00, 0x00, 0x00, 0x00,
    0x00, 0x00, 0x00, 0x00, 0x00, 0x00, 0x00, 0x00, 0x00, 0x00, 0x00, 0x00, 0x00,
    0x00, 0x00, 0x00, 0x00, 0x00, 0x00, 0x00, 0x00, 0x00, 0x00, 0x00, 0x00, 0x00,
    0x00, 0x00, 0x00, 0x00, 0x00, 0x00, 0x00, 0x00, 0x00, 0x00, 0x00, 0x00, 0x00,
    0x00, 0x00, 0x00, 0x00, 0x00, 0x00, 0x00, 0x00, 0x00, 0x00, 0x00, 0x00, 0x00,
    0x00, 0x00, 0x00, 0x00, 0x00, 0x00, 0x00, 0x00, 0x00, 0x00, 0x00, 0x00, 0x00,
    0x00, 0x00, 0x00, 0x00, 0x00, 0x00, 0x00, 0x00, 0x00, 0x00, 0x00, 0x00, 0x00,
    0x00, 0x00, 0x00, 0x00, 0x00, 0x20, 0x00, 0x00, 0x00, 0xe6, 0x47, 0x4d, 0x3b,
    0x1d, 0x45, 0x8b, 0x3b, 0xd3, 0xa6, 0x66, 0x3b, 0x1c, 0x83, 0x1f, 0x3b, 0xb8,
    0x70, 0x79, 0x3b, 0x2d, 0xe1, 0x3c, 0x3b, 0xf2, 0xf6, 0x8e, 0x3b, 0x3f, 0xf6,
    0x8a, 0x3b, 0x96, 0xe0, 0x76, 0x3b, 0x53, 0xa7, 0x73, 0x3b, 0x28, 0xbb, 0x71,
    0x3b, 0x5b, 0x81, 0x30, 0x3b, 0xe2, 0x1b, 0x8c, 0x3b, 0x08, 0x31, 0x51, 0x3b,
    0x85, 0xb5, 0x25, 0x3b, 0xb7, 0x14, 0x23, 0x3b, 0x70, 0x19, 0x7c, 0x3b, 0x0e,
    0x09, 0x48, 0x3b, 0x11, 0x2a, 0x19, 0x3b, 0xee, 0x44, 0x28, 0x3b, 0x41, 0xbb,
    0x36, 0x3b, 0xda, 0x4e, 0x99, 0x3b, 0xf4, 0x64, 0x8f, 0x3b, 0xf9, 0xeb, 0x79,
    0x3b, 0xcb, 0x2c, 0x24, 0x3b, 0xcf, 0xc7, 0x2a, 0x3b, 0x1a, 0x24, 0x79, 0x3b,
    0xbe, 0x00, 0x1e, 0x3b, 0x85, 0x36, 0x4b, 0x3b, 0xce, 0xf8, 0x8d, 0x3b, 0x80,
    0xdf, 0x26, 0x3b, 0x60, 0x51, 0x46, 0x3b, 0x13, 0x00, 0x00, 0x00, 0x74, 0x66,
    0x6c, 0x2e, 0x70, 0x73, 0x65, 0x75, 0x64, 0x6f, 0x5f, 0x71, 0x63, 0x6f, 0x6e,
    0x73, 0x74, 0x31, 0x31, 0x00, 0x02, 0x00, 0x00, 0x00, 0x20, 0x00, 0x00, 0x00,
    0x2a, 0x00, 0x00, 0x00, 0x5e, 0xf8, 0xff, 0xff, 0x00, 0x00, 0x00, 0x01, 0x14,
    0x00, 0x00, 0x00, 0xa4, 0x01, 0x00, 0x00, 0x0c, 0x00, 0x00, 0x00, 0x00, 0x00,
    0x00, 0x02, 0xb0, 0x01, 0x00, 0x00, 0xc4, 0xf7, 0xff, 0xff, 0x08, 0x00, 0x00,
    0x00, 0x08, 0x01, 0x00, 0x00, 0x20, 0x00, 0x00, 0x00, 0x00, 0x00, 0x00, 0x00,
    0x00, 0x00, 0x00, 0x00, 0x00, 0x00, 0x00, 0x00, 0x00, 0x00, 0x00, 0x00, 0x00,
    0x00, 0x00, 0x00, 0x00, 0x00, 0x00, 0x00, 0x00, 0x00, 0x00, 0x00, 0x00, 0x00,
    0x00, 0x00, 0x00, 0x00, 0x00, 0x00, 0x00, 0x00, 0x00, 0x00, 0x00, 0x00, 0x00,
    0x00, 0x00, 0x00, 0x00, 0x00, 0x00, 0x00, 0x00, 0x00, 0x00, 0x00, 0x00, 0x00,
    0x00, 0x00, 0x00, 0x00, 0x00, 0x00, 0x00, 0x00, 0x00, 0x00, 0x00, 0x00, 0x00,
    0x00, 0x00, 0x00, 0x00, 0x00, 0x00, 0x00, 0x00, 0x00, 0x00, 0x00, 0x00, 0x00,
    0x00, 0x00, 0x00, 0x00, 0x00, 0x00, 0x00, 0x00, 0x00, 0x00, 0x00, 0x00, 0x00,
    0x00, 0x00, 0x00, 0x00, 0x00, 0x00, 0x00, 0x00, 0x00, 0x00, 0x00, 0x00, 0x00,
    0x00, 0x00, 0x00, 0x00, 0x00, 0x00, 0x00, 0x00, 0x00, 0x00, 0x00, 0x00, 0x00,
    0x00, 0x00, 0x00, 0x00, 0x00, 0x00, 0x00, 0x00, 0x00, 0x00, 0x00, 0x00, 0x00,
    0x00, 0x00, 0x00, 0x00, 0x00, 0x00, 0x00, 0x00, 0x00, 0x00, 0x00, 0x00, 0x00,
    0x00, 0x00, 0x00, 0x00, 0x00, 0x00, 0x00, 0x00, 0x00, 0x00, 0x00, 0x00, 0x00,
    0x00, 0x00, 0x00, 0x00, 0x00, 0x00, 0x00, 0x00, 0x00, 0x00, 0x00, 0x00, 0x00,
    0x00, 0x00, 0x00, 0x00, 0x00, 0x00, 0x00, 0x00, 0x00, 0x00, 0x00, 0x00, 0x00,
    0x00, 0x00, 0x00, 0x00, 0x00, 0x00, 0x00, 0x00, 0x00, 0x00, 0x00, 0x00, 0x00,
    0x00, 0x00, 0x00, 0x00, 0x00, 0x00, 0x00, 0x00, 0x00, 0x00, 0x00, 0x00, 0x00,
    0x00, 0x00, 0x00, 0x00, 0x00, 0x00, 0x00, 0x00, 0x00, 0x00, 0x00, 0x00, 0x00,
    0x00, 0x00, 0x00, 0x00, 0x00, 0x00, 0x00, 0x00, 0x00, 0x00, 0x00, 0x00, 0x00,
    0x00, 0x00, 0x00, 0x00, 0x00, 0x00, 0x00, 0x00, 0x00, 0x00, 0x00, 0x00, 0x00,
    0x00, 0x00, 0x00, 0x00, 0x00, 0x20, 0x00, 0x00, 0x00, 0x48, 0xc8, 0x02, 0x3a,
    0x79, 0x74, 0x31, 0x3a, 0x22, 0xf2, 0x12, 0x3a, 0x44, 0x3f, 0xcb, 0x39, 0x78,
    0xea, 0x1e, 0x3a, 0xa3, 0xaa, 0xf0, 0x39, 0xa2, 0x29, 0x36, 0x3a, 0xfb, 0x0f,
    0x31, 0x3a, 0x74, 0x48, 0x1d, 0x3a, 0xb0, 0x3a, 0x1b, 0x3a, 0x21, 0x01, 0x1a,
    0x3a, 0x43, 0xe6, 0xe0, 0x39, 0x21, 0x86, 0x32, 0x3a, 0x18, 0x46, 0x05, 0x3a,
    0xa4, 0x24, 0xd3, 0x39, 0x5d, 0xcb, 0xcf, 0x39, 0x25, 0x9c, 0x20, 0x3a, 0x8a,
    0xe1, 0xfe, 0x39, 0xac, 0x28, 0xc3, 0x39, 0xc0, 0x67, 0xd6, 0x39, 0x2d, 0xd5,
    0xe8, 0x39, 0x8b, 0x57, 0x43, 0x3a, 0xce, 0xb5, 0x36, 0x3a, 0xfe, 0x38, 0x1f,
    0x3a, 0x3c, 0x30, 0xd1, 0x39, 0xe4, 0x9a, 0xd9, 0x39, 0xa8, 0xb9, 0x1e, 0x3a,
    0xf7, 0x52, 0xc9, 0x39, 0x05, 0x77, 0x01, 0x3a, 0xd0, 0xe5, 0x34, 0x3a, 0x52,
    0xa0, 0xd4, 0x39, 0x4f, 0xb1, 0xfc, 0x39, 0x13, 0x00, 0x00, 0x00, 0x74, 0x66,
    0x6c, 0x2e, 0x70, 0x73, 0x65, 0x75, 0x64, 0x6f, 0x5f, 0x71, 0x63, 0x6f, 0x6e,
    0x73, 0x74, 0x31, 0x30, 0x00, 0x01, 0x00, 0x00, 0x00, 0x20, 0x00, 0x00, 0x00,
    0x2e, 0xfa, 0xff, 0xff, 0x00, 0x00, 0x00, 0x01, 0x14, 0x00, 0x00, 0x00, 0xe8,
    0x00, 0x00, 0x00, 0x0b, 0x00, 0x00, 0x00, 0x00, 0x00, 0x00, 0x09, 0xf4, 0x00,
    0x00, 0x00, 0x94, 0xf9, 0xff, 0xff, 0x08, 0x00, 0x00, 0x00, 0x8c, 0x00, 0x00,
    0x00, 0x10, 0x00, 0x00, 0x00, 0x00, 0x00, 0x00, 0x00, 0x00, 0x00, 0x00, 0x00,
    0x00, 0x00, 0x00, 0x00, 0x00, 0x00, 0x00, 0x00, 0x00, 0x00, 0x00, 0x00, 0x00,
    0x00, 0x00, 0x00, 0x00, 0x00, 0x00, 0x00, 0x00, 0x00, 0x00, 0x00, 0x00, 0x00,
    0x00, 0x00, 0x00, 0x00, 0x00, 0x00, 0x00, 0x00, 0x00, 0x00, 0x00, 0x00, 0x00,
    0x00, 0x00, 0x00, 0x00, 0x00, 0x00, 0x00, 0x00, 0x00, 0x00, 0x00, 0x00, 0x00,
    0x00, 0x00, 0x00, 0x00, 0x00, 0x00, 0x00, 0x00, 0x00, 0x00, 0x00, 0x00, 0x00,
    0x00, 0x00, 0x00, 0x00, 0x00, 0x00, 0x00, 0x00, 0x00, 0x00, 0x00, 0x00, 0x00,
    0x00, 0x00, 0x00, 0x00, 0x00, 0x00, 0x00, 0x00, 0x00, 0x00, 0x00, 0x00, 0x00,
    0x00, 0x00, 0x00, 0x00, 0x00, 0x00, 0x00, 0x00, 0x00, 0x00, 0x00, 0x00, 0x00,
    0x00, 0x00, 0x00, 0x00, 0x00, 0x00, 0x00, 0x00, 0x00, 0x00, 0x00, 0x00, 0x00,
    0x00, 0x00, 0x00, 0x00, 0x00, 0x00, 0x00, 0x10, 0x00, 0x00, 0x00, 0x62, 0x67,
    0x5c, 0x3b, 0xaf, 0x9a, 0x77, 0x3b, 0xab, 0xc4, 0x73, 0x3b, 0x0d, 0x5f, 0x71,
    0x3b, 0x5b, 0x28, 0x6d, 0x3b, 0x1d, 0x92, 0x62, 0x3b, 0xc1, 0x79, 0x48, 0x3b,
    0x96, 0xef, 0x6c, 0x3b, 0x57, 0xb4, 0x6f, 0x3b, 0x01, 0xa5, 0x7a, 0x3b, 0x83,
    0x74, 0x81, 0x3b, 0xf9, 0x12, 0x36, 0x3b, 0xb2, 0xc9, 0x43, 0x3b, 0xbd, 0x7b,
    0x19, 0x3b, 0xc5, 0x0b, 0x60, 0x3b, 0x3f, 0x43, 0x26, 0x3b, 0x12, 0x00, 0x00,
    0x00, 0x74, 0x66, 0x6c, 0x2e, 0x70, 0x73, 0x65, 0x75, 0x64, 0x6f, 0x5f, 0x71,
    0x63, 0x6f, 0x6e, 0x73, 0x74, 0x39, 0x00, 0x00, 0x02, 0x00, 0x00, 0x00, 0x10,
    0x00, 0x00, 0x00, 0x20, 0x00, 0x00, 0x00, 0x46, 0xfb, 0xff, 0xff, 0x00, 0x00,
    0x00, 0x01, 0x14, 0x00, 0x00, 0x00, 0xe4, 0x00, 0x00, 0x00, 0x0a, 0x00, 0x00,
    0x00, 0x00, 0x00, 0x00, 0x02, 0xf0, 0x00, 0x00, 0x00, 0xac, 0xfa, 0xff, 0xff,
    0x08, 0x00, 0x00, 0x00, 0x88, 0x00, 0x00, 0x00, 0x10, 0x00, 0x00, 0x00, 0x00,
    0x00, 0x00, 0x00, 0x00, 0x00, 0x00, 0x00, 0x00, 0x00, 0x00, 0x00, 0x00, 0x00,
    0x00, 0x00, 0x00, 0x00, 0x00, 0x00, 0x00, 0x00, 0x00, 0x00, 0x00, 0x00, 0x00,
    0x00, 0x00, 0x00, 0x00, 0x00, 0x00, 0x00, 0x00, 0x00, 0x00, 0x00, 0x00, 0x00,
    0x00, 0x00, 0x00, 0x00, 0x00, 0x00, 0x00, 0x00, 0x00, 0x00, 0x00, 0x00, 0x00,
    0x00, 0x00, 0x00, 0x00, 0x00, 0x00, 0x00, 0x00, 0x00, 0x00, 0x00, 0x00, 0x00,
    0x00, 0x00, 0x00, 0x00, 0x00, 0x00, 0x00, 0x00, 0x00, 0x00, 0x00, 0x00, 0x00,
    0x00, 0x00, 0x00, 0x00, 0x00, 0x00, 0x00, 0x00, 0x00, 0x00, 0x00, 0x00, 0x00,
    0x00, 0x00, 0x00, 0x00, 0x00, 0x00, 0x00, 0x00, 0x00, 0x00, 0x00, 0x00, 0x00,
    0x00, 0x00, 0x00, 0x00, 0x00, 0x00, 0x00, 0x00, 0x00, 0x00, 0x00, 0x00, 0x00,
    0x00, 0x00, 0x00, 0x00, 0x00, 0x00, 0x00, 0x00, 0x00, 0x00, 0x10, 0x00, 0x00,
    0x00, 0x32, 0xa9, 0x36, 0x3a, 0x12, 0x34, 0x4d, 0x3a, 0x38, 0x06, 0x4a, 0x3a,
    0xae, 0x09, 0x48, 0x3a, 0xb5, 0x8b, 0x44, 0x3a, 0x94, 0xc5, 0x3b, 0x3a, 0x31,
    0x25, 0x26, 0x3a, 0xa8, 0x5c, 0x44, 0x3a, 0x0b, 0xa8, 0x46, 0x3a, 0x1b, 0xb9,
    0x4f, 0x3a, 0xc5, 0x92, 0x56, 0x3a, 0x1b, 0xe5, 0x16, 0x3a, 0xa3, 0x42, 0x22,
    0x3a, 0x7f, 0x66, 0xfe, 0x39, 0xeb, 0xad, 0x39, 0x3a, 0x87, 0xca, 0x09, 0x3a,
    0x12, 0x00, 0x00, 0x00, 0x74, 0x66, 0x6c, 0x2e, 0x70, 0x73, 0x65, 0x75, 0x64,
    0x6f, 0x5f, 0x71, 0x63, 0x6f, 0x6e, 0x73, 0x74, 0x38, 0x00, 0x00, 0x01, 0x00,
    0x00, 0x00, 0x10, 0x00, 0x00, 0x00, 0x56, 0xfc, 0xff, 0xff, 0x00, 0x00, 0x00,
    0x01, 0x14, 0x00, 0x00, 0x00, 0x88, 0x00, 0x00, 0x00, 0x09, 0x00, 0x00, 0x00,
    0x00, 0x00, 0x00, 0x09, 0x94, 0x00, 0x00, 0x00, 0xbc, 0xfb, 0xff, 0xff, 0x08,
    0x00, 0x00, 0x00, 0x4c, 0x00, 0x00, 0x00, 0x08, 0x00, 0x00, 0x00, 0x00, 0x00,
    0x00, 0x00, 0x00, 0x00, 0x00, 0x00, 0x00, 0x00, 0x00, 0x00, 0x00, 0x00, 0x00,
    0x00, 0x00, 0x00, 0x00, 0x00, 0x00, 0x00, 0x00, 0x00, 0x00, 0x00, 0x00, 0x00,
    0x00, 0x00, 0x00, 0x00, 0x00, 0x00, 0x00, 0x00, 0x00, 0x00, 0x00, 0x00, 0x00,
    0x00, 0x00, 0x00, 0x00, 0x00, 0x00, 0x00, 0x00, 0x00, 0x00, 0x00, 0x00, 0x00,
    0x00, 0x00, 0x00, 0x00, 0x00, 0x00, 0x00, 0x00, 0x00, 0x00, 0x00, 0x00, 0x00,
    0x00, 0x08, 0x00, 0x00, 0x00, 0xf2, 0x5f, 0x80, 0x3b, 0x12, 0x1d, 0x6c, 0x3b,
    0xde, 0xa8, 0xbc, 0x3b, 0xdb, 0x37, 0xb9, 0x3b, 0x2b, 0x67, 0x96, 0x3b, 0x5f,
    0x2a, 0x9c, 0x3b, 0x0b, 0x7e, 0x96, 0x3b, 0xef, 0xd6, 0x90, 0x3b, 0x12, 0x00,
    0x00, 0x00, 0x74, 0x66, 0x6c, 0x2e, 0x70, 0x73, 0x65, 0x75, 0x64, 0x6f, 0x5f,
    0x71, 0x63, 0x6f, 0x6e, 0x73, 0x74, 0x37, 0x00, 0x00, 0x02, 0x00, 0x00, 0x00,
    0x08, 0x00, 0x00, 0x00, 0x10, 0x00, 0x00, 0x00, 0x0e, 0xfd, 0xff, 0xff, 0x00,
    0x00, 0x00, 0x01, 0x14, 0x00, 0x00, 0x00, 0x84, 0x00, 0x00, 0x00, 0x08, 0x00,
    0x00, 0x00, 0x00, 0x00, 0x00, 0x02, 0x90, 0x00, 0x00, 0x00, 0x74, 0xfc, 0xff,
    0xff, 0x08, 0x00, 0x00, 0x00, 0x48, 0x00, 0x00, 0x00, 0x08, 0x00, 0x00, 0x00,
    0x00, 0x00, 0x00, 0x00, 0x00, 0x00, 0x00, 0x00, 0x00, 0x00, 0x00, 0x00, 0x00,
    0x00, 0x00, 0x00, 0x00, 0x00, 0x00, 0x00, 0x00, 0x00, 0x00, 0x00, 0x00, 0x00,
    0x00, 0x00, 0x00, 0x00, 0x00, 0x00, 0x00, 0x00, 0x00, 0x00, 0x00, 0x00, 0x00,
    0x00, 0x00, 0x00, 0x00, 0x00, 0x00, 0x00, 0x00, 0x00, 0x00, 0x00, 0x00, 0x00,
    0x00, 0x00, 0x00, 0x00, 0x00, 0x00, 0x00, 0x00, 0x00, 0x00, 0x00, 0x00, 0x08,
    0x00, 0x00, 0x00, 0xa7, 0x60, 0xa0, 0x3a, 0xc3, 0x7c, 0x93, 0x3a, 0xe0, 0xb0,
    0xeb, 0x3a, 0x3c, 0x64, 0xe7, 0x3a, 0xb0, 0xe5, 0xbb, 0x3a, 0xa5, 0x18, 0xc3,
    0x3a, 0x44, 0x02, 0xbc, 0x3a, 0x67, 0xf2, 0xb4, 0x3a, 0x12, 0x00, 0x00, 0x00,
    0x74, 0x66, 0x6c, 0x2e, 0x70, 0x73, 0x65, 0x75, 0x64, 0x6f, 0x5f, 0x71, 0x63,
    0x6f, 0x6e, 0x73, 0x74, 0x36, 0x00, 0x00, 0x01, 0x00, 0x00, 0x00, 0x08, 0x00,
    0x00, 0x00, 0xbe, 0xfd, 0xff, 0xff, 0x00, 0x00, 0x00, 0x01, 0x14, 0x00, 0x00,
    0x00, 0x58, 0x00, 0x00, 0x00, 0x07, 0x00, 0x00, 0x00, 0x00, 0x00, 0x00, 0x09,
    0x64, 0x00, 0x00, 0x00, 0x24, 0xfd, 0xff, 0xff, 0x08, 0x00, 0x00, 0x00, 0x2c,
    0x00, 0x00, 0x00, 0x04, 0x00, 0x00, 0x00, 0x00, 0x00, 0x00, 0x00, 0x00, 0x00,
    0x00, 0x00, 0x00, 0x00, 0x00, 0x00, 0x00, 0x00, 0x00, 0x00, 0x00, 0x00, 0x00,
    0x00, 0x00, 0x00, 0x00, 0x00, 0x00, 0x00, 0x00, 0x00, 0x00, 0x00, 0x00, 0x00,
    0x00, 0x00, 0x00, 0x00, 0x04, 0x00, 0x00, 0x00, 0x3b, 0x6c, 0xa4, 0x3b, 0x8d,
    0xf4, 0x57, 0x3b, 0x2b, 0xfd, 0xbd, 0x3b, 0x81, 0xc5, 0xeb, 0x3b, 0x12, 0x00,
    0x00, 0x00, 0x74, 0x66, 0x6c, 0x2e, 0x70, 0x73, 0x65, 0x75, 0x64, 0x6f, 0x5f,
    0x71, 0x63, 0x6f, 0x6e, 0x73, 0x74, 0x35, 0x00, 0x00, 0x02, 0x00, 0x00, 0x00,
    0x04, 0x00, 0x00, 0x00, 0x08, 0x00, 0x00, 0x00, 0x46, 0xfe, 0xff, 0xff, 0x00,
    0x00, 0x00, 0x01, 0x14, 0x00, 0x00, 0x00, 0x54, 0x00, 0x00, 0x00, 0x06, 0x00,
    0x00, 0x00, 0x00, 0x00, 0x00, 0x02, 0x60, 0x00, 0x00, 0x00, 0xac, 0xfd, 0xff,
    0xff, 0x08, 0x00, 0x00, 0x00, 0x28, 0x00, 0x00, 0x00, 0x04, 0x00, 0x00, 0x00,
    0x00, 0x00, 0x00, 0x00, 0x00, 0x00, 0x00, 0x00, 0x00, 0x00, 0x00, 0x00, 0x00,
    0x00, 0x00, 0x00, 0x00, 0x00, 0x00, 0x00, 0x00, 0x00, 0x00, 0x00, 0x00, 0x00,
    0x00, 0x00, 0x00, 0x00, 0x00, 0x00, 0x04, 0x00, 0x00, 0x00, 0x40, 0xa1, 0x24,
    0x3b, 0x2f, 0x3a, 0xd8, 0x3a, 0x6e, 0x3a, 0x3e, 0x3b, 0x87, 0x11, 0x6c, 0x3b,
    0x12, 0x00, 0x00, 0x00, 0x74, 0x66, 0x6c, 0x2e, 0x70, 0x73, 0x65, 0x75, 0x64,
    0x6f, 0x5f, 0x71, 0x63, 0x6f, 0x6e, 0x73, 0x74, 0x34, 0x00, 0x00, 0x01, 0x00,
    0x00, 0x00, 0x04, 0x00, 0x00, 0x00, 0xc6, 0xfe, 0xff, 0xff, 0x00, 0x00, 0x00,
    0x01, 0x14, 0x00, 0x00, 0x00, 0x40, 0x00, 0x00, 0x00, 0x05, 0x00, 0x00, 0x00,
    0x00, 0x00, 0x00, 0x09, 0x4c, 0x00, 0x00, 0x00, 0x2c, 0xfe, 0xff, 0xff, 0x08,
    0x00, 0x00, 0x00, 0x1c, 0x00, 0x00, 0x00, 0x02, 0x00, 0x00, 0x00, 0x00, 0x00,
    0x00, 0x00, 0x00, 0x00, 0x00, 0x00, 0x00, 0x00, 0x00, 0x00, 0x00, 0x00, 0x00,
    0x00, 0x00, 0x00, 0x00, 0x00, 0x02, 0x00, 0x00, 0x00, 0x41, 0x62, 0xf8, 0x3b,
    0xda, 0x18, 0xa1, 0x3b, 0x12, 0x00, 0x00, 0x00, 0x74, 0x66, 0x6c, 0x2e, 0x70,
    0x73, 0x65, 0x75, 0x64, 0x6f, 0x5f, 0x71, 0x63, 0x6f, 0x6e, 0x73, 0x74, 0x33,
    0x00, 0x00, 0x02, 0x00, 0x00, 0x00, 0x02, 0x00, 0x00, 0x00, 0x04, 0x00, 0x00,
    0x00, 0x36, 0xff, 0xff, 0xff, 0x00, 0x00, 0x00, 0x01, 0x14, 0x00, 0x00, 0x00,
    0x3c, 0x00, 0x00, 0x00, 0x04, 0x00, 0x00, 0x00, 0x00, 0x00, 0x00, 0x02, 0x48,
    0x00, 0x00, 0x00, 0x9c, 0xfe, 0xff, 0xff, 0x08, 0x00, 0x00, 0x00, 0x18, 0x00,
    0x00, 0x00, 0x02, 0x00, 0x00, 0x00, 0x00, 0x00, 0x00, 0x00, 0x00, 0x00, 0x00,
    0x00, 0x00, 0x00, 0x00, 0x00, 0x00, 0x00, 0x00, 0x00, 0x02, 0x00, 0x00, 0x00,
    0x09, 0x6b, 0x08, 0x3c, 0xd9, 0xf4, 0xb0, 0x3b, 0x12, 0x00, 0x00, 0x00, 0x74,
    0x66, 0x6c, 0x2e, 0x70, 0x73, 0x65, 0x75, 0x64, 0x6f, 0x5f, 0x71, 0x63, 0x6f,
    0x6e, 0x73, 0x74, 0x32, 0x00, 0x00, 0x01, 0x00, 0x00, 0x00, 0x02, 0x00, 0x00,
    0x00, 0x9e, 0xff, 0xff, 0xff, 0x00, 0x00, 0x00, 0x01, 0x14, 0x00, 0x00, 0x00,
    0x30, 0x00, 0x00, 0x00, 0x03, 0x00, 0x00, 0x00, 0x00, 0x00, 0x00, 0x09, 0x3c,
    0x00, 0x00, 0x00, 0x04, 0xff, 0xff, 0xff, 0x08, 0x00, 0x00, 0x00, 0x10, 0x00,
    0x00, 0x00, 0x01, 0x00, 0x00, 0x00, 0x00, 0x00, 0x00, 0x00, 0x00, 0x00, 0x00,
    0x00, 0x01, 0x00, 0x00, 0x00, 0x42, 0x41, 0x7e, 0x3c, 0x12, 0x00, 0x00, 0x00,
    0x74, 0x66, 0x6c, 0x2e, 0x70, 0x73, 0x65, 0x75, 0x64, 0x6f, 0x5f, 0x71, 0x63,
    0x6f, 0x6e, 0x73, 0x74, 0x31, 0x00, 0x00, 0x02, 0x00, 0x00, 0x00, 0x01, 0x00,
    0x00, 0x00, 0x02, 0x00, 0x00, 0x00, 0x00, 0x00, 0x16, 0x00, 0x1c, 0x00, 0x18,
    0x00, 0x17, 0x00, 0x10, 0x00, 0x0c, 0x00, 0x08, 0x00, 0x00, 0x00, 0x00, 0x00,
    0x00, 0x00, 0x07, 0x00, 0x16, 0x00, 0x00, 0x00, 0x00, 0x00, 0x00, 0x01, 0x14,
    0x00, 0x00, 0x00, 0x30, 0x00, 0x00, 0x00, 0x02, 0x00, 0x00, 0x00, 0x00, 0x00,
    0x00, 0x02, 0x3c, 0x00, 0x00, 0x00, 0x7c, 0xff, 0xff, 0xff, 0x08, 0x00, 0x00,
    0x00, 0x10, 0x00, 0x00, 0x00, 0x01, 0x00, 0x00, 0x00, 0x00, 0x00, 0x00, 0x00,
    0x00, 0x00, 0x00, 0x00, 0x01, 0x00, 0x00, 0x00, 0x82, 0xc0, 0x68, 0x3c, 0x11,
    0x00, 0x00, 0x00, 0x74, 0x66, 0x6c, 0x2e, 0x70, 0x73, 0x65, 0x75, 0x64, 0x6f,
    0x5f, 0x71, 0x63, 0x6f, 0x6e, 0x73, 0x74, 0x00, 0x00, 0x00, 0x01, 0x00, 0x00,
    0x00, 0x01, 0x00, 0x00, 0x00, 0x00, 0x00, 0x16, 0x00, 0x20, 0x00, 0x1c, 0x00,
    0x1b, 0x00, 0x14, 0x00, 0x10, 0x00, 0x0c, 0x00, 0x00, 0x00, 0x00, 0x00, 0x08,
    0x00, 0x07, 0x00, 0x16, 0x00, 0x00, 0x00, 0x00, 0x00, 0x00, 0x01, 0x18, 0x00,
    0x00, 0x00, 0x2c, 0x00, 0x00, 0x00, 0x4c, 0x00, 0x00, 0x00, 0x01, 0x00, 0x00,
    0x00, 0x00, 0x00, 0x00, 0x03, 0x64, 0x00, 0x00, 0x00, 0x02, 0x00, 0x00, 0x00,
    0xff, 0xff, 0xff, 0xff, 0x2a, 0x00, 0x00, 0x00, 0x0c, 0x00, 0x0c, 0x00, 0x00,
    0x00, 0x00, 0x00, 0x08, 0x00, 0x04, 0x00, 0x0c, 0x00, 0x00, 0x00, 0x08, 0x00,
    0x00, 0x00, 0x14, 0x00, 0x00, 0x00, 0x01, 0x00, 0x00, 0x00, 0x55, 0x00, 0x00,
    0x00, 0x00, 0x00, 0x00, 0x00, 0x00, 0x00, 0x00, 0x00, 0x01, 0x00, 0x00, 0x00,
    0x78, 0xd5, 0xf8, 0x3e, 0x1d, 0x00, 0x00, 0x00, 0x73, 0x65, 0x72, 0x76, 0x69,
    0x6e, 0x67, 0x5f, 0x64, 0x65, 0x66, 0x61, 0x75, 0x6c, 0x74, 0x5f, 0x69, 0x6e,
    0x70, 0x75, 0x74, 0x5f, 0x6c, 0x61, 0x79, 0x65, 0x72, 0x3a, 0x30, 0x00, 0x00,
    0x00, 0x02, 0x00, 0x00, 0x00, 0x01, 0x00, 0x00, 0x00, 0x2a, 0x00, 0x00, 0x00,
    0x03, 0x00, 0x00, 0x00, 0x44, 0x00, 0x00, 0x00, 0x24, 0x00, 0x00, 0x00, 0x04,
    0x00, 0x00, 0x00, 0xf0, 0xff, 0xff, 0xff, 0x0e, 0x00, 0x00, 0x00, 0x02, 0x00,
    0x00, 0x00, 0x00, 0x00, 0x00, 0x0e, 0x0c, 0x00, 0x10, 0x00, 0x0f, 0x00, 0x00,
    0x00, 0x08, 0x00, 0x04, 0x00, 0x0c, 0x00, 0x00, 0x00, 0x09, 0x00, 0x00, 0x00,
    0x04, 0x00, 0x00, 0x00, 0x00, 0x00, 0x00, 0x09, 0x0c, 0x00, 0x0c, 0x00, 0x0b,
    0x00, 0x00, 0x00, 0x00, 0x00, 0x04, 0x00, 0x0c, 0x00, 0x00, 0x00, 0x72, 0x00,
    0x00, 0x00, 0x00, 0x00, 0x00, 0x72,
};
const int g_model_len = 11368;
