
// This is a TensorFlow Lite model file that has been converted into a C data
// array using the tensorflow.lite.util.convert_bytes_to_c_source() function.
// This form is useful for compiling into a binary for devices that don't have a
// file system.


#include "model.h"

alignas(8) const unsigned char g_model[] = {
    0x20, 0x00, 0x00, 0x00, 0x54, 0x46, 0x4c, 0x33, 0x00, 0x00, 0x00, 0x00, 0x14,
    0x00, 0x20, 0x00, 0x1c, 0x00, 0x18, 0x00, 0x14, 0x00, 0x10, 0x00, 0x0c, 0x00,
    0x00, 0x00, 0x08, 0x00, 0x04, 0x00, 0x14, 0x00, 0x00, 0x00, 0x1c, 0x00, 0x00,
    0x00, 0x88, 0x00, 0x00, 0x00, 0x08, 0x01, 0x00, 0x00, 0x70, 0x13, 0x00, 0x00,
    0x80, 0x13, 0x00, 0x00, 0xdc, 0x2b, 0x00, 0x00, 0x03, 0x00, 0x00, 0x00, 0x01,
    0x00, 0x00, 0x00, 0x04, 0x00, 0x00, 0x00, 0x0e, 0xec, 0xff, 0xff, 0x0c, 0x00,
    0x00, 0x00, 0x1c, 0x00, 0x00, 0x00, 0x3c, 0x00, 0x00, 0x00, 0x0f, 0x00, 0x00,
    0x00, 0x73, 0x65, 0x72, 0x76, 0x69, 0x6e, 0x67, 0x5f, 0x64, 0x65, 0x66, 0x61,
    0x75, 0x6c, 0x74, 0x00, 0x01, 0x00, 0x00, 0x00, 0x04, 0x00, 0x00, 0x00, 0x6c,
    0xff, 0xff, 0xff, 0x18, 0x00, 0x00, 0x00, 0x04, 0x00, 0x00, 0x00, 0x08, 0x00,
    0x00, 0x00, 0x6f, 0x75, 0x74, 0x70, 0x75, 0x74, 0x5f, 0x30, 0x00, 0x00, 0x00,
    0x00, 0x01, 0x00, 0x00, 0x00, 0x04, 0x00, 0x00, 0x00, 0x16, 0xed, 0xff, 0xff,
    0x04, 0x00, 0x00, 0x00, 0x0b, 0x00, 0x00, 0x00, 0x69, 0x6e, 0x70, 0x75, 0x74,
    0x5f, 0x6c, 0x61, 0x79, 0x65, 0x72, 0x00, 0x03, 0x00, 0x00, 0x00, 0x5c, 0x00,
    0x00, 0x00, 0x2c, 0x00, 0x00, 0x00, 0x04, 0x00, 0x00, 0x00, 0xb8, 0xff, 0xff,
    0xff, 0x1c, 0x00, 0x00, 0x00, 0x04, 0x00, 0x00, 0x00, 0x13, 0x00, 0x00, 0x00,
    0x43, 0x4f, 0x4e, 0x56, 0x45, 0x52, 0x53, 0x49, 0x4f, 0x4e, 0x5f, 0x4d, 0x45,
    0x54, 0x41, 0x44, 0x41, 0x54, 0x41, 0x00, 0xdc, 0xff, 0xff, 0xff, 0x1b, 0x00,
    0x00, 0x00, 0x04, 0x00, 0x00, 0x00, 0x13, 0x00, 0x00, 0x00, 0x6d, 0x69, 0x6e,
    0x5f, 0x72, 0x75, 0x6e, 0x74, 0x69, 0x6d, 0x65, 0x5f, 0x76, 0x65, 0x72, 0x73,
    0x69, 0x6f, 0x6e, 0x00, 0x08, 0x00, 0x0c, 0x00, 0x08, 0x00, 0x04, 0x00, 0x08,
    0x00, 0x00, 0x00, 0x1a, 0x00, 0x00, 0x00, 0x04, 0x00, 0x00, 0x00, 0x13, 0x00,
    0x00, 0x00, 0x6d, 0x69, 0x6e, 0x5f, 0x72, 0x75, 0x6e, 0x74, 0x69, 0x6d, 0x65,
    0x5f, 0x76, 0x65, 0x72, 0x73, 0x69, 0x6f, 0x6e, 0x00, 0x1d, 0x00, 0x00, 0x00,
    0x64, 0x12, 0x00, 0x00, 0x5c, 0x12, 0x00, 0x00, 0x48, 0x12, 0x00, 0x00, 0x30,
    0x12, 0x00, 0x00, 0x18, 0x12, 0x00, 0x00, 0x00, 0x12, 0x00, 0x00, 0xe0, 0x11,
    0x00, 0x00, 0xb0, 0x11, 0x00, 0x00, 0x80, 0x11, 0x00, 0x00, 0xf0, 0x10, 0x00,
    0x00, 0xa0, 0x10, 0x00, 0x00, 0x90, 0x0e, 0x00, 0x00, 0x00, 0x0e, 0x00, 0x00,
    0xb0, 0x08, 0x00, 0x00, 0xf8, 0x07, 0x00, 0x00, 0x04, 0x01, 0x00, 0x00, 0xfc,
    0x00, 0x00, 0x00, 0xf4, 0x00, 0x00, 0x00, 0xec, 0x00, 0x00, 0x00, 0xe4, 0x00,
    0x00, 0x00, 0xdc, 0x00, 0x00, 0x00, 0xd4, 0x00, 0x00, 0x00, 0xcc, 0x00, 0x00,
    0x00, 0xc4, 0x00, 0x00, 0x00, 0xbc, 0x00, 0x00, 0x00, 0xb4, 0x00, 0x00, 0x00,
    0x94, 0x00, 0x00, 0x00, 0x74, 0x00, 0x00, 0x00, 0x04, 0x00, 0x00, 0x00, 0x2a,
    0xee, 0xff, 0xff, 0x04, 0x00, 0x00, 0x00, 0x60, 0x00, 0x00, 0x00, 0x0c, 0x00,
    0x00, 0x00, 0x08, 0x00, 0x0e, 0x00, 0x08, 0x00, 0x04, 0x00, 0x08, 0x00, 0x00,
    0x00, 0x10, 0x00, 0x00, 0x00, 0x28, 0x00, 0x00, 0x00, 0x00, 0x00, 0x06, 0x00,
    0x08, 0x00, 0x04, 0x00, 0x06, 0x00, 0x00, 0x00, 0x04, 0x00, 0x00, 0x00, 0x01,
    0x00, 0x00, 0x00, 0xeb, 0x03, 0x00, 0x00, 0x0c, 0x00, 0x18, 0x00, 0x14, 0x00,
    0x10, 0x00, 0x0c, 0x00, 0x04, 0x00, 0x0c, 0x00, 0x00, 0x00, 0x23, 0x67, 0x19,
    0xbe, 0xa7, 0xd3, 0x6c, 0x89, 0x02, 0x00, 0x00, 0x00, 0x02, 0x00, 0x00, 0x00,
    0x04, 0x00, 0x00, 0x00, 0x06, 0x00, 0x00, 0x00, 0x32, 0x2e, 0x31, 0x38, 0x2e,
    0x30, 0x00, 0x00, 0x96, 0xee, 0xff, 0xff, 0x04, 0x00, 0x00, 0x00, 0x10, 0x00,
    0x00, 0x00, 0x00, 0x00, 0x00, 0x00, 0x00, 0x00, 0x00, 0x00, 0x00, 0x00, 0x00,
    0x00, 0x00, 0x00, 0x00, 0x00, 0xb2, 0xee, 0xff, 0xff, 0x04, 0x00, 0x00, 0x00,
    0x10, 0x00, 0x00, 0x00, 0x31, 0x2e, 0x31, 0x34, 0x2e, 0x30, 0x00, 0x00, 0x00,
    0x00, 0x00, 0x00, 0x00, 0x00, 0x00, 0x00, 0xd4, 0xed, 0xff, 0xff, 0xd8, 0xed,
    0xff, 0xff, 0xdc, 0xed, 0xff, 0xff, 0xe0, 0xed, 0xff, 0xff, 0xe4, 0xed, 0xff,
    0xff, 0xe8, 0xed, 0xff, 0xff, 0xec, 0xed, 0xff, 0xff, 0xf0, 0xed, 0xff, 0xff,
    0xf4, 0xed, 0xff, 0xff, 0xf8, 0xed, 0xff, 0xff, 0xf6, 0xee, 0xff, 0xff, 0x04,
    0x00, 0x00, 0x00, 0xe4, 0x06, 0x00, 0x00, 0xf2, 0x28, 0xf7, 0xd5, 0x0d, 0xd6,
    0xdb, 0x0c, 0x02, 0x7f, 0xce, 0x0f, 0x28, 0xe9, 0x15, 0xd1, 0xaf, 0xe2, 0xb8,
    0xd1, 0xd0, 0xde, 0x08, 0x12, 0x0c, 0xe6, 0x2f, 0x20, 0xd9, 0xf0, 0x0a, 0xcc,
    0x15, 0x33, 0xc6, 0x31, 0xe7, 0xe3, 0x09, 0xf5, 0x06, 0x05, 0x1d, 0xee, 0xe3,
    0x41, 0x20, 0x0d, 0x3c, 0x7f, 0xe7, 0x63, 0x05, 0x06, 0x31, 0x1f, 0x38, 0xe1,
    0x10, 0xd4, 0x1e, 0x09, 0x0d, 0x2b, 0x08, 0x0b, 0xb6, 0xc4, 0x8c, 0x4f, 0xfd,
    0xf5, 0x9f, 0xee, 0xf2, 0x23, 0xde, 0x3e, 0xcb, 0x62, 0x41, 0x48, 0xab, 0x3e,
    0x27, 0x39, 0xcd, 0x56, 0x16, 0xcb, 0xf7, 0x7f, 0x2c, 0x0f, 0xcc, 0x17, 0xdb,
    0xc6, 0xd6, 0x19, 0x24, 0x2e, 0xb3, 0xeb, 0xe1, 0x1b, 0x53, 0xce, 0xb0, 0x1d,
    0x16, 0xd3, 0xcd, 0xdf, 0x21, 0xe8, 0x0e, 0xe3, 0x0c, 0x0a, 0xf5, 0x36, 0xd1,
    0xad, 0xe0, 0xea, 0x20, 0xf7, 0x06, 0x50, 0x36, 0x04, 0x5a, 0x11, 0x7f, 0xe9,
    0xab, 0x03, 0xd2, 0x3e, 0x41, 0x0e, 0x4b, 0xd0, 0xc9, 0x00, 0x36, 0x4f, 0x48,
    0x41, 0x32, 0x35, 0xdd, 0x39, 0x2b, 0x45, 0xf9, 0x0b, 0x20, 0xa9, 0x21, 0xe7,
    0x47, 0x2c, 0xdd, 0xfc, 0xb6, 0x19, 0xf7, 0xf0, 0x49, 0x49, 0x5c, 0x18, 0xe9,
    0xde, 0x03, 0x7f, 0x0a, 0xf1, 0xfa, 0x3a, 0x0e, 0xe4, 0xd1, 0xed, 0xfa, 0x1b,
    0xea, 0x24, 0x04, 0x24, 0xe0, 0xfc, 0x1c, 0x09, 0x17, 0x22, 0xe7, 0xfe, 0xfd,
    0x2f, 0xf6, 0xfe, 0xfb, 0xe9, 0x0e, 0xf3, 0x2b, 0xfd, 0x06, 0x2d, 0x87, 0xba,
    0xd6, 0xbb, 0xc7, 0xff, 0xe4, 0xf4, 0x1b, 0x7d, 0x85, 0xf4, 0xe2, 0x24, 0xc5,
    0x08, 0x4b, 0xd3, 0x10, 0x0c, 0x8b, 0x21, 0xa9, 0x9f, 0xf3, 0xa3, 0x28, 0x34,
    0x25, 0x0d, 0xeb, 0x0c, 0xe4, 0xe1, 0xf9, 0xf1, 0x3c, 0xfe, 0x81, 0xf8, 0x07,
    0x7f, 0x26, 0x64, 0x00, 0x31, 0xa6, 0xe6, 0x0a, 0xd6, 0xdc, 0xe3, 0x96, 0xaa,
    0x05, 0x38, 0x18, 0x0b, 0x00, 0x03, 0x08, 0xe4, 0xbe, 0xba, 0x01, 0x20, 0xfa,
    0x2a, 0xf3, 0x0d, 0x35, 0xd4, 0x37, 0x44, 0xe8, 0x10, 0x22, 0x46, 0x24, 0x9e,
    0x15, 0xc0, 0x06, 0xe8, 0x70, 0x57, 0x81, 0xf6, 0xc3, 0xad, 0x41, 0xe1, 0x1b,
    0xf5, 0x8a, 0x0c, 0x00, 0x03, 0xe8, 0x72, 0x0c, 0x33, 0xf0, 0x21, 0xc5, 0xdc,
    0x45, 0xec, 0xc6, 0xf3, 0xf1, 0x28, 0xfe, 0xf7, 0x01, 0x47, 0x04, 0xe3, 0xe4,
    0x13, 0xd4, 0xfe, 0x49, 0x34, 0x21, 0x25, 0xa1, 0x46, 0xea, 0x47, 0x13, 0xea,
    0xf8, 0xf0, 0xe6, 0x57, 0xfd, 0x32, 0x0e, 0x37, 0x0c, 0x35, 0x57, 0x7f, 0x21,
    0x23, 0x31, 0x4b, 0x12, 0xcc, 0xb9, 0xff, 0xd1, 0x5a, 0xa5, 0x40, 0x23, 0xfd,
    0x17, 0x05, 0xc1, 0x2a, 0xdb, 0x16, 0x05, 0x33, 0x00, 0x5e, 0x10, 0xed, 0xa6,
    0x25, 0x2c, 0x3b, 0xba, 0xed, 0x3e, 0xf0, 0xfc, 0x3c, 0xf2, 0xfa, 0xea, 0x7f,
    0xb8, 0x08, 0xf8, 0x06, 0xc0, 0xe9, 0x14, 0xed, 0xc0, 0xe3, 0x15, 0xf6, 0x6d,
    0x12, 0x20, 0x20, 0xd4, 0xd6, 0x03, 0x39, 0x12, 0xfc, 0x03, 0x0d, 0x07, 0x96,
    0xdb, 0xb9, 0xbd, 0xe0, 0x21, 0x81, 0xd1, 0xfa, 0xcb, 0x2b, 0xda, 0x07, 0xed,
    0xa0, 0x9c, 0x37, 0x56, 0xe0, 0x0c, 0xe2, 0xe5, 0x09, 0xed, 0xf5, 0x28, 0x28,
    0xd8, 0x06, 0x3a, 0xe4, 0x31, 0x40, 0x29, 0xbf, 0x41, 0x26, 0x1d, 0xe6, 0xf3,
    0x10, 0x1f, 0x08, 0x10, 0xd9, 0xec, 0x28, 0xfa, 0x6f, 0x1b, 0x42, 0xfe, 0x19,
    0xfa, 0x05, 0x94, 0x48, 0x30, 0xf0, 0x2e, 0x25, 0x58, 0x16, 0x5f, 0x6c, 0xf8,
    0x19, 0x1a, 0x81, 0x46, 0xe8, 0xbd, 0x2a, 0xa4, 0x3e, 0xa9, 0x2f, 0x2d, 0xed,
    0xda, 0x36, 0xd5, 0x37, 0x04, 0x04, 0xe5, 0x7d, 0x6c, 0x74, 0xa9, 0x08, 0x09,
    0xde, 0x30, 0xc0, 0x13, 0xee, 0xab, 0xe7, 0xdb, 0x39, 0xd8, 0x6c, 0x6d, 0xdc,
    0xf3, 0x06, 0xf8, 0x4a, 0x13, 0x55, 0x0d, 0xdb, 0x81, 0x32, 0x0d, 0x3c, 0xe3,
    0xb0, 0x58, 0x39, 0x17, 0xff, 0xfb, 0xa8, 0x00, 0x0d, 0xa7, 0xf6, 0xec, 0x3a,
    0xaf, 0x4e, 0xd2, 0x23, 0x11, 0xa7, 0x6f, 0x90, 0xbd, 0xba, 0xec, 0xea, 0x2e,
    0x3d, 0xe9, 0x7f, 0xca, 0xda, 0x9e, 0xfa, 0xc4, 0xe3, 0x4a, 0xdf, 0x3a, 0x0b,
    0xf3, 0x0e, 0xfe, 0xf8, 0xf6, 0x02, 0x6a, 0x21, 0x9c, 0xa8, 0x14, 0x29, 0x12,
    0x10, 0x38, 0x05, 0xe2, 0x44, 0x52, 0x7f, 0xe9, 0x37, 0x00, 0x0e, 0x2b, 0xd3,
    0xee, 0xf6, 0x06, 0xf9, 0xcc, 0xf3, 0x20, 0xba, 0xfd, 0xb8, 0x4c, 0xd0, 0xa8,
    0x3e, 0xd1, 0x50, 0xc5, 0xb3, 0xbe, 0xd2, 0xa1, 0x2a, 0x1f, 0xf1, 0xe4, 0xcf,
    0x22, 0x0e, 0xe1, 0x2e, 0xc8, 0xe6, 0x73, 0x19, 0x6f, 0x7f, 0xdf, 0xa5, 0xd7,
    0xbc, 0xb4, 0x43, 0x04, 0x39, 0x3d, 0x04, 0x09, 0xd1, 0x51, 0x11, 0x07, 0xf1,
    0x1c, 0xc7, 0x46, 0x47, 0x8a, 0x6d, 0x98, 0xbf, 0x9a, 0x4a, 0x49, 0xf0, 0xe6,
    0x74, 0x3f, 0x32, 0x02, 0x81, 0xec, 0xd8, 0x86, 0xed, 0xf4, 0x21, 0x87, 0xf2,
    0x36, 0xdf, 0x0f, 0xf0, 0x29, 0x9a, 0x33, 0x20, 0xc8, 0xb3, 0x3c, 0x30, 0x11,
    0xe2, 0x25, 0xb8, 0x0b, 0xbf, 0x13, 0x26, 0x0d, 0xec, 0x97, 0xfa, 0x34, 0x6a,
    0xcc, 0x9d, 0x17, 0x14, 0x4a, 0x69, 0x09, 0xe7, 0x1c, 0xfb, 0x25, 0x2a, 0x0b,
    0xdb, 0x1e, 0x7f, 0xc2, 0xd9, 0xf3, 0x33, 0x18, 0x1c, 0x4f, 0xd0, 0xf5, 0xe3,
    0x0a, 0x0c, 0xcf, 0xf7, 0xe2, 0x08, 0x3c, 0xdb, 0xee, 0x02, 0x18, 0xe9, 0xd6,
    0x14, 0xf1, 0xcd, 0x37, 0xec, 0xf7, 0xe2, 0xc3, 0x37, 0xdb, 0x0a, 0xb7, 0xac,
    0x1a, 0x85, 0xfc, 0x1d, 0x11, 0x4f, 0xc0, 0xe8, 0x78, 0xe6, 0x36, 0x11, 0xdf,
    0x14, 0xb7, 0x57, 0x15, 0x2d, 0x6e, 0x7f, 0x2e, 0x14, 0x72, 0xbc, 0xf8, 0xe6,
    0x2e, 0xa3, 0x1a, 0x54, 0x82, 0x47, 0xa1, 0xaf, 0x5a, 0xca, 0x6c, 0x23, 0x08,
    0x24, 0x3c, 0x1f, 0xab, 0x94, 0xe1, 0xcd, 0x1b, 0xf3, 0xd6, 0x4d, 0x81, 0x54,
    0x45, 0xbb, 0x10, 0x10, 0x4b, 0x35, 0xf4, 0x15, 0xf5, 0xbc, 0x43, 0x0e, 0xf1,
    0xb6, 0x49, 0xb7, 0x48, 0xf2, 0x3b, 0x14, 0xfd, 0x5d, 0x47, 0xb2, 0xd1, 0xd9,
    0x30, 0xad, 0xee, 0x07, 0xcf, 0xea, 0xee, 0xc7, 0x0c, 0xc9, 0xe5, 0x7f, 0xc9,
    0xfa, 0xd1, 0x0a, 0x2d, 0x3e, 0xd7, 0xfc, 0xfe, 0x07, 0xca, 0x1b, 0x30, 0x19,
    0xbb, 0xf2, 0x28, 0xf1, 0x2e, 0x08, 0xc6, 0xef, 0x1f, 0x0e, 0xe2, 0x31, 0xc1,
    0xed, 0x02, 0xd6, 0xb5, 0xe9, 0x09, 0x7c, 0x12, 0x2d, 0x36, 0xb4, 0x3e, 0x17,
    0x83, 0xa1, 0xc9, 0x7b, 0x88, 0x5d, 0xb6, 0xef, 0x18, 0x22, 0xe5, 0xe9, 0x01,
    0x81, 0xba, 0x2a, 0x1f, 0x90, 0x3a, 0xb1, 0xec, 0xf3, 0x06, 0x19, 0x0b, 0x8e,
    0x5e, 0x26, 0xf4, 0x87, 0xda, 0x1f, 0xd5, 0x05, 0x04, 0x81, 0x23, 0xb4, 0xa5,
    0x2e, 0x9c, 0xfa, 0x32, 0xe9, 0xae, 0x16, 0xa3, 0x5b, 0x30, 0xcc, 0xde, 0x5a,
    0x7c, 0x34, 0x32, 0x29, 0x2a, 0x26, 0xf0, 0x15, 0xcd, 0x8c, 0xe7, 0x51, 0x93,
    0x01, 0xd2, 0x0a, 0xf4, 0xd1, 0x3a, 0x69, 0xd6, 0xd9, 0xef, 0xb4, 0x16, 0xb3,
    0x0d, 0x29, 0xfa, 0xfe, 0x38, 0x27, 0x1d, 0x12, 0xc0, 0x15, 0x12, 0xdd, 0x2b,
    0xee, 0x7f, 0x31, 0x0b, 0x63, 0x61, 0xea, 0xfb, 0x35, 0xc2, 0xfb, 0xd2, 0x05,
    0x14, 0x7c, 0x98, 0x29, 0x1b, 0xea, 0x38, 0xc9, 0x01, 0x29, 0xae, 0x13, 0x3d,
    0xdf, 0x19, 0x41, 0x30, 0xec, 0x21, 0x90, 0x9e, 0xdf, 0x81, 0xf3, 0xe7, 0xd3,
    0xa1, 0xd1, 0xc0, 0x22, 0x52, 0xe0, 0xb0, 0xe1, 0x69, 0x50, 0xf5, 0x11, 0xb3,
    0x70, 0x00, 0x43, 0x6c, 0xec, 0x27, 0x20, 0xf0, 0xf3, 0x31, 0x45, 0xf4, 0xaf,
    0x30, 0xdc, 0x97, 0xb7, 0xf6, 0x22, 0x20, 0x92, 0xc8, 0x1c, 0xbe, 0x8f, 0xb2,
    0x97, 0xea, 0xd5, 0x81, 0xb5, 0xe8, 0xe3, 0xdd, 0xd9, 0x15, 0x33, 0x20, 0x21,
    0x55, 0x43, 0xe0, 0xcc, 0xed, 0xbb, 0xf8, 0x20, 0x12, 0x9d, 0xef, 0xad, 0x0b,
    0x4d, 0xd1, 0xbc, 0x24, 0x0e, 0x14, 0xaf, 0x02, 0xfe, 0x7f, 0x25, 0xe4, 0x16,
    0xcf, 0x18, 0xde, 0xe3, 0x5a, 0xaa, 0x53, 0xaf, 0x25, 0x2c, 0x1e, 0xdf, 0xaf,
    0x14, 0x9e, 0x2b, 0x40, 0xe6, 0xd8, 0x2e, 0xce, 0xe8, 0x10, 0xbb, 0xbd, 0x19,
    0xfe, 0xf1, 0xfb, 0x1d, 0xf4, 0xcd, 0xe3, 0xe6, 0x30, 0x29, 0x08, 0x42, 0x24,
    0x27, 0x67, 0xed, 0x81, 0x08, 0xc2, 0xcd, 0x96, 0xb1, 0x40, 0x8f, 0xa1, 0xcf,
    0x1b, 0xd9, 0x1f, 0x58, 0xef, 0xcf, 0xbd, 0x0e, 0x1d, 0x40, 0x1f, 0xeb, 0xd9,
    0x10, 0x46, 0x0e, 0xfe, 0x3e, 0x15, 0xbb, 0xe6, 0x26, 0x59, 0x13, 0x06, 0xa7,
    0xe7, 0xcd, 0x05, 0xc0, 0xf3, 0xa7, 0x0a, 0xf5, 0x08, 0x7f, 0xc9, 0xe6, 0xe6,
    0xd2, 0xc7, 0x26, 0x29, 0xe1, 0xe1, 0xfa, 0xe6, 0x14, 0x22, 0x14, 0x23, 0x22,
    0xe6, 0x03, 0x42, 0x37, 0xf2, 0xbb, 0xc6, 0xd2, 0xd8, 0xe4, 0xcb, 0x27, 0x30,
    0xcf, 0x05, 0xdf, 0x1c, 0xb7, 0x2d, 0x15, 0x06, 0xf8, 0x54, 0x64, 0x31, 0xd9,
    0xed, 0x3b, 0xf2, 0x20, 0xc7, 0x57, 0x7f, 0xd1, 0x40, 0x0f, 0x54, 0x3d, 0x03,
    0xfe, 0x07, 0xe3, 0x34, 0x3f, 0xf6, 0x34, 0x26, 0xdb, 0xf5, 0xf6, 0x98, 0x28,
    0xc9, 0x1b, 0xea, 0xee, 0xf8, 0xcb, 0x07, 0x81, 0xbc, 0xaf, 0xeb, 0x44, 0xaf,
    0xc7, 0x97, 0xf3, 0x2a, 0x1f, 0x34, 0x5c, 0x2e, 0xcd, 0x01, 0x3f, 0xf0, 0x0a,
    0x34, 0xf0, 0xe7, 0xf2, 0x1f, 0xec, 0x0b, 0xfc, 0xec, 0x3b, 0x28, 0xef, 0xef,
    0x0f, 0x14, 0x2e, 0x2d, 0xd1, 0x17, 0x1c, 0x01, 0x5f, 0xf4, 0x18, 0xf4, 0xd3,
    0xea, 0xe9, 0x19, 0xe9, 0xf6, 0x7f, 0x26, 0x09, 0x0a, 0x1d, 0xd2, 0xf4, 0xf3,
    0xde, 0x27, 0xed, 0xec, 0x0f, 0x0b, 0x27, 0x15, 0xff, 0xf6, 0x22, 0x15, 0x02,
    0xe7, 0xf7, 0x0b, 0x1c, 0xee, 0x20, 0xe0, 0xf5, 0x11, 0x18, 0x03, 0xef, 0x14,
    0x0b, 0x2b, 0x22, 0xf3, 0x02, 0x2e, 0x54, 0x51, 0x7f, 0x0d, 0xe9, 0x12, 0xd3,
    0x3e, 0xf7, 0x64, 0x24, 0x0f, 0x41, 0xe9, 0x17, 0xf4, 0x21, 0xd5, 0xd2, 0xb9,
    0x12, 0x45, 0x1c, 0xd2, 0x27, 0xb9, 0xe1, 0xfb, 0x2f, 0x3e, 0xff, 0xdf, 0x55,
    0xd8, 0xdc, 0x06, 0x5c, 0xc5, 0xf5, 0x81, 0x2e, 0x25, 0xea, 0xde, 0xf2, 0xf4,
    0xd5, 0x47, 0xfa, 0xc4, 0xfb, 0xea, 0x0c, 0x07, 0xb3, 0x14, 0x0d, 0xf2, 0x2d,
    0xad, 0xf5, 0xbc, 0x05, 0x26, 0xb6, 0x11, 0x31, 0x0f, 0xe8, 0xf4, 0xec, 0x2a,
    0x24, 0x1d, 0x09, 0xc7, 0xd1, 0x04, 0xac, 0xa8, 0x4b, 0xf7, 0x60, 0x8a, 0x59,
    0xe4, 0xa3, 0xdf, 0x44, 0xdf, 0x2a, 0x1a, 0x14, 0x7d, 0xed, 0x49, 0x4e, 0xd3,
    0xfd, 0xf8, 0x26, 0xd4, 0x14, 0xce, 0xe2, 0x89, 0x0a, 0x98, 0x1b, 0x81, 0xf1,
    0xe9, 0xe3, 0x15, 0x27, 0xcb, 0x35, 0xe0, 0xe6, 0x05, 0xae, 0xe7, 0x6e, 0xeb,
    0x81, 0xb0, 0xd2, 0xe6, 0xec, 0xe4, 0x19, 0x07, 0xca, 0x43, 0xef, 0x16, 0xa7,
    0x37, 0xf8, 0x03, 0x19, 0xc5, 0xbb, 0x04, 0x08, 0x11, 0x1c, 0x31, 0x2e, 0xe6,
    0xd0, 0x11, 0xe0, 0x32, 0x2c, 0xb1, 0x0c, 0x13, 0xeb, 0xf4, 0x1c, 0xef, 0x2d,
    0x29, 0x06, 0xf1, 0xe1, 0xff, 0xe3, 0x23, 0x7f, 0x0b, 0x17, 0x02, 0xc8, 0xec,
    0x1c, 0xc2, 0x00, 0xf2, 0xca, 0xf2, 0x14, 0xf0, 0x38, 0xe5, 0xd2, 0x37, 0x09,
    0x33, 0x20, 0xec, 0x12, 0x32, 0xf2, 0xc9, 0x35, 0x00, 0xec, 0x08, 0xe9, 0x0c,
    0xfe, 0x00, 0x81, 0xd7, 0x5a, 0x14, 0x2d, 0x2c, 0x11, 0xff, 0xc1, 0x12, 0x11,
    0xbb, 0x54, 0xf8, 0xd1, 0x3a, 0x4b, 0x25, 0x5b, 0x60, 0xdb, 0x22, 0xb7, 0x31,
    0x1c, 0x50, 0xf8, 0x03, 0xc3, 0x16, 0x26, 0x0e, 0x50, 0xd4, 0xd2, 0x08, 0xd8,
    0xd6, 0xee, 0x43, 0xf6, 0xec, 0x01, 0x24, 0xeb, 0xb9, 0xb8, 0xd5, 0xe5, 0x24,
    0x7a, 0xe5, 0x0d, 0x1a, 0xab, 0x4a, 0x45, 0xe2, 0xc8, 0x19, 0xd6, 0xee, 0xfe,
    0xfe, 0xf5, 0xe1, 0x2a, 0x19, 0x0d, 0x25, 0x34, 0x2b, 0x30, 0x3a, 0xc7, 0x81,
    0x11, 0xde, 0x1e, 0xd1, 0xe8, 0x25, 0x42, 0x06, 0x5a, 0xb6, 0xc1, 0x74, 0x4b,
    0xe4, 0xba, 0x9f, 0xc6, 0x3c, 0xcd, 0xcf, 0xe0, 0xd9, 0xd3, 0x70, 0x6a, 0x3b,
    0x21, 0x47, 0xd1, 0x81, 0x22, 0xc8, 0x6b, 0xf9, 0xf0, 0xfc, 0xe6, 0xe8, 0x53,
    0xc6, 0x0e, 0x2e, 0x43, 0x3b, 0xa1, 0x54, 0xd6, 0x1f, 0xcf, 0x1f, 0x3a, 0xc5,
    0x17, 0x42, 0x26, 0xd2, 0x35, 0x3d, 0x23, 0xa7, 0xdd, 0x0c, 0x26, 0x22, 0xeb,
    0x7f, 0xed, 0x18, 0x25, 0x4b, 0x0f, 0xd0, 0x48, 0xcb, 0x52, 0xa7, 0x36, 0xc4,
    0x64, 0xee, 0x1f, 0xbb, 0xf5, 0x2f, 0xfd, 0x31, 0x40, 0xd9, 0x2b, 0x33, 0xda,
    0xf6, 0xde, 0x00, 0xe4, 0x34, 0xc6, 0x0a, 0x1d, 0x29, 0x7f, 0xd0, 0xf8, 0xee,
    0x50, 0xce, 0xb5, 0x36, 0xd4, 0x02, 0x06, 0x0b, 0x40, 0xc7, 0xdb, 0xf3, 0xc4,
    0xd3, 0xd7, 0xc3, 0x53, 0xb6, 0x1a, 0x22, 0x41, 0xd8, 0xe8, 0xb3, 0xf1, 0x24,
    0xd7, 0xc3, 0x0a, 0xe6, 0xf5, 0xff, 0xff, 0x04, 0x00, 0x00, 0x00, 0xa8, 0x00,
    0x00, 0x00, 0x0d, 0x00, 0x00, 0x00, 0x10, 0x00, 0x00, 0x00, 0xc0, 0xff, 0xff,
    0xff, 0x55, 0xff, 0xff, 0xff, 0xf8, 0xff, 0xff, 0xff, 0xbd, 0xff, 0xff, 0xff,
    0xbd, 0xff, 0xff, 0xff, 0xcd, 0xff, 0xff, 0xff, 0xab, 0xff, 0xff, 0xff, 0x45,
    0xff, 0xff, 0xff, 0xc9, 0xff, 0xff, 0xff, 0x94, 0xff, 0xff, 0xff, 0x46, 0xff,
    0xff, 0xff, 0x6b, 0xff, 0xff, 0xff, 0xab, 0xff, 0xff, 0xff, 0xb9, 0xff, 0xff,
    0xff, 0x71, 0xff, 0xff, 0xff, 0x06, 0x00, 0x00, 0x00, 0xb5, 0xff, 0xff, 0xff,
    0xb7, 0xff, 0xff, 0xff, 0x29, 0x00, 0x00, 0x00, 0xdf, 0xfe, 0xff, 0xff, 0x4e,
    0xff, 0xff, 0xff, 0xd9, 0xff, 0xff, 0xff, 0xa3, 0xff, 0xff, 0xff, 0x5e, 0xff,
    0xff, 0xff, 0x3b, 0xff, 0xff, 0xff, 0x89, 0xff, 0xff, 0xff, 0x40, 0x00, 0x00,
    0x00, 0xab, 0xff, 0xff, 0xff, 0xa8, 0xff, 0xff, 0xff, 0x20, 0x00, 0x00, 0x00,
    0xd2, 0xff, 0xff, 0xff, 0x5b, 0xff, 0xff, 0xff, 0x6f, 0xff, 0xff, 0xff, 0x19,
    0x00, 0x00, 0x00, 0x11, 0x00, 0x00, 0x00, 0x0b, 0xff, 0xff, 0xff, 0x34, 0x00,
    0x00, 0x00, 0x7c, 0xff, 0xff, 0xff, 0xb7, 0xff, 0xff, 0xff, 0x01, 0x00, 0x00,
    0x00, 0x9a, 0xf6, 0xff, 0xff, 0x04, 0x00, 0x00, 0x00, 0x40, 0x05, 0x00, 0x00,
    0xc4, 0x4c, 0xe9, 0xea, 0x08, 0xf6, 0x37, 0xe9, 0x7b, 0x3f, 0xc9, 0x6a, 0xc1,
    0xdb, 0xf3, 0xdf, 0x67, 0x3b, 0x01, 0xf8, 0x83, 0x14, 0xdb, 0xd3, 0x2c, 0x81,
    0xfa, 0x31, 0x03, 0x76, 0xb9, 0x81, 0xff, 0x44, 0x1b, 0x0f, 0x82, 0xe9, 0xc6,
    0xba, 0x31, 0x13, 0xee, 0xa8, 0xdd, 0x05, 0x30, 0xde, 0x49, 0x59, 0x9b, 0x81,
    0xb7, 0x26, 0xc0, 0xe6, 0xf7, 0x8f, 0x82, 0x4c, 0xa1, 0x51, 0xe0, 0xe2, 0x1f,
    0x27, 0x11, 0x21, 0xa8, 0x0e, 0x0e, 0xc9, 0xc8, 0xfe, 0xbb, 0x9a, 0x56, 0x62,
    0xce, 0xfe, 0xcf, 0xf9, 0x4e, 0xa5, 0x31, 0xad, 0xb3, 0xa6, 0x2b, 0xba, 0xcf,
    0x23, 0xde, 0xbc, 0xbb, 0xa8, 0x51, 0x08, 0xa7, 0x21, 0x2c, 0xd2, 0x0c, 0x30,
    0x9f, 0x00, 0xe1, 0x33, 0xe9, 0xaf, 0x51, 0x06, 0xa6, 0xc0, 0x23, 0x81, 0x3e,
    0x1a, 0x9d, 0xb1, 0x0c, 0xa9, 0xbd, 0xd1, 0xc3, 0xcb, 0x07, 0x56, 0x50, 0x3c,
    0xc3, 0xac, 0x88, 0x81, 0xda, 0xa7, 0x9d, 0xf6, 0xf5, 0x0f, 0x58, 0x52, 0xac,
    0x5e, 0xa3, 0xc6, 0x1d, 0xa0, 0x12, 0xfd, 0xc6, 0xe3, 0x1b, 0xaa, 0x21, 0x43,
    0xc9, 0xf7, 0x39, 0x8a, 0x2b, 0x91, 0x3c, 0x30, 0x03, 0x17, 0x25, 0x34, 0x01,
    0x40, 0x47, 0x38, 0xde, 0xf5, 0xb4, 0xa9, 0x18, 0xd7, 0xae, 0x3d, 0x81, 0x26,
    0x3e, 0xdd, 0xc5, 0x0a, 0x63, 0xd4, 0xd6, 0xf7, 0xd4, 0xec, 0xcd, 0x59, 0x97,
    0xb6, 0xdf, 0xd8, 0x9f, 0x1a, 0x64, 0x01, 0xc1, 0xdd, 0xe2, 0x4d, 0x2c, 0xf1,
    0x21, 0xe0, 0x01, 0xb5, 0x63, 0xf4, 0x39, 0x60, 0x07, 0x09, 0x09, 0x09, 0x68,
    0x0c, 0xfd, 0x3e, 0x37, 0x62, 0x09, 0x2f, 0x14, 0x1c, 0xd8, 0xfc, 0x97, 0xa7,
    0xd6, 0xb0, 0xbc, 0x22, 0xe6, 0xab, 0x15, 0xf6, 0xc3, 0x3f, 0xe8, 0x7f, 0xde,
    0x3d, 0xb8, 0xd6, 0xf0, 0xad, 0x2e, 0xf8, 0x2a, 0xa4, 0x13, 0x09, 0x81, 0x9f,
    0x00, 0xf9, 0xda, 0x07, 0xbc, 0xc2, 0x0f, 0xdb, 0xdb, 0x34, 0xe7, 0xc7, 0xf1,
    0xf3, 0xaf, 0x2a, 0xe5, 0xf7, 0xe1, 0xf2, 0xf7, 0xc5, 0xd1, 0x21, 0x4e, 0xed,
    0xc4, 0xf3, 0x12, 0xff, 0x24, 0xea, 0xdd, 0x35, 0xb4, 0xb3, 0xcf, 0xce, 0x88,
    0x60, 0x60, 0x22, 0x0b, 0xb9, 0x10, 0xd4, 0x0c, 0xc3, 0x31, 0x5d, 0x5e, 0x65,
    0x9b, 0xd6, 0x8f, 0xb6, 0x81, 0x88, 0xf8, 0xdd, 0x21, 0xc2, 0x0a, 0xea, 0xd8,
    0x87, 0x3c, 0xe5, 0x68, 0x3d, 0x28, 0x9c, 0xa2, 0xb2, 0xa6, 0xf4, 0x47, 0x2e,
    0x4d, 0x5d, 0xcc, 0xc6, 0xb5, 0xe7, 0x41, 0x9a, 0xf2, 0x0b, 0x17, 0x81, 0x1d,
    0xd5, 0xae, 0x1a, 0xd9, 0xb4, 0xf2, 0xc2, 0xed, 0x3c, 0xd8, 0x40, 0xd0, 0xc7,
    0x0f, 0xd3, 0x06, 0x14, 0xe1, 0xec, 0x1d, 0x0a, 0x49, 0xee, 0x34, 0xc8, 0xbe,
    0x02, 0x02, 0xfe, 0xd5, 0xa9, 0x28, 0x44, 0x14, 0xbf, 0xbe, 0x8e, 0x17, 0xb9,
    0x4b, 0x35, 0xd1, 0x24, 0xe0, 0xda, 0x13, 0xc8, 0x16, 0x33, 0xc1, 0x37, 0x1a,
    0xdc, 0x7f, 0x2c, 0xba, 0x08, 0xf3, 0x98, 0x37, 0xd0, 0xad, 0xe8, 0x3b, 0xd3,
    0xe2, 0x3f, 0xcd, 0x09, 0xc6, 0xd4, 0xf9, 0xef, 0xa5, 0xfa, 0x7f, 0xa9, 0x27,
    0xec, 0xfa, 0x2a, 0xf8, 0x34, 0x01, 0x6b, 0xfa, 0x13, 0xb0, 0x02, 0x8f, 0x41,
    0x5a, 0x34, 0xaf, 0xc8, 0xb2, 0x4c, 0x2a, 0x50, 0x7d, 0xf8, 0x4b, 0x9d, 0xe0,
    0xff, 0xc5, 0x31, 0x3e, 0x11, 0x79, 0x4a, 0x1a, 0xde, 0xcc, 0x38, 0xf1, 0xb1,
    0xad, 0x93, 0x2f, 0xbb, 0x81, 0xfc, 0x94, 0xf3, 0xf2, 0x08, 0xd9, 0xed, 0x0c,
    0xea, 0x03, 0xb1, 0xd5, 0x2a, 0x1b, 0xe6, 0xcc, 0xe9, 0x2f, 0x3c, 0xe4, 0x2e,
    0x0c, 0xb0, 0x01, 0xb1, 0x2f, 0x08, 0xe0, 0xb1, 0x2e, 0xd3, 0x22, 0xc9, 0xf6,
    0xf5, 0xf8, 0x11, 0x25, 0x45, 0xfc, 0x5b, 0x6a, 0xd9, 0x7f, 0x1c, 0x33, 0xcb,
    0x6d, 0xf6, 0xea, 0x2d, 0xfd, 0xff, 0xe5, 0xda, 0x45, 0x13, 0x5d, 0x1e, 0x18,
    0xfc, 0x5f, 0x16, 0xf0, 0x7d, 0x01, 0x61, 0xfe, 0x33, 0xe3, 0x0c, 0x02, 0xe7,
    0xb6, 0xf4, 0xfe, 0xfe, 0xfc, 0x23, 0x0a, 0xfb, 0x36, 0xb3, 0x8d, 0x23, 0xaa,
    0x0b, 0x51, 0x3d, 0xc7, 0xf5, 0x2a, 0x3d, 0xa9, 0x04, 0x43, 0x59, 0x3e, 0xc0,
    0xbb, 0x36, 0x9c, 0xdb, 0xf0, 0x81, 0x1a, 0x8a, 0xb7, 0xb7, 0xcb, 0xba, 0x0f,
    0x8e, 0x21, 0xd5, 0xc0, 0xe5, 0xf0, 0x4a, 0x43, 0x28, 0x88, 0x5a, 0xaa, 0xfa,
    0x23, 0x9c, 0xcb, 0x88, 0x11, 0xc0, 0x27, 0xba, 0xfb, 0x2f, 0x8d, 0xe6, 0xf7,
    0xc0, 0x53, 0xce, 0x8a, 0x4b, 0xf9, 0xe7, 0x98, 0x0c, 0x45, 0x22, 0x44, 0x55,
    0xb0, 0x81, 0xdf, 0x56, 0x42, 0xd5, 0xd9, 0x26, 0xe5, 0x16, 0x0a, 0xb4, 0xf8,
    0xf6, 0x4a, 0xd4, 0x88, 0xba, 0x81, 0xfb, 0x4d, 0xf1, 0xd9, 0x38, 0x1a, 0xd0,
    0x0b, 0xe1, 0xcc, 0x39, 0x07, 0xeb, 0xe2, 0xca, 0x34, 0xad, 0xdc, 0x24, 0xe6,
    0xda, 0xd7, 0xd9, 0x09, 0x1c, 0x09, 0x1a, 0xcc, 0xfb, 0x06, 0x41, 0xd7, 0xdb,
    0x58, 0x34, 0xa7, 0x37, 0xad, 0x3a, 0x32, 0x22, 0x1c, 0x65, 0xdf, 0xd6, 0xa9,
    0x43, 0xf6, 0x22, 0xb6, 0xe2, 0xfa, 0xf7, 0xe6, 0xa9, 0x60, 0x0c, 0xcc, 0x4d,
    0xf8, 0xc1, 0x47, 0x7f, 0x03, 0xe8, 0x26, 0xf0, 0xaa, 0x35, 0xd8, 0xda, 0x26,
    0x8d, 0xf3, 0xff, 0xec, 0x55, 0x47, 0x65, 0xa4, 0x7f, 0x5f, 0x1f, 0x4c, 0x5f,
    0xd5, 0xfe, 0xec, 0xbd, 0xb1, 0x38, 0x01, 0x4c, 0xec, 0x21, 0x24, 0x24, 0x60,
    0x6e, 0x0e, 0xb8, 0x7f, 0xd6, 0x16, 0xd5, 0xa8, 0x4b, 0x33, 0x2b, 0x1e, 0xe0,
    0x03, 0xea, 0xe8, 0x56, 0x2a, 0xda, 0x20, 0xc3, 0x1d, 0xe3, 0x59, 0x59, 0xd9,
    0xca, 0x0e, 0x54, 0x0a, 0x97, 0x5e, 0xab, 0xd6, 0xa9, 0x47, 0xd2, 0xb2, 0x81,
    0xf0, 0x21, 0x2e, 0xe5, 0x98, 0xa9, 0x6c, 0x1c, 0x3e, 0x36, 0x2e, 0x32, 0xaa,
    0x25, 0xb4, 0xb9, 0xfe, 0x03, 0xe4, 0xbe, 0xbc, 0x28, 0x10, 0xfa, 0xe7, 0x25,
    0x9e, 0xc3, 0x19, 0x56, 0x14, 0x38, 0x4e, 0xd7, 0x16, 0x09, 0xe6, 0xc9, 0xaa,
    0xf6, 0xea, 0xd5, 0xd1, 0x07, 0x0b, 0x90, 0xed, 0xc6, 0xd3, 0x49, 0xf0, 0x24,
    0x04, 0x81, 0xf6, 0x27, 0x3a, 0x90, 0x13, 0xc2, 0xb4, 0xf2, 0xe0, 0xb5, 0x42,
    0xb1, 0xc4, 0x8d, 0xbf, 0xf8, 0xd5, 0xc5, 0xc6, 0xc2, 0x51, 0xb5, 0xf9, 0x06,
    0xfa, 0xca, 0x49, 0xac, 0xb5, 0x02, 0xf5, 0x29, 0x81, 0x95, 0x37, 0xc3, 0x8c,
    0x39, 0x47, 0xba, 0xb9, 0x81, 0xfc, 0xf8, 0x37, 0x1d, 0x2f, 0x29, 0xde, 0x23,
    0xe8, 0xeb, 0xe5, 0x4a, 0x5f, 0x54, 0x14, 0x70, 0x4e, 0xf9, 0x7f, 0x59, 0xc8,
    0x0e, 0x7a, 0xea, 0xe3, 0x30, 0x0b, 0x6b, 0x20, 0xe6, 0xc9, 0xfd, 0x6b, 0xdb,
    0xfe, 0xe9, 0x26, 0x14, 0xde, 0x66, 0x38, 0x66, 0x07, 0x34, 0xed, 0xf6, 0xf9,
    0x1e, 0xff, 0x22, 0xba, 0x96, 0xfa, 0xd8, 0xae, 0x04, 0x7f, 0x9c, 0xd4, 0x13,
    0xfe, 0x15, 0x3d, 0xd7, 0xf7, 0x43, 0xc8, 0x56, 0x63, 0xb8, 0x98, 0x65, 0x35,
    0x0b, 0x86, 0xfc, 0x15, 0xae, 0xf6, 0x2e, 0x4e, 0xd6, 0xcb, 0x13, 0x38, 0x59,
    0x34, 0xa4, 0x22, 0x8d, 0xe9, 0xc4, 0xfe, 0x11, 0xd3, 0x75, 0x60, 0xe1, 0xd5,
    0x62, 0x0f, 0xd1, 0x70, 0xe2, 0x5c, 0xb3, 0xed, 0x4e, 0x05, 0x3f, 0x05, 0x58,
    0x27, 0xcb, 0x2a, 0x1c, 0x6f, 0x54, 0xc9, 0xbc, 0x70, 0x43, 0xd4, 0x7f, 0x6d,
    0xfd, 0x03, 0xcb, 0xc0, 0x76, 0x3b, 0xfb, 0xc2, 0x09, 0xbb, 0xb8, 0x4f, 0xef,
    0x6f, 0x7f, 0x28, 0x01, 0xe5, 0x00, 0xde, 0x0d, 0x2e, 0xb9, 0x2e, 0x46, 0xe9,
    0xca, 0xae, 0x3e, 0x2e, 0xda, 0x1f, 0xa3, 0x4c, 0x5d, 0x27, 0xd3, 0xd0, 0xa3,
    0x33, 0xfd, 0x2d, 0x27, 0x1c, 0x3d, 0xd7, 0x67, 0x07, 0x43, 0xf7, 0xc0, 0x15,
    0xed, 0x3d, 0x7f, 0x70, 0x36, 0x05, 0x19, 0x53, 0x27, 0x66, 0xe9, 0xdf, 0x06,
    0x6e, 0x03, 0x10, 0x13, 0xe5, 0x41, 0x39, 0xf7, 0x10, 0xf8, 0x11, 0x27, 0x02,
    0xfb, 0x6d, 0xdb, 0xb8, 0x6f, 0x4e, 0x6b, 0x03, 0x1b, 0xde, 0x37, 0xee, 0xfd,
    0x3a, 0xcd, 0xbb, 0x1e, 0x46, 0xf2, 0xc1, 0xc7, 0xbb, 0x0b, 0xb1, 0x1d, 0xbc,
    0xc3, 0x36, 0xe5, 0xa4, 0xee, 0xec, 0xc5, 0x38, 0xc1, 0x11, 0x03, 0xe7, 0x36,
    0x81, 0x8b, 0x36, 0x11, 0xe2, 0xec, 0xd9, 0xa7, 0xa7, 0xc9, 0xeb, 0xe9, 0x00,
    0xe0, 0xe6, 0x20, 0x9c, 0x9b, 0xdd, 0x33, 0x04, 0x1f, 0xdc, 0xff, 0x4a, 0xac,
    0x56, 0x58, 0xf5, 0x22, 0x3d, 0xf7, 0xeb, 0x7f, 0x06, 0xfe, 0xa2, 0xbb, 0xe4,
    0x14, 0x4e, 0xa4, 0x86, 0x10, 0xe7, 0xbb, 0x02, 0x3e, 0x3b, 0xb4, 0x30, 0xa6,
    0x25, 0x5d, 0xe9, 0x9f, 0xdf, 0x42, 0xe8, 0xd6, 0xce, 0x24, 0x35, 0x3b, 0xf8,
    0x65, 0x30, 0x2b, 0x7f, 0x12, 0x3a, 0x1d, 0xb8, 0xf1, 0x70, 0x20, 0x2d, 0x0c,
    0xe6, 0x0b, 0x04, 0x0e, 0x12, 0xc9, 0xfa, 0xe7, 0xf9, 0x2b, 0x11, 0xc7, 0xc8,
    0xf5, 0x2d, 0x7b, 0xd8, 0x19, 0xc1, 0x5f, 0xdd, 0x31, 0xd1, 0x37, 0xed, 0x02,
    0x16, 0xca, 0xcd, 0xbf, 0xed, 0xfb, 0xed, 0x19, 0xb7, 0x1b, 0x30, 0x16, 0xaf,
    0x07, 0x29, 0xf9, 0x41, 0x99, 0x05, 0x12, 0x20, 0x0b, 0xa6, 0xb6, 0xe5, 0x3a,
    0xb4, 0xe3, 0x2d, 0x93, 0x08, 0x81, 0x29, 0xed, 0xc8, 0x1b, 0x22, 0x35, 0x63,
    0x8e, 0x15, 0x24, 0x47, 0xdf, 0x0c, 0xb6, 0xed, 0xb5, 0xef, 0xd4, 0xff, 0xe2,
    0xc5, 0xed, 0x0a, 0x6c, 0x81, 0x31, 0xc3, 0xaa, 0xdc, 0xad, 0x8c, 0x1d, 0xa9,
    0x22, 0xf9, 0xde, 0x8b, 0x38, 0x24, 0xba, 0xc7, 0xc9, 0xca, 0x17, 0x56, 0x09,
    0xd7, 0x45, 0xfc, 0x15, 0x22, 0x22, 0x26, 0xe7, 0x81, 0xb0, 0x1f, 0xab, 0xe7,
    0x45, 0xc8, 0xe3, 0xeb, 0xd3, 0xad, 0x43, 0x34, 0x1c, 0xfe, 0xc7, 0xb7, 0x44,
    0x22, 0xec, 0x8e, 0x9a, 0x11, 0xed, 0xb4, 0x37, 0x0e, 0x8a, 0xdc, 0xb4, 0x15,
    0xd6, 0xba, 0xa5, 0x4f, 0x2d, 0xe6, 0xfb, 0xff, 0xff, 0x04, 0x00, 0x00, 0x00,
    0x80, 0x00, 0x00, 0x00, 0x0d, 0x00, 0x00, 0x00, 0x5e, 0xfe, 0xff, 0xff, 0xe8,
    0xfe, 0xff, 0xff, 0xf6, 0x01, 0x00, 0x00, 0xb4, 0x01, 0x00, 0x00, 0x02, 0x00,
    0x00, 0x00, 0xe1, 0x01, 0x00, 0x00, 0x79, 0xff, 0xff, 0xff, 0x27, 0x02, 0x00,
    0x00, 0xe4, 0xfd, 0xff, 0xff, 0x58, 0x00, 0x00, 0x00, 0xd8, 0x01, 0x00, 0x00,
    0x60, 0xfe, 0xff, 0xff, 0x8e, 0xff, 0xff, 0xff, 0x07, 0xff, 0xff, 0xff, 0x01,
    0x01, 0x00, 0x00, 0x07, 0xff, 0xff, 0xff, 0xbf, 0xfd, 0xff, 0xff, 0x46, 0xfe,
    0xff, 0xff, 0xb1, 0xff, 0xff, 0xff, 0x84, 0x02, 0x00, 0x00, 0xbd, 0xfe, 0xff,
    0xff, 0x15, 0x02, 0x00, 0x00, 0x02, 0xfe, 0xff, 0xff, 0x15, 0xff, 0xff, 0xff,
    0xc7, 0xfe, 0xff, 0xff, 0x4d, 0x02, 0x00, 0x00, 0x2b, 0x00, 0x00, 0x00, 0xc7,
    0xfe, 0xff, 0xff, 0xb2, 0x01, 0x00, 0x00, 0x48, 0x01, 0x00, 0x00, 0xcf, 0x01,
    0x00, 0x00, 0x72, 0xfc, 0xff, 0xff, 0x04, 0x00, 0x00, 0x00, 0x00, 0x02, 0x00,
    0x00, 0x46, 0x0a, 0x8e, 0x67, 0xb6, 0x2d, 0x63, 0xdf, 0x4d, 0x3d, 0x27, 0xfd,
    0xd2, 0xf9, 0xc2, 0x2c, 0xef, 0xc0, 0x32, 0xe6, 0x08, 0xd4, 0x3d, 0x06, 0x97,
    0x91, 0x7f, 0x01, 0x04, 0x1c, 0x06, 0x71, 0xce, 0xad, 0xe5, 0x7f, 0x29, 0x21,
    0x22, 0xc6, 0x5f, 0x24, 0xd2, 0x49, 0x23, 0x41, 0xb6, 0x68, 0xaf, 0x40, 0xad,
    0x4f, 0x31, 0x0f, 0x18, 0xca, 0x65, 0xae, 0xe4, 0x69, 0x9c, 0x45, 0x28, 0xfa,
    0xe5, 0x4c, 0x39, 0x08, 0x99, 0xd5, 0xd0, 0xde, 0xd8, 0x7f, 0xa8, 0xff, 0x6c,
    0x1c, 0x73, 0xdb, 0xd5, 0x21, 0xee, 0x57, 0xf4, 0x28, 0x44, 0x52, 0x11, 0x41,
    0x03, 0x4e, 0x7c, 0xd1, 0xd8, 0xda, 0x96, 0x6b, 0xb5, 0xde, 0x90, 0xc5, 0x33,
    0x0a, 0x9a, 0x8f, 0x60, 0x9e, 0xba, 0x2f, 0x36, 0xce, 0x3a, 0xac, 0x3a, 0xc8,
    0x81, 0x00, 0x44, 0xd1, 0xa3, 0x30, 0x39, 0x5f, 0xbf, 0xf1, 0xe3, 0xed, 0x48,
    0x0e, 0xcf, 0x53, 0x21, 0xb5, 0x1c, 0xdf, 0x21, 0xe9, 0x01, 0x55, 0xa0, 0x32,
    0x0e, 0x26, 0x05, 0xdd, 0xc9, 0x39, 0xfb, 0xa0, 0x35, 0x81, 0xf8, 0x92, 0x4b,
    0x04, 0x82, 0x20, 0x17, 0x54, 0x50, 0xe2, 0x35, 0xdc, 0x22, 0x13, 0x2f, 0x40,
    0x15, 0x3b, 0xe6, 0x7f, 0xbf, 0x3e, 0xf9, 0x07, 0xb7, 0xd4, 0x03, 0xde, 0x64,
    0xd2, 0xfa, 0xaf, 0xd4, 0xeb, 0x06, 0xec, 0x9e, 0xf6, 0x41, 0x30, 0xd7, 0x24,
    0xb2, 0xe1, 0x6d, 0xa1, 0x58, 0xcd, 0xef, 0xcb, 0x3a, 0x3a, 0x8f, 0x43, 0x35,
    0xc3, 0x36, 0xf7, 0xed, 0xcb, 0x19, 0x81, 0x2b, 0xc8, 0xd7, 0xeb, 0xed, 0xb5,
    0x20, 0x07, 0xf0, 0x4c, 0x44, 0xc8, 0xac, 0xef, 0x2d, 0x33, 0xeb, 0x9f, 0xf7,
    0x25, 0xdf, 0xdf, 0x7f, 0xd6, 0xb2, 0xbe, 0xd3, 0x52, 0xf4, 0xef, 0x09, 0x61,
    0x14, 0x13, 0x11, 0x7c, 0xc5, 0x4e, 0x3b, 0xf5, 0x30, 0x05, 0xcc, 0x2a, 0x55,
    0x14, 0xca, 0xdd, 0x00, 0x1d, 0x47, 0x34, 0x94, 0xd6, 0x19, 0xec, 0xf2, 0xf7,
    0x4d, 0xe9, 0x0f, 0x3f, 0xc1, 0x69, 0xd8, 0x64, 0x6a, 0x12, 0x11, 0xe4, 0x7f,
    0xfe, 0xbe, 0xd1, 0x90, 0xc1, 0xd8, 0x8b, 0x0d, 0xf3, 0x62, 0xd9, 0xb2, 0x2f,
    0xfe, 0xc1, 0x36, 0xfc, 0x28, 0xd6, 0xd3, 0x23, 0x00, 0x56, 0x20, 0x18, 0xc7,
    0x64, 0x81, 0x3d, 0xa1, 0x93, 0xb0, 0xde, 0x3e, 0x3f, 0x30, 0xc6, 0xfc, 0x9c,
    0xcc, 0x3d, 0xce, 0xd5, 0x4f, 0xce, 0x46, 0xca, 0xba, 0xd7, 0x52, 0x17, 0xf7,
    0x6a, 0x57, 0xe9, 0x44, 0x5e, 0x54, 0xf6, 0x59, 0x60, 0x12, 0x81, 0x7c, 0xb2,
    0x8e, 0xdf, 0x1d, 0xe8, 0x48, 0xcd, 0xd5, 0x1d, 0xeb, 0xfb, 0x1f, 0x44, 0x22,
    0x1e, 0x0d, 0x18, 0xab, 0x1b, 0xe0, 0x04, 0xf5, 0x35, 0x3f, 0xf7, 0x2a, 0x0a,
    0x0c, 0x81, 0x29, 0x1b, 0xff, 0xdf, 0x20, 0x3e, 0x4c, 0xa2, 0xee, 0x1b, 0x33,
    0xb1, 0x78, 0x00, 0x48, 0xb8, 0x45, 0x68, 0xe8, 0x41, 0xeb, 0xe4, 0xca, 0xca,
    0xa7, 0x52, 0x30, 0xa9, 0xf6, 0x81, 0x26, 0xba, 0x42, 0x2b, 0xbf, 0x36, 0xd7,
    0xfc, 0x9e, 0xa6, 0x81, 0xc0, 0xcd, 0x8b, 0x9a, 0x9e, 0x94, 0xbd, 0x1f, 0xb2,
    0xd2, 0xf7, 0x33, 0xf5, 0x10, 0x9a, 0x34, 0x3f, 0x4f, 0xb2, 0x4d, 0x1b, 0x34,
    0x27, 0x38, 0xda, 0x4f, 0xe7, 0xd1, 0x32, 0x53, 0xb5, 0x72, 0x46, 0xc9, 0x13,
    0x00, 0x29, 0x96, 0x14, 0x49, 0xd3, 0xb7, 0xb1, 0xc5, 0xdb, 0x2e, 0xc4, 0x8c,
    0x74, 0x26, 0xa1, 0xcd, 0x5b, 0x47, 0xdf, 0x7f, 0xd9, 0x08, 0x90, 0xa9, 0x77,
    0x8c, 0x26, 0x5f, 0x99, 0xfc, 0x81, 0x1b, 0xaf, 0x0e, 0x60, 0x5b, 0xb0, 0x1e,
    0x36, 0x17, 0xb4, 0xcd, 0xa0, 0xb9, 0x17, 0xb9, 0x5e, 0x81, 0xe8, 0x26, 0x95,
    0xb1, 0x1f, 0x5f, 0x38, 0x2c, 0x6a, 0x7e, 0xfe, 0xff, 0xff, 0x04, 0x00, 0x00,
    0x00, 0x40, 0x00, 0x00, 0x00, 0xfd, 0x01, 0x00, 0x00, 0x7f, 0x00, 0x00, 0x00,
    0xc8, 0xfe, 0xff, 0xff, 0x20, 0xff, 0xff, 0xff, 0xf6, 0x00, 0x00, 0x00, 0x3e,
    0x01, 0x00, 0x00, 0xce, 0x00, 0x00, 0x00, 0x94, 0xfe, 0xff, 0xff, 0xd7, 0xfe,
    0xff, 0xff, 0xac, 0xfe, 0xff, 0xff, 0xd4, 0xfe, 0xff, 0xff, 0x1f, 0x00, 0x00,
    0x00, 0x99, 0x01, 0x00, 0x00, 0x61, 0x00, 0x00, 0x00, 0x24, 0x00, 0x00, 0x00,
    0x35, 0xff, 0xff, 0xff, 0xca, 0xfe, 0xff, 0xff, 0x04, 0x00, 0x00, 0x00, 0x80,
    0x00, 0x00, 0x00, 0xde, 0x99, 0x02, 0xdb, 0xd5, 0x01, 0xea, 0x81, 0xbc, 0xf7,
    0x11, 0xd3, 0x37, 0xab, 0xa1, 0xca, 0xe1, 0xc5, 0x55, 0xee, 0xcd, 0xf3, 0xcc,
    0x12, 0xfb, 0x50, 0x67, 0x45, 0x97, 0xf8, 0x7f, 0x19, 0x28, 0x0e, 0x84, 0x26,
    0x76, 0x7f, 0x2f, 0x92, 0xaf, 0x08, 0x03, 0x72, 0xec, 0xfa, 0x0d, 0x44, 0x1a,
    0x30, 0x07, 0xbf, 0x7f, 0x57, 0x49, 0xf6, 0xc1, 0xd1, 0xe7, 0x31, 0x4d, 0x32,
    0x0b, 0xcd, 0x86, 0xbe, 0x81, 0x2f, 0xfe, 0x46, 0xac, 0x24, 0xfb, 0x89, 0x00,
    0x37, 0xf0, 0x44, 0xd4, 0xe0, 0x7e, 0x14, 0xf5, 0xba, 0x58, 0x52, 0x7f, 0xea,
    0xe2, 0xca, 0xf6, 0xb9, 0x5a, 0xeb, 0xec, 0xa7, 0x0c, 0xca, 0xd2, 0x2a, 0x73,
    0x56, 0xe5, 0xc5, 0xd0, 0x20, 0x97, 0x3a, 0x7f, 0xf6, 0x66, 0x0f, 0xf2, 0xd1,
    0xb1, 0x31, 0x28, 0x81, 0x54, 0x9a, 0xad, 0xd8, 0xf9, 0x0b, 0xc9, 0x68, 0xd7,
    0xd2, 0x56, 0xff, 0xff, 0xff, 0x04, 0x00, 0x00, 0x00, 0x20, 0x00, 0x00, 0x00,
    0x8b, 0xff, 0xff, 0xff, 0x84, 0xff, 0xff, 0xff, 0xe6, 0x00, 0x00, 0x00, 0x24,
    0x01, 0x00, 0x00, 0x74, 0xff, 0xff, 0xff, 0x53, 0x01, 0x00, 0x00, 0xa5, 0x00,
    0x00, 0x00, 0x18, 0x00, 0x00, 0x00, 0x82, 0xff, 0xff, 0xff, 0x04, 0x00, 0x00,
    0x00, 0x20, 0x00, 0x00, 0x00, 0x7b, 0xcd, 0xd1, 0xf2, 0x4f, 0x81, 0xc8, 0xd8,
    0x8d, 0xe7, 0x44, 0x4c, 0xf4, 0x37, 0x7f, 0x35, 0x35, 0xcc, 0x1f, 0xf6, 0xb4,
    0x56, 0x24, 0x7f, 0x3b, 0xb0, 0x7b, 0x36, 0x23, 0x7f, 0x5d, 0xcc, 0xae, 0xff,
    0xff, 0xff, 0x04, 0x00, 0x00, 0x00, 0x10, 0x00, 0x00, 0x00, 0xe6, 0xff, 0xff,
    0xff, 0xff, 0xff, 0xff, 0xff, 0x01, 0x00, 0x00, 0x00, 0x03, 0x00, 0x00, 0x00,
    0xca, 0xff, 0xff, 0xff, 0x04, 0x00, 0x00, 0x00, 0x08, 0x00, 0x00, 0x00, 0xda,
    0x7f, 0xce, 0x31, 0xad, 0x3d, 0x7f, 0x1b, 0xde, 0xff, 0xff, 0xff, 0x04, 0x00,
    0x00, 0x00, 0x08, 0x00, 0x00, 0x00, 0xff, 0xff, 0xff, 0xff, 0x00, 0x00, 0x00,
    0x00, 0xf2, 0xff, 0xff, 0xff, 0x04, 0x00, 0x00, 0x00, 0x02, 0x00, 0x00, 0x00,
    0x9c, 0x81, 0x06, 0x00, 0x08, 0x00, 0x04, 0x00, 0x06, 0x00, 0x00, 0x00, 0x04,
    0x00, 0x00, 0x00, 0x04, 0x00, 0x00, 0x00, 0xba, 0x05, 0x00, 0x00, 0x1c, 0xff,
    0xff, 0xff, 0x20, 0xff, 0xff, 0xff, 0x0f, 0x00, 0x00, 0x00, 0x4d, 0x4c, 0x49,
    0x52, 0x20, 0x43, 0x6f, 0x6e, 0x76, 0x65, 0x72, 0x74, 0x65, 0x64, 0x2e, 0x00,
    0x01, 0x00, 0x00, 0x00, 0x14, 0x00, 0x00, 0x00, 0x00, 0x00, 0x0e, 0x00, 0x18,
    0x00, 0x14, 0x00, 0x10, 0x00, 0x0c, 0x00, 0x08, 0x00, 0x04, 0x00, 0x0e, 0x00,
    0x00, 0x00, 0x14, 0x00, 0x00, 0x00, 0x1c, 0x00, 0x00, 0x00, 0x54, 0x02, 0x00,
    0x00, 0x58, 0x02, 0x00, 0x00, 0x5c, 0x02, 0x00, 0x00, 0x04, 0x00, 0x00, 0x00,
    0x6d, 0x61, 0x69, 0x6e, 0x00, 0x00, 0x00, 0x00, 0x0a, 0x00, 0x00, 0x00, 0x1c,
    0x02, 0x00, 0x00, 0xcc, 0x01, 0x00, 0x00, 0x80, 0x01, 0x00, 0x00, 0x44, 0x01,
    0x00, 0x00, 0x08, 0x01, 0x00, 0x00, 0xcc, 0x00, 0x00, 0x00, 0x90, 0x00, 0x00,
    0x00, 0x54, 0x00, 0x00, 0x00, 0x30, 0x00, 0x00, 0x00, 0x04, 0x00, 0x00, 0x00,
    0x16, 0xfe, 0xff, 0xff, 0x08, 0x00, 0x00, 0x00, 0x0c, 0x00, 0x00, 0x00, 0x01,
    0x00, 0x00, 0x00, 0x18, 0x00, 0x00, 0x00, 0x01, 0x00, 0x00, 0x00, 0x17, 0x00,
    0x00, 0x00, 0x00, 0x00, 0x0a, 0x00, 0x10, 0x00, 0x0c, 0x00, 0x08, 0x00, 0x04,
    0x00, 0x0a, 0x00, 0x00, 0x00, 0x0c, 0x00, 0x00, 0x00, 0x10, 0x00, 0x00, 0x00,
    0x02, 0x00, 0x00, 0x00, 0x01, 0x00, 0x00, 0x00, 0x17, 0x00, 0x00, 0x00, 0x01,
    0x00, 0x00, 0x00, 0x16, 0x00, 0x00, 0x00, 0xae, 0xfe, 0xff, 0xff, 0x18, 0x00,
    0x00, 0x00, 0x00, 0x00, 0x00, 0x08, 0x14, 0x00, 0x00, 0x00, 0x18, 0x00, 0x00,
    0x00, 0x01, 0x00, 0x00, 0x00, 0x04, 0x00, 0x04, 0x00, 0x04, 0x00, 0x00, 0x00,
    0x01, 0x00, 0x00, 0x00, 0x16, 0x00, 0x00, 0x00, 0x03, 0x00, 0x00, 0x00, 0x15,
    0x00, 0x00, 0x00, 0x02, 0x00, 0x00, 0x00, 0x01, 0x00, 0x00, 0x00, 0xe6, 0xfe,
    0xff, 0xff, 0x14, 0x00, 0x00, 0x00, 0x00, 0x00, 0x00, 0x08, 0x14, 0x00, 0x00,
    0x00, 0x18, 0x00, 0x00, 0x00, 0x01, 0x00, 0x00, 0x00, 0xd6, 0xfe, 0xff, 0xff,
    0x00, 0x00, 0x00, 0x01, 0x01, 0x00, 0x00, 0x00, 0x15, 0x00, 0x00, 0x00, 0x03,
    0x00, 0x00, 0x00, 0x14, 0x00, 0x00, 0x00, 0x04, 0x00, 0x00, 0x00, 0x03, 0x00,
    0x00, 0x00, 0x1e, 0xff, 0xff, 0xff, 0x14, 0x00, 0x00, 0x00, 0x00, 0x00, 0x00,
    0x08, 0x14, 0x00, 0x00, 0x00, 0x18, 0x00, 0x00, 0x00, 0x01, 0x00, 0x00, 0x00,
    0x0e, 0xff, 0xff, 0xff, 0x00, 0x00, 0x00, 0x01, 0x01, 0x00, 0x00, 0x00, 0x14,
    0x00, 0x00, 0x00, 0x03, 0x00, 0x00, 0x00, 0x13, 0x00, 0x00, 0x00, 0x06, 0x00,
    0x00, 0x00, 0x05, 0x00, 0x00, 0x00, 0x56, 0xff, 0xff, 0xff, 0x14, 0x00, 0x00,
    0x00, 0x00, 0x00, 0x00, 0x08, 0x14, 0x00, 0x00, 0x00, 0x18, 0x00, 0x00, 0x00,
    0x01, 0x00, 0x00, 0x00, 0x46, 0xff, 0xff, 0xff, 0x00, 0x00, 0x00, 0x01, 0x01,
    0x00, 0x00, 0x00, 0x13, 0x00, 0x00, 0x00, 0x03, 0x00, 0x00, 0x00, 0x12, 0x00,
    0x00, 0x00, 0x08, 0x00, 0x00, 0x00, 0x07, 0x00, 0x00, 0x00, 0x8e, 0xff, 0xff,
    0xff, 0x14, 0x00, 0x00, 0x00, 0x00, 0x00, 0x00, 0x08, 0x14, 0x00, 0x00, 0x00,
    0x18, 0x00, 0x00, 0x00, 0x01, 0x00, 0x00, 0x00, 0x7e, 0xff, 0xff, 0xff, 0x00,
    0x00, 0x00, 0x01, 0x01, 0x00, 0x00, 0x00, 0x12, 0x00, 0x00, 0x00, 0x03, 0x00,
    0x00, 0x00, 0x11, 0x00, 0x00, 0x00, 0x0a, 0x00, 0x00, 0x00, 0x09, 0x00, 0x00,
    0x00, 0xc6, 0xff, 0xff, 0xff, 0x14, 0x00, 0x00, 0x00, 0x00, 0x00, 0x00, 0x08,
    0x14, 0x00, 0x00, 0x00, 0x18, 0x00, 0x00, 0x00, 0x01, 0x00, 0x00, 0x00, 0xb6,
    0xff, 0xff, 0xff, 0x00, 0x00, 0x00, 0x01, 0x01, 0x00, 0x00, 0x00, 0x11, 0x00,
    0x00, 0x00, 0x03, 0x00, 0x00, 0x00, 0x10, 0x00, 0x00, 0x00, 0x0c, 0x00, 0x00,
    0x00, 0x0b, 0x00, 0x00, 0x00, 0x00, 0x00, 0x0e, 0x00, 0x1a, 0x00, 0x14, 0x00,
    0x10, 0x00, 0x0c, 0x00, 0x0b, 0x00, 0x04, 0x00, 0x0e, 0x00, 0x00, 0x00, 0x1c,
    0x00, 0x00, 0x00, 0x00, 0x00, 0x00, 0x08, 0x1c, 0x00, 0x00, 0x00, 0x20, 0x00,
    0x00, 0x00, 0x01, 0x00, 0x00, 0x00, 0x00, 0x00, 0x06, 0x00, 0x08, 0x00, 0x07,
    0x00, 0x06, 0x00, 0x00, 0x00, 0x00, 0x00, 0x00, 0x01, 0x01, 0x00, 0x00, 0x00,
    0x10, 0x00, 0x00, 0x00, 0x03, 0x00, 0x00, 0x00, 0x0f, 0x00, 0x00, 0x00, 0x0e,
    0x00, 0x00, 0x00, 0x0d, 0x00, 0x00, 0x00, 0x00, 0x00, 0x0a, 0x00, 0x0c, 0x00,
    0x00, 0x00, 0x08, 0x00, 0x04, 0x00, 0x0a, 0x00, 0x00, 0x00, 0x08, 0x00, 0x00,
    0x00, 0x0c, 0x00, 0x00, 0x00, 0x01, 0x00, 0x00, 0x00, 0x0f, 0x00, 0x00, 0x00,
    0x01, 0x00, 0x00, 0x00, 0x00, 0x00, 0x00, 0x00, 0x01, 0x00, 0x00, 0x00, 0x18,
    0x00, 0x00, 0x00, 0x01, 0x00, 0x00, 0x00, 0x00, 0x00, 0x00, 0x00, 0x19, 0x00,
    0x00, 0x00, 0x48, 0x15, 0x00, 0x00, 0xd0, 0x14, 0x00, 0x00, 0x54, 0x14, 0x00,
    0x00, 0xe8, 0x13, 0x00, 0x00, 0x74, 0x13, 0x00, 0x00, 0xf0, 0x12, 0x00, 0x00,
    0x64, 0x12, 0x00, 0x00, 0xb0, 0x11, 0x00, 0x00, 0xf4, 0x10, 0x00, 0x00, 0xe0,
    0x0f, 0x00, 0x00, 0xc4, 0x0e, 0x00, 0x00, 0xf0, 0x0c, 0x00, 0x00, 0x14, 0x0b,
    0x00, 0x00, 0xc8, 0x08, 0x00, 0x00, 0x74, 0x06, 0x00, 0x00, 0x00, 0x06, 0x00,
    0x00, 0x4c, 0x05, 0x00, 0x00, 0x90, 0x04, 0x00, 0x00, 0xd4, 0x03, 0x00, 0x00,
    0x18, 0x03, 0x00, 0x00, 0x5c, 0x02, 0x00, 0x00, 0xa0, 0x01, 0x00, 0x00, 0x04,
    0x01, 0x00, 0x00, 0x80, 0x00, 0x00, 0x00, 0x04, 0x00, 0x00, 0x00, 0x32, 0xeb,
    0xff, 0xff, 0x00, 0x00, 0x00, 0x01, 0x18, 0x00, 0x00, 0x00, 0x20, 0x00, 0x00,
    0x00, 0x3c, 0x00, 0x00, 0x00, 0x19, 0x00, 0x00, 0x00, 0x00, 0x00, 0x00, 0x03,
    0x50, 0x00, 0x00, 0x00, 0x02, 0x00, 0x00, 0x00, 0xff, 0xff, 0xff, 0xff, 0x01,
    0x00, 0x00, 0x00, 0x1c, 0xeb, 0xff, 0xff, 0x08, 0x00, 0x00, 0x00, 0x10, 0x00,
    0x00, 0x00, 0x01, 0x00, 0x00, 0x00, 0x00, 0x00, 0x00, 0x00, 0x00, 0x00, 0x00,
    0x00, 0x01, 0x00, 0x00, 0x00, 0x00, 0x00, 0x80, 0x3b, 0x1b, 0x00, 0x00, 0x00,
    0x53, 0x74, 0x61, 0x74, 0x65, 0x66, 0x75, 0x6c, 0x50, 0x61, 0x72, 0x74, 0x69,
    0x74, 0x69, 0x6f, 0x6e, 0x65, 0x64, 0x43, 0x61, 0x6c, 0x6c, 0x5f, 0x31, 0x3a,
    0x30, 0x00, 0x02, 0x00, 0x00, 0x00, 0x01, 0x00, 0x00, 0x00, 0x01, 0x00, 0x00,
    0x00, 0xaa, 0xeb, 0xff, 0xff, 0x00, 0x00, 0x00, 0x01, 0x18, 0x00, 0x00, 0x00,
    0x20, 0x00, 0x00, 0x00, 0x40, 0x00, 0x00, 0x00, 0x18, 0x00, 0x00, 0x00, 0x00,
    0x00, 0x00, 0x09, 0x58, 0x00, 0x00, 0x00, 0x02, 0x00, 0x00, 0x00, 0xff, 0xff,
    0xff, 0xff, 0x01, 0x00, 0x00, 0x00, 0x94, 0xeb, 0xff, 0xff, 0x08, 0x00, 0x00,
    0x00, 0x14, 0x00, 0x00, 0x00, 0x01, 0x00, 0x00, 0x00, 0x80, 0xff, 0xff, 0xff,
    0xff, 0xff, 0xff, 0xff, 0x00, 0x00, 0x00, 0x00, 0x01, 0x00, 0x00, 0x00, 0x00,
    0x00, 0x80, 0x3b, 0x1c, 0x00, 0x00, 0x00, 0x53, 0x74, 0x61, 0x74, 0x65, 0x66,
    0x75, 0x6c, 0x50, 0x61, 0x72, 0x74, 0x69, 0x74, 0x69, 0x6f, 0x6e, 0x65, 0x64,
    0x43, 0x61, 0x6c, 0x6c, 0x5f, 0x31, 0x3a, 0x30, 0x31, 0x00, 0x00, 0x00, 0x00,
    0x02, 0x00, 0x00, 0x00, 0x01, 0x00, 0x00, 0x00, 0x01, 0x00, 0x00, 0x00, 0x2a,
    0xec, 0xff, 0xff, 0x00, 0x00, 0x00, 0x01, 0x18, 0x00, 0x00, 0x00, 0x20, 0x00,
    0x00, 0x00, 0x3c, 0x00, 0x00, 0x00, 0x17, 0x00, 0x00, 0x00, 0x00, 0x00, 0x00,
    0x09, 0x70, 0x00, 0x00, 0x00, 0x02, 0x00, 0x00, 0x00, 0xff, 0xff, 0xff, 0xff,
    0x01, 0x00, 0x00, 0x00, 0x14, 0xec, 0xff, 0xff, 0x08, 0x00, 0x00, 0x00, 0x10,
    0x00, 0x00, 0x00, 0x01, 0x00, 0x00, 0x00, 0x78, 0x00, 0x00, 0x00, 0x00, 0x00,
    0x00, 0x00, 0x01, 0x00, 0x00, 0x00, 0x3b, 0x6f, 0x02, 0x3f, 0x38, 0x00, 0x00,
    0x00, 0x73, 0x65, 0x71, 0x75, 0x65, 0x6e, 0x74, 0x69, 0x61, 0x6c, 0x5f, 0x31,
    0x2f, 0x64, 0x65, 0x6e, 0x73, 0x65, 0x5f, 0x36, 0x5f, 0x31, 0x2f, 0x4d, 0x61,
    0x74, 0x4d, 0x75, 0x6c, 0x3b, 0x73, 0x65, 0x71, 0x75, 0x65, 0x6e, 0x74, 0x69,
    0x61, 0x6c, 0x5f, 0x31, 0x2f, 0x64, 0x65, 0x6e, 0x73, 0x65, 0x5f, 0x36, 0x5f,
    0x31, 0x2f, 0x41, 0x64, 0x64, 0x00, 0x00, 0x00, 0x00, 0x02, 0x00, 0x00, 0x00,
    0x01, 0x00, 0x00, 0x00, 0x01, 0x00, 0x00, 0x00, 0xc2, 0xec, 0xff, 0xff, 0x00,
    0x00, 0x00, 0x01, 0x18, 0x00, 0x00, 0x00, 0x20, 0x00, 0x00, 0x00, 0x3c, 0x00,
    0x00, 0x00, 0x16, 0x00, 0x00, 0x00, 0x00, 0x00, 0x00, 0x09, 0x90, 0x00, 0x00,
    0x00, 0x02, 0x00, 0x00, 0x00, 0xff, 0xff, 0xff, 0xff, 0x02, 0x00, 0x00, 0x00,
    0xac, 0xec, 0xff, 0xff, 0x08, 0x00, 0x00, 0x00, 0x10, 0x00, 0x00, 0x00, 0x01,
    0x00, 0x00, 0x00, 0x80, 0xff, 0xff, 0xff, 0xff, 0xff, 0xff, 0xff, 0x01, 0x00,
    0x00, 0x00, 0x12, 0x3b, 0x8f, 0x3e, 0x58, 0x00, 0x00, 0x00, 0x73, 0x65, 0x71,
    0x75, 0x65, 0x6e, 0x74, 0x69, 0x61, 0x6c, 0x5f, 0x31, 0x2f, 0x64, 0x65, 0x6e,
    0x73, 0x65, 0x5f, 0x35, 0x5f, 0x31, 0x2f, 0x4d, 0x61, 0x74, 0x4d, 0x75, 0x6c,
    0x3b, 0x73, 0x65, 0x71, 0x75, 0x65, 0x6e, 0x74, 0x69, 0x61, 0x6c, 0x5f, 0x31,
    0x2f, 0x64, 0x65, 0x6e, 0x73, 0x65, 0x5f, 0x35, 0x5f, 0x31, 0x2f, 0x52, 0x65,
    0x6c, 0x75, 0x3b, 0x73, 0x65, 0x71, 0x75, 0x65, 0x6e, 0x74, 0x69, 0x61, 0x6c,
    0x5f, 0x31, 0x2f, 0x64, 0x65, 0x6e, 0x73, 0x65, 0x5f, 0x35, 0x5f, 0x31, 0x2f,
    0x42, 0x69, 0x61, 0x73, 0x41, 0x64, 0x64, 0x00, 0x00, 0x00, 0x00, 0x02, 0x00,
    0x00, 0x00, 0x01, 0x00, 0x00, 0x00, 0x02, 0x00, 0x00, 0x00, 0x7a, 0xed, 0xff,
    0xff, 0x00, 0x00, 0x00, 0x01, 0x18, 0x00, 0x00, 0x00, 0x20, 0x00, 0x00, 0x00,
    0x3c, 0x00, 0x00, 0x00, 0x15, 0x00, 0x00, 0x00, 0x00, 0x00, 0x00, 0x09, 0x90,
    0x00, 0x00, 0x00, 0x02, 0x00, 0x00, 0x00, 0xff, 0xff, 0xff, 0xff, 0x04, 0x00,
    0x00, 0x00, 0x64, 0xed, 0xff, 0xff, 0x08, 0x00, 0x00, 0x00, 0x10, 0x00, 0x00,
    0x00, 0x01, 0x00, 0x00, 0x00, 0x80, 0xff, 0xff, 0xff, 0xff, 0xff, 0xff, 0xff,
    0x01, 0x00, 0x00, 0x00, 0x8e, 0x61, 0xa8, 0x3e, 0x58, 0x00, 0x00, 0x00, 0x73,
    0x65, 0x71, 0x75, 0x65, 0x6e, 0x74, 0x69, 0x61, 0x6c, 0x5f, 0x31, 0x2f, 0x64,
    0x65, 0x6e, 0x73, 0x65, 0x5f, 0x34, 0x5f, 0x31, 0x2f, 0x4d, 0x61, 0x74, 0x4d,
    0x75, 0x6c, 0x3b, 0x73, 0x65, 0x71, 0x75, 0x65, 0x6e, 0x74, 0x69, 0x61, 0x6c,
    0x5f, 0x31, 0x2f, 0x64, 0x65, 0x6e, 0x73, 0x65, 0x5f, 0x34, 0x5f, 0x31, 0x2f,
    0x52, 0x65, 0x6c, 0x75, 0x3b, 0x73, 0x65, 0x71, 0x75, 0x65, 0x6e, 0x74, 0x69,
    0x61, 0x6c, 0x5f, 0x31, 0x2f, 0x64, 0x65, 0x6e, 0x73, 0x65, 0x5f, 0x34, 0x5f,
    0x31, 0x2f, 0x42, 0x69, 0x61, 0x73, 0x41, 0x64, 0x64, 0x00, 0x00, 0x00, 0x00,
    0x02, 0x00, 0x00, 0x00, 0x01, 0x00, 0x00, 0x00, 0x04, 0x00, 0x00, 0x00, 0x32,
    0xee, 0xff, 0xff, 0x00, 0x00, 0x00, 0x01, 0x18, 0x00, 0x00, 0x00, 0x20, 0x00,
    0x00, 0x00, 0x3c, 0x00, 0x00, 0x00, 0x14, 0x00, 0x00, 0x00, 0x00, 0x00, 0x00,
    0x09, 0x90, 0x00, 0x00, 0x00, 0x02, 0x00, 0x00, 0x00, 0xff, 0xff, 0xff, 0xff,
    0x08, 0x00, 0x00, 0x00, 0x1c, 0xee, 0xff, 0xff, 0x08, 0x00, 0x00, 0x00, 0x10,
    0x00, 0x00, 0x00, 0x01, 0x00, 0x00, 0x00, 0x80, 0xff, 0xff, 0xff, 0xff, 0xff,
    0xff, 0xff, 0x01, 0x00, 0x00, 0x00, 0x93, 0xaf, 0x87, 0x3e, 0x58, 0x00, 0x00,
    0x00, 0x73, 0x65, 0x71, 0x75, 0x65, 0x6e, 0x74, 0x69, 0x61, 0x6c, 0x5f, 0x31,
    0x2f, 0x64, 0x65, 0x6e, 0x73, 0x65, 0x5f, 0x33, 0x5f, 0x31, 0x2f, 0x4d, 0x61,
    0x74, 0x4d, 0x75, 0x6c, 0x3b, 0x73, 0x65, 0x71, 0x75, 0x65, 0x6e, 0x74, 0x69,
    0x61, 0x6c, 0x5f, 0x31, 0x2f, 0x64, 0x65, 0x6e, 0x73, 0x65, 0x5f, 0x33, 0x5f,
    0x31, 0x2f, 0x52, 0x65, 0x6c, 0x75, 0x3b, 0x73, 0x65, 0x71, 0x75, 0x65, 0x6e,
    0x74, 0x69, 0x61, 0x6c, 0x5f, 0x31, 0x2f, 0x64, 0x65, 0x6e, 0x73, 0x65, 0x5f,
    0x33, 0x5f, 0x31, 0x2f, 0x42, 0x69, 0x61, 0x73, 0x41, 0x64, 0x64, 0x00, 0x00,
    0x00, 0x00, 0x02, 0x00, 0x00, 0x00, 0x01, 0x00, 0x00, 0x00, 0x08, 0x00, 0x00,
    0x00, 0xea, 0xee, 0xff, 0xff, 0x00, 0x00, 0x00, 0x01, 0x18, 0x00, 0x00, 0x00,
    0x20, 0x00, 0x00, 0x00, 0x3c, 0x00, 0x00, 0x00, 0x13, 0x00, 0x00, 0x00, 0x00,
    0x00, 0x00, 0x09, 0x90, 0x00, 0x00, 0x00, 0x02, 0x00, 0x00, 0x00, 0xff, 0xff,
    0xff, 0xff, 0x10, 0x00, 0x00, 0x00, 0xd4, 0xee, 0xff, 0xff, 0x08, 0x00, 0x00,
    0x00, 0x10, 0x00, 0x00, 0x00, 0x01, 0x00, 0x00, 0x00, 0x80, 0xff, 0xff, 0xff,
    0xff, 0xff, 0xff, 0xff, 0x01, 0x00, 0x00, 0x00, 0xa1, 0xc3, 0xb1, 0x3e, 0x58,
    0x00, 0x00, 0x00, 0x73, 0x65, 0x71, 0x75, 0x65, 0x6e, 0x74, 0x69, 0x61, 0x6c,
    0x5f, 0x31, 0x2f, 0x64, 0x65, 0x6e, 0x73, 0x65, 0x5f, 0x32, 0x5f, 0x31, 0x2f,
    0x4d, 0x61, 0x74, 0x4d, 0x75, 0x6c, 0x3b, 0x73, 0x65, 0x71, 0x75, 0x65, 0x6e,
    0x74, 0x69, 0x61, 0x6c, 0x5f, 0x31, 0x2f, 0x64, 0x65, 0x6e, 0x73, 0x65, 0x5f,
    0x32, 0x5f, 0x31, 0x2f, 0x52, 0x65, 0x6c, 0x75, 0x3b, 0x73, 0x65, 0x71, 0x75,
    0x65, 0x6e, 0x74, 0x69, 0x61, 0x6c, 0x5f, 0x31, 0x2f, 0x64, 0x65, 0x6e, 0x73,
    0x65, 0x5f, 0x32, 0x5f, 0x31, 0x2f, 0x42, 0x69, 0x61, 0x73, 0x41, 0x64, 0x64,
    0x00, 0x00, 0x00, 0x00, 0x02, 0x00, 0x00, 0x00, 0x01, 0x00, 0x00, 0x00, 0x10,
    0x00, 0x00, 0x00, 0xa2, 0xef, 0xff, 0xff, 0x00, 0x00, 0x00, 0x01, 0x18, 0x00,
    0x00, 0x00, 0x20, 0x00, 0x00, 0x00, 0x3c, 0x00, 0x00, 0x00, 0x12, 0x00, 0x00,
    0x00, 0x00, 0x00, 0x00, 0x09, 0x90, 0x00, 0x00, 0x00, 0x02, 0x00, 0x00, 0x00,
    0xff, 0xff, 0xff, 0xff, 0x20, 0x00, 0x00, 0x00, 0x8c, 0xef, 0xff, 0xff, 0x08,
    0x00, 0x00, 0x00, 0x10, 0x00, 0x00, 0x00, 0x01, 0x00, 0x00, 0x00, 0x80, 0xff,
    0xff, 0xff, 0xff, 0xff, 0xff, 0xff, 0x01, 0x00, 0x00, 0x00, 0x12, 0x06, 0x82,
    0x3e, 0x58, 0x00, 0x00, 0x00, 0x73, 0x65, 0x71, 0x75, 0x65, 0x6e, 0x74, 0x69,
    0x61, 0x6c, 0x5f, 0x31, 0x2f, 0x64, 0x65, 0x6e, 0x73, 0x65, 0x5f, 0x31, 0x5f,
    0x32, 0x2f, 0x4d, 0x61, 0x74, 0x4d, 0x75, 0x6c, 0x3b, 0x73, 0x65, 0x71, 0x75,
    0x65, 0x6e, 0x74, 0x69, 0x61, 0x6c, 0x5f, 0x31, 0x2f, 0x64, 0x65, 0x6e, 0x73,
    0x65, 0x5f, 0x31, 0x5f, 0x32, 0x2f, 0x52, 0x65, 0x6c, 0x75, 0x3b, 0x73, 0x65,
    0x71, 0x75, 0x65, 0x6e, 0x74, 0x69, 0x61, 0x6c, 0x5f, 0x31, 0x2f, 0x64, 0x65,
    0x6e, 0x73, 0x65, 0x5f, 0x31, 0x5f, 0x32, 0x2f, 0x42, 0x69, 0x61, 0x73, 0x41,
    0x64, 0x64, 0x00, 0x00, 0x00, 0x00, 0x02, 0x00, 0x00, 0x00, 0x01, 0x00, 0x00,
    0x00, 0x20, 0x00, 0x00, 0x00, 0x5a, 0xf0, 0xff, 0xff, 0x00, 0x00, 0x00, 0x01,
    0x18, 0x00, 0x00, 0x00, 0x20, 0x00, 0x00, 0x00, 0x3c, 0x00, 0x00, 0x00, 0x11,
    0x00, 0x00, 0x00, 0x00, 0x00, 0x00, 0x09, 0x88, 0x00, 0x00, 0x00, 0x02, 0x00,
    0x00, 0x00, 0xff, 0xff, 0xff, 0xff, 0x2a, 0x00, 0x00, 0x00, 0x44, 0xf0, 0xff,
    0xff, 0x08, 0x00, 0x00, 0x00, 0x10, 0x00, 0x00, 0x00, 0x01, 0x00, 0x00, 0x00,
    0x80, 0xff, 0xff, 0xff, 0xff, 0xff, 0xff, 0xff, 0x01, 0x00, 0x00, 0x00, 0x76,
    0x3c, 0x16, 0x3e, 0x52, 0x00, 0x00, 0x00, 0x73, 0x65, 0x71, 0x75, 0x65, 0x6e,
    0x74, 0x69, 0x61, 0x6c, 0x5f, 0x31, 0x2f, 0x64, 0x65, 0x6e, 0x73, 0x65, 0x5f,
    0x31, 0x2f, 0x4d, 0x61, 0x74, 0x4d, 0x75, 0x6c, 0x3b, 0x73, 0x65, 0x71, 0x75,
    0x65, 0x6e, 0x74, 0x69, 0x61, 0x6c, 0x5f, 0x31, 0x2f, 0x64, 0x65, 0x6e, 0x73,
    0x65, 0x5f, 0x31, 0x2f, 0x52, 0x65, 0x6c, 0x75, 0x3b, 0x73, 0x65, 0x71, 0x75,
    0x65, 0x6e, 0x74, 0x69, 0x61, 0x6c, 0x5f, 0x31, 0x2f, 0x64, 0x65, 0x6e, 0x73,
    0x65, 0x5f, 0x31, 0x2f, 0x42, 0x69, 0x61, 0x73, 0x41, 0x64, 0x64, 0x00, 0x00,
    0x02, 0x00, 0x00, 0x00, 0x01, 0x00, 0x00, 0x00, 0x2a, 0x00, 0x00, 0x00, 0x0a,
    0xf1, 0xff, 0xff, 0x00, 0x00, 0x00, 0x01, 0x18, 0x00, 0x00, 0x00, 0x20, 0x00,
    0x00, 0x00, 0x40, 0x00, 0x00, 0x00, 0x10, 0x00, 0x00, 0x00, 0x00, 0x00, 0x00,
    0x09, 0x48, 0x00, 0x00, 0x00, 0x02, 0x00, 0x00, 0x00, 0xff, 0xff, 0xff, 0xff,
    0x2a, 0x00, 0x00, 0x00, 0xf4, 0xf0, 0xff, 0xff, 0x08, 0x00, 0x00, 0x00, 0x14,
    0x00, 0x00, 0x00, 0x01, 0x00, 0x00, 0x00, 0xd5, 0xff, 0xff, 0xff, 0xff, 0xff,
    0xff, 0xff, 0x00, 0x00, 0x00, 0x00, 0x01, 0x00, 0x00, 0x00, 0x78, 0xd5, 0xf8,
    0x3e, 0x0c, 0x00, 0x00, 0x00, 0x74, 0x66, 0x6c, 0x2e, 0x71, 0x75, 0x61, 0x6e,
    0x74, 0x69, 0x7a, 0x65, 0x00, 0x00, 0x00, 0x00, 0x02, 0x00, 0x00, 0x00, 0x01,
    0x00, 0x00, 0x00, 0x2a, 0x00, 0x00, 0x00, 0xee, 0xf1, 0xff, 0xff, 0x00, 0x00,
    0x00, 0x01, 0x14, 0x00, 0x00, 0x00, 0x20, 0x02, 0x00, 0x00, 0x0f, 0x00, 0x00,
    0x00, 0x00, 0x00, 0x00, 0x09, 0x2c, 0x02, 0x00, 0x00, 0x54, 0xf1, 0xff, 0xff,
    0x08, 0x00, 0x00, 0x00, 0x5c, 0x01, 0x00, 0x00, 0x2a, 0x00, 0x00, 0x00, 0x00,
    0x00, 0x00, 0x00, 0x00, 0x00, 0x00, 0x00, 0x00, 0x00, 0x00, 0x00, 0x00, 0x00,
    0x00, 0x00, 0x00, 0x00, 0x00, 0x00, 0x00, 0x00, 0x00, 0x00, 0x00, 0x00, 0x00,
    0x00, 0x00, 0x00, 0x00, 0x00, 0x00, 0x00, 0x00, 0x00, 0x00, 0x00, 0x00, 0x00,
    0x00, 0x00, 0x00, 0x00, 0x00, 0x00, 0x00, 0x00, 0x00, 0x00, 0x00, 0x00, 0x00,
    0x00, 0x00, 0x00, 0x00, 0x00, 0x00, 0x00, 0x00, 0x00, 0x00, 0x00, 0x00, 0x00,
    0x00, 0x00, 0x00, 0x00, 0x00, 0x00, 0x00, 0x00, 0x00, 0x00, 0x00, 0x00, 0x00,
    0x00, 0x00, 0x00, 0x00, 0x00, 0x00, 0x00, 0x00, 0x00, 0x00, 0x00, 0x00, 0x00,
    0x00, 0x00, 0x00, 0x00, 0x00, 0x00, 0x00, 0x00, 0x00, 0x00, 0x00, 0x00, 0x00,
    0x00, 0x00, 0x00, 0x00, 0x00, 0x00, 0x00, 0x00, 0x00, 0x00, 0x00, 0x00, 0x00,
    0x00, 0x00, 0x00, 0x00, 0x00, 0x00, 0x00, 0x00, 0x00, 0x00, 0x00, 0x00, 0x00,
    0x00, 0x00, 0x00, 0x00, 0x00, 0x00, 0x00, 0x00, 0x00, 0x00, 0x00, 0x00, 0x00,
    0x00, 0x00, 0x00, 0x00, 0x00, 0x00, 0x00, 0x00, 0x00, 0x00, 0x00, 0x00, 0x00,
    0x00, 0x00, 0x00, 0x00, 0x00, 0x00, 0x00, 0x00, 0x00, 0x00, 0x00, 0x00, 0x00,
    0x00, 0x00, 0x00, 0x00, 0x00, 0x00, 0x00, 0x00, 0x00, 0x00, 0x00, 0x00, 0x00,
    0x00, 0x00, 0x00, 0x00, 0x00, 0x00, 0x00, 0x00, 0x00, 0x00, 0x00, 0x00, 0x00,
    0x00, 0x00, 0x00, 0x00, 0x00, 0x00, 0x00, 0x00, 0x00, 0x00, 0x00, 0x00, 0x00,
    0x00, 0x00, 0x00, 0x00, 0x00, 0x00, 0x00, 0x00, 0x00, 0x00, 0x00, 0x00, 0x00,
    0x00, 0x00, 0x00, 0x00, 0x00, 0x00, 0x00, 0x00, 0x00, 0x00, 0x00, 0x00, 0x00,
    0x00, 0x00, 0x00, 0x00, 0x00, 0x00, 0x00, 0x00, 0x00, 0x00, 0x00, 0x00, 0x00,
    0x00, 0x00, 0x00, 0x00, 0x00, 0x00, 0x00, 0x00, 0x00, 0x00, 0x00, 0x00, 0x00,
    0x00, 0x00, 0x00, 0x00, 0x00, 0x00, 0x00, 0x00, 0x00, 0x00, 0x00, 0x00, 0x00,
    0x00, 0x00, 0x00, 0x00, 0x00, 0x00, 0x00, 0x00, 0x00, 0x00, 0x00, 0x00, 0x00,
    0x00, 0x00, 0x00, 0x00, 0x00, 0x00, 0x00, 0x00, 0x00, 0x00, 0x00, 0x00, 0x00,
    0x00, 0x00, 0x00, 0x00, 0x00, 0x00, 0x00, 0x00, 0x00, 0x00, 0x00, 0x00, 0x00,
    0x00, 0x00, 0x00, 0x00, 0x00, 0x00, 0x00, 0x00, 0x00, 0x00, 0x00, 0x00, 0x00,
    0x00, 0x00, 0x00, 0x00, 0x00, 0x00, 0x00, 0x00, 0x00, 0x00, 0x00, 0x00, 0x00,
    0x00, 0x2a, 0x00, 0x00, 0x00, 0x7d, 0xb0, 0x90, 0x3b, 0xf4, 0xfb, 0x53, 0x3b,
    0xb6, 0x3a, 0x24, 0x3b, 0xbf, 0xa7, 0x46, 0x3b, 0xd2, 0x04, 0x91, 0x3b, 0xf2,
    0x23, 0x5b, 0x3b, 0xa0, 0xda, 0x86, 0x3b, 0x63, 0x9f, 0x6c, 0x3b, 0x3c, 0xce,
    0x46, 0x3b, 0x80, 0xd1, 0x95, 0x3b, 0xe4, 0xe9, 0x86, 0x3b, 0x31, 0x6a, 0x2c,
    0x3b, 0x20, 0xe3, 0x7a, 0x3b, 0x2f, 0x14, 0x50, 0x3b, 0xe9, 0x44, 0x56, 0x3b,
    0x55, 0x88, 0x42, 0x3b, 0x21, 0x71, 0x79, 0x3b, 0xd3, 0xc1, 0x95, 0x3b, 0x19,
    0x3f, 0x1b, 0x3b, 0xdb, 0xe1, 0x6d, 0x3b, 0x09, 0xe4, 0x80, 0x3b, 0x30, 0xf2,
    0x55, 0x3b, 0x5b, 0x39, 0x42, 0x3b, 0xd5, 0x94, 0x56, 0x3b, 0x2a, 0xd9, 0x2d,
    0x3b, 0xf1, 0xb3, 0x09, 0x3b, 0x23, 0x23, 0x82, 0x3b, 0xce, 0x58, 0x74, 0x3b,
    0xc4, 0xa0, 0x75, 0x3b, 0xd6, 0x09, 0x68, 0x3b, 0xc3, 0xce, 0x8f, 0x3b, 0x57,
    0x4d, 0xa5, 0x3b, 0x8a, 0x3a, 0x8a, 0x3b, 0x5b, 0xad, 0x8e, 0x3b, 0x0e, 0x8f,
    0x66, 0x3b, 0xb8, 0x8e, 0x95, 0x3b, 0x65, 0x98, 0xb4, 0x3b, 0x77, 0xbb, 0x63,
    0x3b, 0x2b, 0x4b, 0x4c, 0x3b, 0x0d, 0x30, 0x44, 0x3b, 0xe9, 0x38, 0x6d, 0x3b,
    0xc1, 0x69, 0x45, 0x3b, 0x13, 0x00, 0x00, 0x00, 0x74, 0x66, 0x6c, 0x2e, 0x70,
    0x73, 0x65, 0x75, 0x64, 0x6f, 0x5f, 0x71, 0x63, 0x6f, 0x6e, 0x73, 0x74, 0x31,
    0x33, 0x00, 0x02, 0x00, 0x00, 0x00, 0x2a, 0x00, 0x00, 0x00, 0x2a, 0x00, 0x00,
    0x00, 0x3e, 0xf4, 0xff, 0xff, 0x00, 0x00, 0x00, 0x01, 0x14, 0x00, 0x00, 0x00,
    0x1c, 0x02, 0x00, 0x00, 0x0e, 0x00, 0x00, 0x00, 0x00, 0x00, 0x00, 0x02, 0x28,
    0x02, 0x00, 0x00, 0xa4, 0xf3, 0xff, 0xff, 0x08, 0x00, 0x00, 0x00, 0x58, 0x01,
    0x00, 0x00, 0x2a, 0x00, 0x00, 0x00, 0x00, 0x00, 0x00, 0x00, 0x00, 0x00, 0x00,
    0x00, 0x00, 0x00, 0x00, 0x00, 0x00, 0x00, 0x00, 0x00, 0x00, 0x00, 0x00, 0x00,
    0x00, 0x00, 0x00, 0x00, 0x00, 0x00, 0x00, 0x00, 0x00, 0x00, 0x00, 0x00, 0x00,
    0x00, 0x00, 0x00, 0x00, 0x00, 0x00, 0x00, 0x00, 0x00, 0x00, 0x00, 0x00, 0x00,
    0x00, 0x00, 0x00, 0x00, 0x00, 0x00, 0x00, 0x00, 0x00, 0x00, 0x00, 0x00, 0x00,
    0x00, 0x00, 0x00, 0x00, 0x00, 0x00, 0x00, 0x00, 0x00, 0x00, 0x00, 0x00, 0x00,
    0x00, 0x00, 0x00, 0x00, 0x00, 0x00, 0x00, 0x00, 0x00, 0x00, 0x00, 0x00, 0x00,
    0x00, 0x00, 0x00, 0x00, 0x00, 0x00, 0x00, 0x00, 0x00, 0x00, 0x00, 0x00, 0x00,
    0x00, 0x00, 0x00, 0x00, 0x00, 0x00, 0x00, 0x00, 0x00, 0x00, 0x00, 0x00, 0x00,
    0x00, 0x00, 0x00, 0x00, 0x00, 0x00, 0x00, 0x00, 0x00, 0x00, 0x00, 0x00, 0x00,
    0x00, 0x00, 0x00, 0x00, 0x00, 0x00, 0x00, 0x00, 0x00, 0x00, 0x00, 0x00, 0x00,
    0x00, 0x00, 0x00, 0x00, 0x00, 0x00, 0x00, 0x00, 0x00, 0x00, 0x00, 0x00, 0x00,
    0x00, 0x00, 0x00, 0x00, 0x00, 0x00, 0x00, 0x00, 0x00, 0x00, 0x00, 0x00, 0x00,
    0x00, 0x00, 0x00, 0x00, 0x00, 0x00, 0x00, 0x00, 0x00, 0x00, 0x00, 0x00, 0x00,
    0x00, 0x00, 0x00, 0x00, 0x00, 0x00, 0x00, 0x00, 0x00, 0x00, 0x00, 0x00, 0x00,
    0x00, 0x00, 0x00, 0x00, 0x00, 0x00, 0x00, 0x00, 0x00, 0x00, 0x00, 0x00, 0x00,
    0x00, 0x00, 0x00, 0x00, 0x00, 0x00, 0x00, 0x00, 0x00, 0x00, 0x00, 0x00, 0x00,
    0x00, 0x00, 0x00, 0x00, 0x00, 0x00, 0x00, 0x00, 0x00, 0x00, 0x00, 0x00, 0x00,
    0x00, 0x00, 0x00, 0x00, 0x00, 0x00, 0x00, 0x00, 0x00, 0x00, 0x00, 0x00, 0x00,
    0x00, 0x00, 0x00, 0x00, 0x00, 0x00, 0x00, 0x00, 0x00, 0x00, 0x00, 0x00, 0x00,
    0x00, 0x00, 0x00, 0x00, 0x00, 0x00, 0x00, 0x00, 0x00, 0x00, 0x00, 0x00, 0x00,
    0x00, 0x00, 0x00, 0x00, 0x00, 0x00, 0x00, 0x00, 0x00, 0x00, 0x00, 0x00, 0x00,
    0x00, 0x00, 0x00, 0x00, 0x00, 0x00, 0x00, 0x00, 0x00, 0x00, 0x00, 0x00, 0x00,
    0x00, 0x00, 0x00, 0x00, 0x00, 0x00, 0x00, 0x00, 0x00, 0x00, 0x00, 0x00, 0x00,
    0x00, 0x00, 0x00, 0x00, 0x00, 0x00, 0x00, 0x00, 0x00, 0x00, 0x00, 0x00, 0x00,
    0x00, 0x00, 0x00, 0x00, 0x00, 0x00, 0x00, 0x00, 0x00, 0x00, 0x00, 0x00, 0x00,
    0x00, 0x00, 0x00, 0x00, 0x2a, 0x00, 0x00, 0x00, 0xa0, 0xa3, 0x0c, 0x3b, 0xd8,
    0x0c, 0xce, 0x3a, 0xd2, 0xa1, 0x9f, 0x3a, 0x28, 0x18, 0xc1, 0x3a, 0x98, 0xf5,
    0x0c, 0x3b, 0x8e, 0x01, 0xd5, 0x3a, 0x3e, 0x14, 0x03, 0x3b, 0xb7, 0xff, 0xe5,
    0x3a, 0x91, 0x3d, 0xc1, 0x3a, 0xe2, 0x9f, 0x11, 0x3b, 0x15, 0x23, 0x03, 0x3b,
    0xa5, 0x96, 0xa7, 0x3a, 0x3c, 0xdd, 0xf3, 0x3a, 0x10, 0x41, 0xca, 0x3a, 0x6d,
    0x45, 0xd0, 0x3a, 0x49, 0x16, 0xbd, 0x3a, 0x98, 0x75, 0xf2, 0x3a, 0xa5, 0x90,
    0x11, 0x3b, 0x94, 0xe6, 0x96, 0x3a, 0x29, 0x39, 0xe7, 0x3a, 0xc6, 0x90, 0xfa,
    0x3a, 0x05, 0xf5, 0xcf, 0x3a, 0x85, 0xc9, 0xbc, 0x3a, 0x1d, 0x93, 0xd0, 0x3a,
    0x58, 0xfb, 0xa8, 0x3a, 0x25, 0xd9, 0x85, 0x3a, 0x1c, 0xfd, 0xfc, 0x3a, 0xc8,
    0x81, 0xed, 0x3a, 0x90, 0xc0, 0xee, 0x3a, 0x04, 0x8b, 0xe1, 0x3a, 0x37, 0xc8,
    0x0b, 0x3b, 0xc3, 0xac, 0x20, 0x3b, 0xf9, 0x5b, 0x06, 0x3b, 0xe9, 0xae, 0x0a,
    0x3b, 0xd7, 0x1a, 0xe0, 0x3a, 0xf8, 0x5e, 0x11, 0x3b, 0x39, 0x8a, 0x2f, 0x3b,
    0x81, 0x5b, 0xdd, 0x3a, 0x2c, 0x93, 0xc6, 0x3a, 0x25, 0xb2, 0xbe, 0x3a, 0xf1,
    0x94, 0xe6, 0x3a, 0x10, 0xe3, 0xbf, 0x3a, 0x13, 0x00, 0x00, 0x00, 0x74, 0x66,
    0x6c, 0x2e, 0x70, 0x73, 0x65, 0x75, 0x64, 0x6f, 0x5f, 0x71, 0x63, 0x6f, 0x6e,
    0x73, 0x74, 0x31, 0x32, 0x00, 0x01, 0x00, 0x00, 0x00, 0x2a, 0x00, 0x00, 0x00,
    0x86, 0xf6, 0xff, 0xff, 0x00, 0x00, 0x00, 0x01, 0x14, 0x00, 0x00, 0x00, 0xa8,
    0x01, 0x00, 0x00, 0x0d, 0x00, 0x00, 0x00, 0x00, 0x00, 0x00, 0x09, 0xb4, 0x01,
    0x00, 0x00, 0xec, 0xf5, 0xff, 0xff, 0x08, 0x00, 0x00, 0x00, 0x0c, 0x01, 0x00,
    0x00, 0x20, 0x00, 0x00, 0x00, 0x00, 0x00, 0x00, 0x00, 0x00, 0x00, 0x00, 0x00,
    0x00, 0x00, 0x00, 0x00, 0x00, 0x00, 0x00, 0x00, 0x00, 0x00, 0x00, 0x00, 0x00,
    0x00, 0x00, 0x00, 0x00, 0x00, 0x00, 0x00, 0x00, 0x00, 0x00, 0x00, 0x00, 0x00,
    0x00, 0x00, 0x00, 0x00, 0x00, 0x00, 0x00, 0x00, 0x00, 0x00, 0x00, 0x00, 0x00,
    0x00, 0x00, 0x00, 0x00, 0x00, 0x00, 0x00, 0x00, 0x00, 0x00, 0x00, 0x00, 0x00,
    0x00, 0x00, 0x00, 0x00, 0x00, 0x00, 0x00, 0x00, 0x00, 0x00, 0x00, 0x00, 0x00,
    0x00, 0x00, 0x00, 0x00, 0x00, 0x00, 0x00, 0x00, 0x00, 0x00, 0x00, 0x00, 0x00,
    0x00, 0x00, 0x00, 0x00, 0x00, 0x00, 0x00, 0x00, 0x00, 0x00, 0x00, 0x00, 0x00,
    0x00, 0x00, 0x00, 0x00, 0x00, 0x00, 0x00, 0x00, 0x00, 0x00, 0x00, 0x00, 0x00,
    0x00, 0x00, 0x00, 0x00, 0x00, 0x00, 0x00, 0x00, 0x00, 0x00, 0x00, 0x00, 0x00,
    0x00, 0x00, 0x00, 0x00, 0x00, 0x00, 0x00, 0x00, 0x00, 0x00, 0x00, 0x00, 0x00,
    0x00, 0x00, 0x00, 0x00, 0x00, 0x00, 0x00, 0x00, 0x00, 0x00, 0x00, 0x00, 0x00,
    0x00, 0x00, 0x00, 0x00, 0x00, 0x00, 0x00, 0x00, 0x00, 0x00, 0x00, 0x00, 0x00,
    0x00, 0x00, 0x00, 0x00, 0x00, 0x00, 0x00, 0x00, 0x00, 0x00, 0x00, 0x00, 0x00,
    0x00, 0x00, 0x00, 0x00, 0x00, 0x00, 0x00, 0x00, 0x00, 0x00, 0x00, 0x00, 0x00,
    0x00, 0x00, 0x00, 0x00, 0x00, 0x00, 0x00, 0x00, 0x00, 0x00, 0x00, 0x00, 0x00,
    0x00, 0x00, 0x00, 0x00, 0x00, 0x00, 0x00, 0x00, 0x00, 0x00, 0x00, 0x00, 0x00,
    0x00, 0x00, 0x00, 0x00, 0x00, 0x00, 0x00, 0x00, 0x00, 0x00, 0x00, 0x00, 0x00,
    0x00, 0x00, 0x00, 0x00, 0x00, 0x00, 0x00, 0x00, 0x00, 0x00, 0x00, 0x00, 0x00,
    0x00, 0x00, 0x00, 0x00, 0x00, 0x00, 0x00, 0x00, 0x00, 0x00, 0x00, 0x00, 0x00,
    0x00, 0x00, 0x00, 0x00, 0x00, 0x20, 0x00, 0x00, 0x00, 0x2a, 0x77, 0x2c, 0x3b,
    0x37, 0x98, 0x2b, 0x3b, 0xcc, 0x91, 0x3c, 0x3b, 0xef, 0x80, 0x4f, 0x3b, 0x31,
    0x9f, 0x52, 0x3b, 0x62, 0xee, 0x40, 0x3b, 0xd3, 0x9a, 0x93, 0x3b, 0xe9, 0x52,
    0x26, 0x3b, 0x67, 0x80, 0x69, 0x3b, 0xf7, 0xd6, 0x39, 0x3b, 0x7e, 0x18, 0x2d,
    0x3b, 0x13, 0xcb, 0x98, 0x3b, 0xb5, 0xd2, 0x8e, 0x3b, 0x21, 0xcb, 0x56, 0x3b,
    0x0b, 0xda, 0x23, 0x3b, 0x42, 0x2c, 0x8a, 0x3b, 0x42, 0x09, 0x2b, 0x3b, 0x06,
    0x8e, 0x61, 0x3b, 0x5d, 0x75, 0x32, 0x3b, 0x15, 0xf8, 0x3e, 0x3b, 0xcf, 0x58,
    0x4a, 0x3b, 0x38, 0x79, 0x95, 0x3b, 0x6d, 0x13, 0x27, 0x3b, 0x23, 0x63, 0x51,
    0x3b, 0x26, 0xcc, 0x5a, 0x3b, 0xe7, 0xe8, 0x80, 0x3b, 0x53, 0x7b, 0x74, 0x3b,
    0x1b, 0xf7, 0x3b, 0x3b, 0x81, 0x5d, 0x8e, 0x3b, 0x48, 0xbb, 0x86, 0x3b, 0x6e,
    0xfe, 0x2a, 0x3b, 0x7c, 0xca, 0x72, 0x3b, 0x13, 0x00, 0x00, 0x00, 0x74, 0x66,
    0x6c, 0x2e, 0x70, 0x73, 0x65, 0x75, 0x64, 0x6f, 0x5f, 0x71, 0x63, 0x6f, 0x6e,
    0x73, 0x74, 0x31, 0x31, 0x00, 0x02, 0x00, 0x00, 0x00, 0x20, 0x00, 0x00, 0x00,
    0x2a, 0x00, 0x00, 0x00, 0x5e, 0xf8, 0xff, 0xff, 0x00, 0x00, 0x00, 0x01, 0x14,
    0x00, 0x00, 0x00, 0xa4, 0x01, 0x00, 0x00, 0x0c, 0x00, 0x00, 0x00, 0x00, 0x00,
    0x00, 0x02, 0xb0, 0x01, 0x00, 0x00, 0xc4, 0xf7, 0xff, 0xff, 0x08, 0x00, 0x00,
    0x00, 0x08, 0x01, 0x00, 0x00, 0x20, 0x00, 0x00, 0x00, 0x00, 0x00, 0x00, 0x00,
    0x00, 0x00, 0x00, 0x00, 0x00, 0x00, 0x00, 0x00, 0x00, 0x00, 0x00, 0x00, 0x00,
    0x00, 0x00, 0x00, 0x00, 0x00, 0x00, 0x00, 0x00, 0x00, 0x00, 0x00, 0x00, 0x00,
    0x00, 0x00, 0x00, 0x00, 0x00, 0x00, 0x00, 0x00, 0x00, 0x00, 0x00, 0x00, 0x00,
    0x00, 0x00, 0x00, 0x00, 0x00, 0x00, 0x00, 0x00, 0x00, 0x00, 0x00, 0x00, 0x00,
    0x00, 0x00, 0x00, 0x00, 0x00, 0x00, 0x00, 0x00, 0x00, 0x00, 0x00, 0x00, 0x00,
    0x00, 0x00, 0x00, 0x00, 0x00, 0x00, 0x00, 0x00, 0x00, 0x00, 0x00, 0x00, 0x00,
    0x00, 0x00, 0x00, 0x00, 0x00, 0x00, 0x00, 0x00, 0x00, 0x00, 0x00, 0x00, 0x00,
    0x00, 0x00, 0x00, 0x00, 0x00, 0x00, 0x00, 0x00, 0x00, 0x00, 0x00, 0x00, 0x00,
    0x00, 0x00, 0x00, 0x00, 0x00, 0x00, 0x00, 0x00, 0x00, 0x00, 0x00, 0x00, 0x00,
    0x00, 0x00, 0x00, 0x00, 0x00, 0x00, 0x00, 0x00, 0x00, 0x00, 0x00, 0x00, 0x00,
    0x00, 0x00, 0x00, 0x00, 0x00, 0x00, 0x00, 0x00, 0x00, 0x00, 0x00, 0x00, 0x00,
    0x00, 0x00, 0x00, 0x00, 0x00, 0x00, 0x00, 0x00, 0x00, 0x00, 0x00, 0x00, 0x00,
    0x00, 0x00, 0x00, 0x00, 0x00, 0x00, 0x00, 0x00, 0x00, 0x00, 0x00, 0x00, 0x00,
    0x00, 0x00, 0x00, 0x00, 0x00, 0x00, 0x00, 0x00, 0x00, 0x00, 0x00, 0x00, 0x00,
    0x00, 0x00, 0x00, 0x00, 0x00, 0x00, 0x00, 0x00, 0x00, 0x00, 0x00, 0x00, 0x00,
    0x00, 0x00, 0x00, 0x00, 0x00, 0x00, 0x00, 0x00, 0x00, 0x00, 0x00, 0x00, 0x00,
    0x00, 0x00, 0x00, 0x00, 0x00, 0x00, 0x00, 0x00, 0x00, 0x00, 0x00, 0x00, 0x00,
    0x00, 0x00, 0x00, 0x00, 0x00, 0x00, 0x00, 0x00, 0x00, 0x00, 0x00, 0x00, 0x00,
    0x00, 0x00, 0x00, 0x00, 0x00, 0x00, 0x00, 0x00, 0x00, 0x00, 0x00, 0x00, 0x00,
    0x00, 0x00, 0x00, 0x00, 0x00, 0x20, 0x00, 0x00, 0x00, 0x1c, 0x6d, 0xca, 0x39,
    0x6e, 0x67, 0xc9, 0x39, 0xed, 0x53, 0xdd, 0x39, 0x1c, 0x8d, 0xf3, 0x39, 0x0a,
    0x36, 0xf7, 0x39, 0x7c, 0x72, 0xe2, 0x39, 0x28, 0x3f, 0x2d, 0x3a, 0xb9, 0x37,
    0xc3, 0x39, 0x62, 0x08, 0x09, 0x3a, 0xb2, 0x1f, 0xda, 0x39, 0x77, 0x2a, 0xcb,
    0x39, 0x26, 0x56, 0x33, 0x3a, 0x63, 0xa2, 0x27, 0x3a, 0x80, 0x1b, 0xfc, 0x39,
    0xea, 0x50, 0xc0, 0x39, 0x21, 0x2d, 0x22, 0x3a, 0xa3, 0xbf, 0xc8, 0x39, 0x7d,
    0x5e, 0x04, 0x3a, 0xd5, 0x75, 0xd1, 0x39, 0xed, 0x24, 0xe0, 0x39, 0xa7, 0x7f,
    0xed, 0x39, 0xa8, 0x70, 0x2f, 0x3a, 0xaf, 0x19, 0xc4, 0x39, 0x15, 0xc3, 0xf5,
    0x39, 0x4b, 0x67, 0x00, 0x3a, 0xd3, 0x4d, 0x17, 0x3a, 0x00, 0x7a, 0x0f, 0x3a,
    0x5d, 0x9e, 0xdc, 0x39, 0xd2, 0x18, 0x27, 0x3a, 0x1c, 0x23, 0x1e, 0x3a, 0xee,
    0xb2, 0xc8, 0x39, 0xfc, 0x7b, 0x0e, 0x3a, 0x13, 0x00, 0x00, 0x00, 0x74, 0x66,
    0x6c, 0x2e, 0x70, 0x73, 0x65, 0x75, 0x64, 0x6f, 0x5f, 0x71, 0x63, 0x6f, 0x6e,
    0x73, 0x74, 0x31, 0x30, 0x00, 0x01, 0x00, 0x00, 0x00, 0x20, 0x00, 0x00, 0x00,
    0x2e, 0xfa, 0xff, 0xff, 0x00, 0x00, 0x00, 0x01, 0x14, 0x00, 0x00, 0x00, 0xe8,
    0x00, 0x00, 0x00, 0x0b, 0x00, 0x00, 0x00, 0x00, 0x00, 0x00, 0x09, 0xf4, 0x00,
    0x00, 0x00, 0x94, 0xf9, 0xff, 0xff, 0x08, 0x00, 0x00, 0x00, 0x8c, 0x00, 0x00,
    0x00, 0x10, 0x00, 0x00, 0x00, 0x00, 0x00, 0x00, 0x00, 0x00, 0x00, 0x00, 0x00,
    0x00, 0x00, 0x00, 0x00, 0x00, 0x00, 0x00, 0x00, 0x00, 0x00, 0x00, 0x00, 0x00,
    0x00, 0x00, 0x00, 0x00, 0x00, 0x00, 0x00, 0x00, 0x00, 0x00, 0x00, 0x00, 0x00,
    0x00, 0x00, 0x00, 0x00, 0x00, 0x00, 0x00, 0x00, 0x00, 0x00, 0x00, 0x00, 0x00,
    0x00, 0x00, 0x00, 0x00, 0x00, 0x00, 0x00, 0x00, 0x00, 0x00, 0x00, 0x00, 0x00,
    0x00, 0x00, 0x00, 0x00, 0x00, 0x00, 0x00, 0x00, 0x00, 0x00, 0x00, 0x00, 0x00,
    0x00, 0x00, 0x00, 0x00, 0x00, 0x00, 0x00, 0x00, 0x00, 0x00, 0x00, 0x00, 0x00,
    0x00, 0x00, 0x00, 0x00, 0x00, 0x00, 0x00, 0x00, 0x00, 0x00, 0x00, 0x00, 0x00,
    0x00, 0x00, 0x00, 0x00, 0x00, 0x00, 0x00, 0x00, 0x00, 0x00, 0x00, 0x00, 0x00,
    0x00, 0x00, 0x00, 0x00, 0x00, 0x00, 0x00, 0x00, 0x00, 0x00, 0x00, 0x00, 0x00,
    0x00, 0x00, 0x00, 0x00, 0x00, 0x00, 0x00, 0x10, 0x00, 0x00, 0x00, 0x6f, 0xe6,
    0x4e, 0x3b, 0x13, 0x9c, 0x53, 0x3b, 0x2f, 0xa4, 0x50, 0x3b, 0xde, 0x73, 0x38,
    0x3b, 0x14, 0x35, 0x8e, 0x3b, 0x63, 0x33, 0x95, 0x3b, 0xdd, 0x00, 0x76, 0x3b,
    0xfa, 0x16, 0x4d, 0x3b, 0x9c, 0x69, 0x84, 0x3b, 0x04, 0x7b, 0x42, 0x3b, 0x85,
    0x4e, 0x3e, 0x3b, 0x2e, 0xf7, 0x86, 0x3b, 0x57, 0x5b, 0x6f, 0x3b, 0x70, 0x47,
    0x55, 0x3b, 0xcb, 0x2d, 0x2e, 0x3b, 0xcc, 0xac, 0x3b, 0x3b, 0x12, 0x00, 0x00,
    0x00, 0x74, 0x66, 0x6c, 0x2e, 0x70, 0x73, 0x65, 0x75, 0x64, 0x6f, 0x5f, 0x71,
    0x63, 0x6f, 0x6e, 0x73, 0x74, 0x39, 0x00, 0x00, 0x02, 0x00, 0x00, 0x00, 0x10,
    0x00, 0x00, 0x00, 0x20, 0x00, 0x00, 0x00, 0x46, 0xfb, 0xff, 0xff, 0x00, 0x00,
    0x00, 0x01, 0x14, 0x00, 0x00, 0x00, 0xe4, 0x00, 0x00, 0x00, 0x0a, 0x00, 0x00,
    0x00, 0x00, 0x00, 0x00, 0x02, 0xf0, 0x00, 0x00, 0x00, 0xac, 0xfa, 0xff, 0xff,
    0x08, 0x00, 0x00, 0x00, 0x88, 0x00, 0x00, 0x00, 0x10, 0x00, 0x00, 0x00, 0x00,
    0x00, 0x00, 0x00, 0x00, 0x00, 0x00, 0x00, 0x00, 0x00, 0x00, 0x00, 0x00, 0x00,
    0x00, 0x00, 0x00, 0x00, 0x00, 0x00, 0x00, 0x00, 0x00, 0x00, 0x00, 0x00, 0x00,
    0x00, 0x00, 0x00, 0x00, 0x00, 0x00, 0x00, 0x00, 0x00, 0x00, 0x00, 0x00, 0x00,
    0x00, 0x00, 0x00, 0x00, 0x00, 0x00, 0x00, 0x00, 0x00, 0x00, 0x00, 0x00, 0x00,
    0x00, 0x00, 0x00, 0x00, 0x00, 0x00, 0x00, 0x00, 0x00, 0x00, 0x00, 0x00, 0x00,
    0x00, 0x00, 0x00, 0x00, 0x00, 0x00, 0x00, 0x00, 0x00, 0x00, 0x00, 0x00, 0x00,
    0x00, 0x00, 0x00, 0x00, 0x00, 0x00, 0x00, 0x00, 0x00, 0x00, 0x00, 0x00, 0x00,
    0x00, 0x00, 0x00, 0x00, 0x00, 0x00, 0x00, 0x00, 0x00, 0x00, 0x00, 0x00, 0x00,
    0x00, 0x00, 0x00, 0x00, 0x00, 0x00, 0x00, 0x00, 0x00, 0x00, 0x00, 0x00, 0x00,
    0x00, 0x00, 0x00, 0x00, 0x00, 0x00, 0x00, 0x00, 0x00, 0x00, 0x10, 0x00, 0x00,
    0x00, 0xd9, 0x2b, 0x52, 0x3a, 0x8c, 0xf4, 0x56, 0x3a, 0xa5, 0xf0, 0x53, 0x3a,
    0x6d, 0x5e, 0x3b, 0x3a, 0xa7, 0x74, 0x90, 0x3a, 0x44, 0x8f, 0x97, 0x3a, 0x8b,
    0xe4, 0x79, 0x3a, 0x10, 0x55, 0x50, 0x3a, 0x8a, 0x81, 0x86, 0x3a, 0x29, 0x8e,
    0x45, 0x3a, 0xc6, 0x50, 0x41, 0x3a, 0x71, 0x19, 0x89, 0x3a, 0x1e, 0x24, 0x73,
    0x3a, 0xab, 0xa6, 0x58, 0x3a, 0xc5, 0xee, 0x30, 0x3a, 0x66, 0xa4, 0x3e, 0x3a,
    0x12, 0x00, 0x00, 0x00, 0x74, 0x66, 0x6c, 0x2e, 0x70, 0x73, 0x65, 0x75, 0x64,
    0x6f, 0x5f, 0x71, 0x63, 0x6f, 0x6e, 0x73, 0x74, 0x38, 0x00, 0x00, 0x01, 0x00,
    0x00, 0x00, 0x10, 0x00, 0x00, 0x00, 0x56, 0xfc, 0xff, 0xff, 0x00, 0x00, 0x00,
    0x01, 0x14, 0x00, 0x00, 0x00, 0x88, 0x00, 0x00, 0x00, 0x09, 0x00, 0x00, 0x00,
    0x00, 0x00, 0x00, 0x09, 0x94, 0x00, 0x00, 0x00, 0xbc, 0xfb, 0xff, 0xff, 0x08,
    0x00, 0x00, 0x00, 0x4c, 0x00, 0x00, 0x00, 0x08, 0x00, 0x00, 0x00, 0x00, 0x00,
    0x00, 0x00, 0x00, 0x00, 0x00, 0x00, 0x00, 0x00, 0x00, 0x00, 0x00, 0x00, 0x00,
    0x00, 0x00, 0x00, 0x00, 0x00, 0x00, 0x00, 0x00, 0x00, 0x00, 0x00, 0x00, 0x00,
    0x00, 0x00, 0x00, 0x00, 0x00, 0x00, 0x00, 0x00, 0x00, 0x00, 0x00, 0x00, 0x00,
    0x00, 0x00, 0x00, 0x00, 0x00, 0x00, 0x00, 0x00, 0x00, 0x00, 0x00, 0x00, 0x00,
    0x00, 0x00, 0x00, 0x00, 0x00, 0x00, 0x00, 0x00, 0x00, 0x00, 0x00, 0x00, 0x00,
    0x00, 0x08, 0x00, 0x00, 0x00, 0xb5, 0x7d, 0x90, 0x3b, 0x1d, 0xaf, 0x95, 0x3b,
    0x09, 0x62, 0x85, 0x3b, 0xf1, 0x2c, 0xaa, 0x3b, 0xcc, 0x16, 0x7e, 0x3b, 0x19,
    0xa1, 0x93, 0x3b, 0xac, 0x9b, 0x92, 0x3b, 0xb1, 0x43, 0x9b, 0x3b, 0x12, 0x00,
    0x00, 0x00, 0x74, 0x66, 0x6c, 0x2e, 0x70, 0x73, 0x65, 0x75, 0x64, 0x6f, 0x5f,
    0x71, 0x63, 0x6f, 0x6e, 0x73, 0x74, 0x37, 0x00, 0x00, 0x02, 0x00, 0x00, 0x00,
    0x08, 0x00, 0x00, 0x00, 0x10, 0x00, 0x00, 0x00, 0x0e, 0xfd, 0xff, 0xff, 0x00,
    0x00, 0x00, 0x01, 0x14, 0x00, 0x00, 0x00, 0x84, 0x00, 0x00, 0x00, 0x08, 0x00,
    0x00, 0x00, 0x00, 0x00, 0x00, 0x02, 0x90, 0x00, 0x00, 0x00, 0x74, 0xfc, 0xff,
    0xff, 0x08, 0x00, 0x00, 0x00, 0x48, 0x00, 0x00, 0x00, 0x08, 0x00, 0x00, 0x00,
    0x00, 0x00, 0x00, 0x00, 0x00, 0x00, 0x00, 0x00, 0x00, 0x00, 0x00, 0x00, 0x00,
    0x00, 0x00, 0x00, 0x00, 0x00, 0x00, 0x00, 0x00, 0x00, 0x00, 0x00, 0x00, 0x00,
    0x00, 0x00, 0x00, 0x00, 0x00, 0x00, 0x00, 0x00, 0x00, 0x00, 0x00, 0x00, 0x00,
    0x00, 0x00, 0x00, 0x00, 0x00, 0x00, 0x00, 0x00, 0x00, 0x00, 0x00, 0x00, 0x00,
    0x00, 0x00, 0x00, 0x00, 0x00, 0x00, 0x00, 0x00, 0x00, 0x00, 0x00, 0x00, 0x08,
    0x00, 0x00, 0x00, 0xaa, 0xaa, 0xc8, 0x3a, 0xeb, 0xe0, 0xcf, 0x3a, 0x6c, 0x3d,
    0xb9, 0x3a, 0x3c, 0x56, 0xec, 0x3a, 0xee, 0x6f, 0xb0, 0x3a, 0x66, 0x06, 0xcd,
    0x3a, 0x55, 0x9b, 0xcb, 0x3a, 0xe7, 0xa0, 0xd7, 0x3a, 0x12, 0x00, 0x00, 0x00,
    0x74, 0x66, 0x6c, 0x2e, 0x70, 0x73, 0x65, 0x75, 0x64, 0x6f, 0x5f, 0x71, 0x63,
    0x6f, 0x6e, 0x73, 0x74, 0x36, 0x00, 0x00, 0x01, 0x00, 0x00, 0x00, 0x08, 0x00,
    0x00, 0x00, 0xbe, 0xfd, 0xff, 0xff, 0x00, 0x00, 0x00, 0x01, 0x14, 0x00, 0x00,
    0x00, 0x58, 0x00, 0x00, 0x00, 0x07, 0x00, 0x00, 0x00, 0x00, 0x00, 0x00, 0x09,
    0x64, 0x00, 0x00, 0x00, 0x24, 0xfd, 0xff, 0xff, 0x08, 0x00, 0x00, 0x00, 0x2c,
    0x00, 0x00, 0x00, 0x04, 0x00, 0x00, 0x00, 0x00, 0x00, 0x00, 0x00, 0x00, 0x00,
    0x00, 0x00, 0x00, 0x00, 0x00, 0x00, 0x00, 0x00, 0x00, 0x00, 0x00, 0x00, 0x00,
    0x00, 0x00, 0x00, 0x00, 0x00, 0x00, 0x00, 0x00, 0x00, 0x00, 0x00, 0x00, 0x00,
    0x00, 0x00, 0x00, 0x00, 0x04, 0x00, 0x00, 0x00, 0x77, 0x98, 0xb6, 0x3b, 0xdd,
    0x32, 0x83, 0x3b, 0xe5, 0xdd, 0xaa, 0x3b, 0x31, 0xad, 0x04, 0x3c, 0x12, 0x00,
    0x00, 0x00, 0x74, 0x66, 0x6c, 0x2e, 0x70, 0x73, 0x65, 0x75, 0x64, 0x6f, 0x5f,
    0x71, 0x63, 0x6f, 0x6e, 0x73, 0x74, 0x35, 0x00, 0x00, 0x02, 0x00, 0x00, 0x00,
    0x04, 0x00, 0x00, 0x00, 0x08, 0x00, 0x00, 0x00, 0x46, 0xfe, 0xff, 0xff, 0x00,
    0x00, 0x00, 0x01, 0x14, 0x00, 0x00, 0x00, 0x54, 0x00, 0x00, 0x00, 0x06, 0x00,
    0x00, 0x00, 0x00, 0x00, 0x00, 0x02, 0x60, 0x00, 0x00, 0x00, 0xac, 0xfd, 0xff,
    0xff, 0x08, 0x00, 0x00, 0x00, 0x28, 0x00, 0x00, 0x00, 0x04, 0x00, 0x00, 0x00,
    0x00, 0x00, 0x00, 0x00, 0x00, 0x00, 0x00, 0x00, 0x00, 0x00, 0x00, 0x00, 0x00,
    0x00, 0x00, 0x00, 0x00, 0x00, 0x00, 0x00, 0x00, 0x00, 0x00, 0x00, 0x00, 0x00,
    0x00, 0x00, 0x00, 0x00, 0x00, 0x00, 0x04, 0x00, 0x00, 0x00, 0x44, 0x8f, 0xc1,
    0x3a, 0x9b, 0x13, 0x8b, 0x3a, 0x67, 0x20, 0xb5, 0x3a, 0xa7, 0xa4, 0x0c, 0x3b,
    0x12, 0x00, 0x00, 0x00, 0x74, 0x66, 0x6c, 0x2e, 0x70, 0x73, 0x65, 0x75, 0x64,
    0x6f, 0x5f, 0x71, 0x63, 0x6f, 0x6e, 0x73, 0x74, 0x34, 0x00, 0x00, 0x01, 0x00,
    0x00, 0x00, 0x04, 0x00, 0x00, 0x00, 0xc6, 0xfe, 0xff, 0xff, 0x00, 0x00, 0x00,
    0x01, 0x14, 0x00, 0x00, 0x00, 0x40, 0x00, 0x00, 0x00, 0x05, 0x00, 0x00, 0x00,
    0x00, 0x00, 0x00, 0x09, 0x4c, 0x00, 0x00, 0x00, 0x2c, 0xfe, 0xff, 0xff, 0x08,
    0x00, 0x00, 0x00, 0x1c, 0x00, 0x00, 0x00, 0x02, 0x00, 0x00, 0x00, 0x00, 0x00,
    0x00, 0x00, 0x00, 0x00, 0x00, 0x00, 0x00, 0x00, 0x00, 0x00, 0x00, 0x00, 0x00,
    0x00, 0x00, 0x00, 0x00, 0x00, 0x02, 0x00, 0x00, 0x00, 0xd7, 0x5e, 0x14, 0x3c,
    0xfb, 0xd6, 0x2a, 0x3c, 0x12, 0x00, 0x00, 0x00, 0x74, 0x66, 0x6c, 0x2e, 0x70,
    0x73, 0x65, 0x75, 0x64, 0x6f, 0x5f, 0x71, 0x63, 0x6f, 0x6e, 0x73, 0x74, 0x33,
    0x00, 0x00, 0x02, 0x00, 0x00, 0x00, 0x02, 0x00, 0x00, 0x00, 0x04, 0x00, 0x00,
    0x00, 0x36, 0xff, 0xff, 0xff, 0x00, 0x00, 0x00, 0x01, 0x14, 0x00, 0x00, 0x00,
    0x3c, 0x00, 0x00, 0x00, 0x04, 0x00, 0x00, 0x00, 0x00, 0x00, 0x00, 0x02, 0x48,
    0x00, 0x00, 0x00, 0x9c, 0xfe, 0xff, 0xff, 0x08, 0x00, 0x00, 0x00, 0x18, 0x00,
    0x00, 0x00, 0x02, 0x00, 0x00, 0x00, 0x00, 0x00, 0x00, 0x00, 0x00, 0x00, 0x00,
    0x00, 0x00, 0x00, 0x00, 0x00, 0x00, 0x00, 0x00, 0x00, 0x02, 0x00, 0x00, 0x00,
    0x8f, 0x2d, 0x43, 0x3b, 0x5e, 0xbc, 0x60, 0x3b, 0x12, 0x00, 0x00, 0x00, 0x74,
    0x66, 0x6c, 0x2e, 0x70, 0x73, 0x65, 0x75, 0x64, 0x6f, 0x5f, 0x71, 0x63, 0x6f,
    0x6e, 0x73, 0x74, 0x32, 0x00, 0x00, 0x01, 0x00, 0x00, 0x00, 0x02, 0x00, 0x00,
    0x00, 0x9e, 0xff, 0xff, 0xff, 0x00, 0x00, 0x00, 0x01, 0x14, 0x00, 0x00, 0x00,
    0x30, 0x00, 0x00, 0x00, 0x03, 0x00, 0x00, 0x00, 0x00, 0x00, 0x00, 0x09, 0x3c,
    0x00, 0x00, 0x00, 0x04, 0xff, 0xff, 0xff, 0x08, 0x00, 0x00, 0x00, 0x10, 0x00,
    0x00, 0x00, 0x01, 0x00, 0x00, 0x00, 0x00, 0x00, 0x00, 0x00, 0x00, 0x00, 0x00,
    0x00, 0x01, 0x00, 0x00, 0x00, 0x69, 0x0d, 0x07, 0x3c, 0x12, 0x00, 0x00, 0x00,
    0x74, 0x66, 0x6c, 0x2e, 0x70, 0x73, 0x65, 0x75, 0x64, 0x6f, 0x5f, 0x71, 0x63,
    0x6f, 0x6e, 0x73, 0x74, 0x31, 0x00, 0x00, 0x02, 0x00, 0x00, 0x00, 0x01, 0x00,
    0x00, 0x00, 0x02, 0x00, 0x00, 0x00, 0x00, 0x00, 0x16, 0x00, 0x1c, 0x00, 0x18,
    0x00, 0x17, 0x00, 0x10, 0x00, 0x0c, 0x00, 0x08, 0x00, 0x00, 0x00, 0x00, 0x00,
    0x00, 0x00, 0x07, 0x00, 0x16, 0x00, 0x00, 0x00, 0x00, 0x00, 0x00, 0x01, 0x14,
    0x00, 0x00, 0x00, 0x30, 0x00, 0x00, 0x00, 0x02, 0x00, 0x00, 0x00, 0x00, 0x00,
    0x00, 0x02, 0x3c, 0x00, 0x00, 0x00, 0x7c, 0xff, 0xff, 0xff, 0x08, 0x00, 0x00,
    0x00, 0x10, 0x00, 0x00, 0x00, 0x01, 0x00, 0x00, 0x00, 0x00, 0x00, 0x00, 0x00,
    0x00, 0x00, 0x00, 0x00, 0x01, 0x00, 0x00, 0x00, 0x4e, 0x1f, 0x17, 0x3b, 0x11,
    0x00, 0x00, 0x00, 0x74, 0x66, 0x6c, 0x2e, 0x70, 0x73, 0x65, 0x75, 0x64, 0x6f,
    0x5f, 0x71, 0x63, 0x6f, 0x6e, 0x73, 0x74, 0x00, 0x00, 0x00, 0x01, 0x00, 0x00,
    0x00, 0x01, 0x00, 0x00, 0x00, 0x00, 0x00, 0x16, 0x00, 0x20, 0x00, 0x1c, 0x00,
    0x1b, 0x00, 0x14, 0x00, 0x10, 0x00, 0x0c, 0x00, 0x00, 0x00, 0x00, 0x00, 0x08,
    0x00, 0x07, 0x00, 0x16, 0x00, 0x00, 0x00, 0x00, 0x00, 0x00, 0x01, 0x18, 0x00,
    0x00, 0x00, 0x2c, 0x00, 0x00, 0x00, 0x4c, 0x00, 0x00, 0x00, 0x01, 0x00, 0x00,
    0x00, 0x00, 0x00, 0x00, 0x03, 0x64, 0x00, 0x00, 0x00, 0x02, 0x00, 0x00, 0x00,
    0xff, 0xff, 0xff, 0xff, 0x2a, 0x00, 0x00, 0x00, 0x0c, 0x00, 0x0c, 0x00, 0x00,
    0x00, 0x00, 0x00, 0x08, 0x00, 0x04, 0x00, 0x0c, 0x00, 0x00, 0x00, 0x08, 0x00,
    0x00, 0x00, 0x14, 0x00, 0x00, 0x00, 0x01, 0x00, 0x00, 0x00, 0x55, 0x00, 0x00,
    0x00, 0x00, 0x00, 0x00, 0x00, 0x00, 0x00, 0x00, 0x00, 0x01, 0x00, 0x00, 0x00,
    0x78, 0xd5, 0xf8, 0x3e, 0x1d, 0x00, 0x00, 0x00, 0x73, 0x65, 0x72, 0x76, 0x69,
    0x6e, 0x67, 0x5f, 0x64, 0x65, 0x66, 0x61, 0x75, 0x6c, 0x74, 0x5f, 0x69, 0x6e,
    0x70, 0x75, 0x74, 0x5f, 0x6c, 0x61, 0x79, 0x65, 0x72, 0x3a, 0x30, 0x00, 0x00,
    0x00, 0x02, 0x00, 0x00, 0x00, 0x01, 0x00, 0x00, 0x00, 0x2a, 0x00, 0x00, 0x00,
    0x03, 0x00, 0x00, 0x00, 0x44, 0x00, 0x00, 0x00, 0x24, 0x00, 0x00, 0x00, 0x04,
    0x00, 0x00, 0x00, 0xf0, 0xff, 0xff, 0xff, 0x0e, 0x00, 0x00, 0x00, 0x02, 0x00,
    0x00, 0x00, 0x00, 0x00, 0x00, 0x0e, 0x0c, 0x00, 0x10, 0x00, 0x0f, 0x00, 0x00,
    0x00, 0x08, 0x00, 0x04, 0x00, 0x0c, 0x00, 0x00, 0x00, 0x09, 0x00, 0x00, 0x00,
    0x04, 0x00, 0x00, 0x00, 0x00, 0x00, 0x00, 0x09, 0x0c, 0x00, 0x0c, 0x00, 0x0b,
    0x00, 0x00, 0x00, 0x00, 0x00, 0x04, 0x00, 0x0c, 0x00, 0x00, 0x00, 0x72, 0x00,
    0x00, 0x00, 0x00, 0x00, 0x00, 0x72,
};
const int g_model_len = 11368;
