// This is a TensorFlow Lite model file that has been converted into a C data
// array using the tensorflow.lite.util.convert_bytes_to_c_source() function.
// This form is useful for compiling into a binary for devices that don't have a
// file system.

#include "model.h"

alignas(8) const unsigned char g_model[] = {
    0x20, 0x00, 0x00, 0x00, 0x54, 0x46, 0x4c, 0x33, 0x00, 0x00, 0x00, 0x00,
    0x14, 0x00, 0x20, 0x00, 0x1c, 0x00, 0x18, 0x00, 0x14, 0x00, 0x10, 0x00,
    0x0c, 0x00, 0x00, 0x00, 0x08, 0x00, 0x04, 0x00, 0x14, 0x00, 0x00, 0x00,
    0x1c, 0x00, 0x00, 0x00, 0x88, 0x00, 0x00, 0x00, 0x08, 0x01, 0x00, 0x00,
    0x70, 0x13, 0x00, 0x00, 0x80, 0x13, 0x00, 0x00, 0xdc, 0x2b, 0x00, 0x00,
    0x03, 0x00, 0x00, 0x00, 0x01, 0x00, 0x00, 0x00, 0x04, 0x00, 0x00, 0x00,
    0x0e, 0xec, 0xff, 0xff, 0x0c, 0x00, 0x00, 0x00, 0x1c, 0x00, 0x00, 0x00,
    0x3c, 0x00, 0x00, 0x00, 0x0f, 0x00, 0x00, 0x00, 0x73, 0x65, 0x72, 0x76,
    0x69, 0x6e, 0x67, 0x5f, 0x64, 0x65, 0x66, 0x61, 0x75, 0x6c, 0x74, 0x00,
    0x01, 0x00, 0x00, 0x00, 0x04, 0x00, 0x00, 0x00, 0x6c, 0xff, 0xff, 0xff,
    0x18, 0x00, 0x00, 0x00, 0x04, 0x00, 0x00, 0x00, 0x08, 0x00, 0x00, 0x00,
    0x6f, 0x75, 0x74, 0x70, 0x75, 0x74, 0x5f, 0x30, 0x00, 0x00, 0x00, 0x00,
    0x01, 0x00, 0x00, 0x00, 0x04, 0x00, 0x00, 0x00, 0x16, 0xed, 0xff, 0xff,
    0x04, 0x00, 0x00, 0x00, 0x0b, 0x00, 0x00, 0x00, 0x69, 0x6e, 0x70, 0x75,
    0x74, 0x5f, 0x6c, 0x61, 0x79, 0x65, 0x72, 0x00, 0x03, 0x00, 0x00, 0x00,
    0x5c, 0x00, 0x00, 0x00, 0x2c, 0x00, 0x00, 0x00, 0x04, 0x00, 0x00, 0x00,
    0xb8, 0xff, 0xff, 0xff, 0x1c, 0x00, 0x00, 0x00, 0x04, 0x00, 0x00, 0x00,
    0x13, 0x00, 0x00, 0x00, 0x43, 0x4f, 0x4e, 0x56, 0x45, 0x52, 0x53, 0x49,
    0x4f, 0x4e, 0x5f, 0x4d, 0x45, 0x54, 0x41, 0x44, 0x41, 0x54, 0x41, 0x00,
    0xdc, 0xff, 0xff, 0xff, 0x1b, 0x00, 0x00, 0x00, 0x04, 0x00, 0x00, 0x00,
    0x13, 0x00, 0x00, 0x00, 0x6d, 0x69, 0x6e, 0x5f, 0x72, 0x75, 0x6e, 0x74,
    0x69, 0x6d, 0x65, 0x5f, 0x76, 0x65, 0x72, 0x73, 0x69, 0x6f, 0x6e, 0x00,
    0x08, 0x00, 0x0c, 0x00, 0x08, 0x00, 0x04, 0x00, 0x08, 0x00, 0x00, 0x00,
    0x1a, 0x00, 0x00, 0x00, 0x04, 0x00, 0x00, 0x00, 0x13, 0x00, 0x00, 0x00,
    0x6d, 0x69, 0x6e, 0x5f, 0x72, 0x75, 0x6e, 0x74, 0x69, 0x6d, 0x65, 0x5f,
    0x76, 0x65, 0x72, 0x73, 0x69, 0x6f, 0x6e, 0x00, 0x1d, 0x00, 0x00, 0x00,
    0x64, 0x12, 0x00, 0x00, 0x5c, 0x12, 0x00, 0x00, 0x48, 0x12, 0x00, 0x00,
    0x30, 0x12, 0x00, 0x00, 0x18, 0x12, 0x00, 0x00, 0x00, 0x12, 0x00, 0x00,
    0xe0, 0x11, 0x00, 0x00, 0xb0, 0x11, 0x00, 0x00, 0x80, 0x11, 0x00, 0x00,
    0xf0, 0x10, 0x00, 0x00, 0xa0, 0x10, 0x00, 0x00, 0x90, 0x0e, 0x00, 0x00,
    0x00, 0x0e, 0x00, 0x00, 0xb0, 0x08, 0x00, 0x00, 0xf8, 0x07, 0x00, 0x00,
    0x04, 0x01, 0x00, 0x00, 0xfc, 0x00, 0x00, 0x00, 0xf4, 0x00, 0x00, 0x00,
    0xec, 0x00, 0x00, 0x00, 0xe4, 0x00, 0x00, 0x00, 0xdc, 0x00, 0x00, 0x00,
    0xd4, 0x00, 0x00, 0x00, 0xcc, 0x00, 0x00, 0x00, 0xc4, 0x00, 0x00, 0x00,
    0xbc, 0x00, 0x00, 0x00, 0xb4, 0x00, 0x00, 0x00, 0x94, 0x00, 0x00, 0x00,
    0x74, 0x00, 0x00, 0x00, 0x04, 0x00, 0x00, 0x00, 0x2a, 0xee, 0xff, 0xff,
    0x04, 0x00, 0x00, 0x00, 0x60, 0x00, 0x00, 0x00, 0x0c, 0x00, 0x00, 0x00,
    0x08, 0x00, 0x0e, 0x00, 0x08, 0x00, 0x04, 0x00, 0x08, 0x00, 0x00, 0x00,
    0x10, 0x00, 0x00, 0x00, 0x28, 0x00, 0x00, 0x00, 0x00, 0x00, 0x06, 0x00,
    0x08, 0x00, 0x04, 0x00, 0x06, 0x00, 0x00, 0x00, 0x04, 0x00, 0x00, 0x00,
    0x01, 0x00, 0x00, 0x00, 0xeb, 0x03, 0x00, 0x00, 0x0c, 0x00, 0x18, 0x00,
    0x14, 0x00, 0x10, 0x00, 0x0c, 0x00, 0x04, 0x00, 0x0c, 0x00, 0x00, 0x00,
    0x23, 0x67, 0x19, 0xbe, 0xa7, 0xd3, 0x6c, 0x89, 0x02, 0x00, 0x00, 0x00,
    0x02, 0x00, 0x00, 0x00, 0x04, 0x00, 0x00, 0x00, 0x06, 0x00, 0x00, 0x00,
    0x32, 0x2e, 0x31, 0x38, 0x2e, 0x30, 0x00, 0x00, 0x96, 0xee, 0xff, 0xff,
    0x04, 0x00, 0x00, 0x00, 0x10, 0x00, 0x00, 0x00, 0x00, 0x00, 0x00, 0x00,
    0x00, 0x00, 0x00, 0x00, 0x00, 0x00, 0x00, 0x00, 0x00, 0x00, 0x00, 0x00,
    0xb2, 0xee, 0xff, 0xff, 0x04, 0x00, 0x00, 0x00, 0x10, 0x00, 0x00, 0x00,
    0x31, 0x2e, 0x31, 0x34, 0x2e, 0x30, 0x00, 0x00, 0x00, 0x00, 0x00, 0x00,
    0x00, 0x00, 0x00, 0x00, 0xd4, 0xed, 0xff, 0xff, 0xd8, 0xed, 0xff, 0xff,
    0xdc, 0xed, 0xff, 0xff, 0xe0, 0xed, 0xff, 0xff, 0xe4, 0xed, 0xff, 0xff,
    0xe8, 0xed, 0xff, 0xff, 0xec, 0xed, 0xff, 0xff, 0xf0, 0xed, 0xff, 0xff,
    0xf4, 0xed, 0xff, 0xff, 0xf8, 0xed, 0xff, 0xff, 0xf6, 0xee, 0xff, 0xff,
    0x04, 0x00, 0x00, 0x00, 0xe4, 0x06, 0x00, 0x00, 0x07, 0x1c, 0xda, 0xc4,
    0x95, 0x83, 0xd4, 0xfd, 0xa1, 0xcc, 0x1d, 0x0b, 0x81, 0xe6, 0xbb, 0x63,
    0xba, 0x0a, 0x20, 0x33, 0x36, 0xc1, 0x00, 0xbb, 0x31, 0x0a, 0x12, 0xcf,
    0x19, 0xcc, 0x68, 0xad, 0x1f, 0xbc, 0xe9, 0xed, 0xb9, 0xde, 0x3d, 0x0f,
    0x3a, 0xf9, 0x13, 0x01, 0x1f, 0xef, 0x01, 0xf0, 0x36, 0xc9, 0xdc, 0xd9,
    0xc2, 0xe6, 0x67, 0x9d, 0xf7, 0xb2, 0x0b, 0x5b, 0x78, 0xf3, 0x31, 0x46,
    0x2a, 0xc2, 0xab, 0x2f, 0xc1, 0x2e, 0x06, 0xb0, 0x28, 0x7f, 0xdd, 0xda,
    0x9c, 0x69, 0x4c, 0x8b, 0xee, 0xc5, 0xda, 0x1f, 0x08, 0x4d, 0x79, 0xf1,
    0x8c, 0xd0, 0x5a, 0x0e, 0x81, 0xcb, 0x2f, 0x37, 0xc0, 0x6d, 0x15, 0xc7,
    0x4d, 0x23, 0x9c, 0xe3, 0xc0, 0x2f, 0xf5, 0xa5, 0xee, 0x14, 0xf7, 0xa4,
    0x70, 0x1c, 0x66, 0xc3, 0xaf, 0xfc, 0x3d, 0x38, 0xfa, 0xc5, 0xd9, 0x17,
    0x58, 0xe1, 0x06, 0xeb, 0xac, 0x81, 0x30, 0x5e, 0xe2, 0xd6, 0xa4, 0xeb,
    0x00, 0xda, 0x23, 0x48, 0xee, 0x3d, 0xe7, 0x2e, 0xc0, 0xed, 0x3f, 0xf2,
    0x25, 0xec, 0xd9, 0x71, 0xbd, 0xc3, 0xa7, 0x2c, 0x42, 0x19, 0xe8, 0x28,
    0xcd, 0x0d, 0xee, 0xe5, 0xe3, 0x3a, 0x21, 0xfd, 0xf7, 0x14, 0x10, 0xe8,
    0xfd, 0xea, 0x11, 0xee, 0x0a, 0x7f, 0x00, 0x11, 0x0d, 0x05, 0xe6, 0xfe,
    0xf5, 0xcd, 0xff, 0xbc, 0xd2, 0x00, 0xe7, 0x27, 0x20, 0x02, 0xe5, 0x26,
    0x09, 0x1c, 0x19, 0xee, 0x2e, 0xd9, 0xe0, 0x2b, 0x05, 0xe9, 0x29, 0x17,
    0xeb, 0xfc, 0xf0, 0xfc, 0xda, 0xdb, 0xd1, 0xdd, 0xf9, 0xd8, 0xef, 0x7f,
    0x18, 0xf5, 0x0d, 0x16, 0xd0, 0xd0, 0xf4, 0xf0, 0xd7, 0xce, 0x07, 0x05,
    0xea, 0x33, 0x49, 0x19, 0xee, 0x2f, 0x12, 0x06, 0xfd, 0x01, 0x56, 0x0c,
    0xfe, 0x29, 0x41, 0x26, 0xf2, 0xdf, 0x13, 0xed, 0x1c, 0x21, 0xff, 0x18,
    0x0f, 0xee, 0x6a, 0x1e, 0x4b, 0x08, 0xeb, 0x03, 0x12, 0x07, 0x10, 0xf7,
    0x7f, 0xa5, 0x07, 0x26, 0x07, 0xf9, 0xfd, 0x25, 0xd3, 0xfb, 0xce, 0x03,
    0xe9, 0x21, 0x04, 0x1c, 0xb8, 0xd1, 0x08, 0x3e, 0xe9, 0xe4, 0xf3, 0x1f,
    0x09, 0xf1, 0x11, 0xaf, 0x71, 0xa1, 0x4c, 0xed, 0xc9, 0xa5, 0x46, 0xa2,
    0xa0, 0x1e, 0xe5, 0xe9, 0xe6, 0x84, 0x26, 0xf7, 0x2b, 0xbb, 0xca, 0x13,
    0x1d, 0xff, 0x57, 0x0a, 0xb6, 0x0a, 0x7f, 0x6f, 0x12, 0xdb, 0x08, 0xe9,
    0xc4, 0x87, 0x02, 0x51, 0xe6, 0x3d, 0x35, 0x3a, 0x05, 0x7f, 0x4b, 0x75,
    0x31, 0x68, 0xb8, 0x10, 0xbe, 0xd3, 0xe2, 0x26, 0x07, 0xec, 0x0e, 0x4a,
    0x7f, 0xec, 0xf1, 0xc2, 0x03, 0x40, 0xd1, 0xe9, 0x19, 0xf4, 0xb9, 0x25,
    0x67, 0xb2, 0x29, 0x22, 0x30, 0x16, 0x17, 0xe5, 0x30, 0xe3, 0xd1, 0x8a,
    0xf2, 0xbf, 0x1f, 0x17, 0xe0, 0x31, 0x35, 0x00, 0xf1, 0x45, 0xec, 0x0e,
    0x23, 0x18, 0x41, 0xf7, 0xb8, 0x1f, 0x7f, 0xb8, 0xed, 0x19, 0x3b, 0x15,
    0xde, 0xfa, 0xb3, 0xc6, 0xd4, 0xed, 0x03, 0x3f, 0xfc, 0x12, 0xf1, 0x0a,
    0xf4, 0x04, 0xda, 0xfb, 0xce, 0x56, 0x36, 0x2c, 0x08, 0xf4, 0x2a, 0xf6,
    0xcc, 0xe1, 0xf3, 0x34, 0x17, 0x6a, 0x23, 0x46, 0xe1, 0xfc, 0x57, 0x0f,
    0x6f, 0xe8, 0x6a, 0x41, 0x4d, 0xc3, 0xf7, 0xe8, 0xec, 0x0d, 0xe8, 0x7c,
    0x46, 0x51, 0xdd, 0xa9, 0xe9, 0x01, 0x90, 0x34, 0x3a, 0x81, 0x50, 0x40,
    0x92, 0xbd, 0x09, 0xb6, 0xa4, 0x56, 0x0c, 0x2c, 0xd6, 0xc1, 0x35, 0xcf,
    0x29, 0xcb, 0x68, 0x7f, 0xb3, 0xe2, 0xfd, 0xc2, 0xc6, 0xfb, 0x77, 0xab,
    0x10, 0xd2, 0xf9, 0x19, 0xf8, 0xb5, 0xdb, 0x0d, 0xf0, 0xf8, 0x40, 0x40,
    0x25, 0xbe, 0x15, 0xd0, 0xb1, 0xf3, 0x3f, 0xca, 0x06, 0x81, 0x2f, 0xbc,
    0xcd, 0xb9, 0xc6, 0xc0, 0xdb, 0xea, 0x42, 0x1b, 0x1e, 0x30, 0xbc, 0x11,
    0x78, 0x10, 0xc1, 0x9f, 0x11, 0x40, 0x11, 0xd9, 0xf2, 0x22, 0x01, 0xc3,
    0xc8, 0x13, 0x15, 0x99, 0xd4, 0xf4, 0x27, 0x3e, 0xeb, 0xd7, 0x37, 0xeb,
    0x0f, 0xe0, 0xfd, 0xe3, 0xc9, 0x4c, 0xbd, 0xd0, 0xfe, 0x81, 0xce, 0xab,
    0xfd, 0xc7, 0x35, 0x44, 0x03, 0xbd, 0xf6, 0x58, 0xd3, 0xff, 0xf7, 0x09,
    0x25, 0xff, 0xf7, 0xf8, 0xf3, 0x0a, 0xcb, 0x03, 0x2a, 0xe3, 0x02, 0xda,
    0x08, 0xc0, 0x28, 0x10, 0x1d, 0x22, 0xbd, 0x2c, 0x0d, 0xf1, 0xdf, 0x05,
    0x1a, 0xe7, 0x24, 0x3a, 0x24, 0x7f, 0xe9, 0x12, 0x27, 0x0b, 0x2f, 0xee,
    0x05, 0x04, 0x02, 0x09, 0xe8, 0x38, 0x23, 0xf2, 0x13, 0x0e, 0xdc, 0x20,
    0xce, 0x4b, 0xd1, 0x27, 0x95, 0xdf, 0xda, 0x04, 0x0d, 0xd9, 0xfd, 0x05,
    0x11, 0x2e, 0x01, 0xb7, 0x05, 0x26, 0x81, 0xdd, 0x2a, 0xcc, 0xf1, 0xfa,
    0x54, 0xc9, 0x1f, 0xe7, 0xfc, 0xe1, 0xfb, 0x47, 0x20, 0x50, 0xf9, 0xff,
    0x0f, 0x17, 0xf1, 0xca, 0x44, 0xfb, 0x02, 0x03, 0x30, 0x2b, 0xfb, 0xda,
    0x01, 0xbd, 0x1a, 0x0b, 0xb6, 0xec, 0x2d, 0x30, 0x0a, 0x0a, 0x01, 0x19,
    0xf5, 0xef, 0xcf, 0xd0, 0x05, 0xd9, 0x0d, 0x2d, 0x38, 0xf7, 0xef, 0xe0,
    0x9a, 0xed, 0x93, 0xd8, 0x81, 0x06, 0xb1, 0x4d, 0xb1, 0xc2, 0x08, 0x26,
    0x3f, 0xd1, 0x05, 0xb1, 0x57, 0x85, 0x12, 0x5a, 0xcc, 0x0d, 0x0a, 0x03,
    0x0f, 0xd6, 0xe9, 0x37, 0xd5, 0x81, 0xec, 0x00, 0xb8, 0xfe, 0x03, 0x69,
    0x02, 0xc4, 0x09, 0xb6, 0x01, 0x19, 0x95, 0xb8, 0x91, 0xfa, 0xe3, 0x2f,
    0x3b, 0x65, 0x23, 0xfd, 0xce, 0xfe, 0x00, 0xea, 0x2f, 0x89, 0x4d, 0xe8,
    0xfa, 0x3a, 0x1b, 0xf7, 0x2c, 0x44, 0xe0, 0xe5, 0x05, 0xf4, 0x81, 0x5d,
    0x2f, 0x05, 0xa3, 0x9a, 0x38, 0xd4, 0x9a, 0x4c, 0xaf, 0x63, 0x1a, 0xf6,
    0x12, 0x0c, 0x12, 0xdd, 0x14, 0x17, 0xc5, 0x27, 0xde, 0x8c, 0x8c, 0x44,
    0x0b, 0x1c, 0x97, 0x20, 0xdc, 0x34, 0x1b, 0xe2, 0x0f, 0x37, 0x37, 0x04,
    0xc6, 0x8e, 0x04, 0x7f, 0x4c, 0x13, 0x02, 0x0f, 0x18, 0xf4, 0xea, 0xd4,
    0x22, 0xf3, 0xa2, 0xbe, 0x00, 0xf9, 0xde, 0x12, 0x04, 0xcb, 0x2e, 0x00,
    0xdd, 0xec, 0xcf, 0xdc, 0xbd, 0xb9, 0xa8, 0xd3, 0x08, 0x0f, 0x4c, 0x36,
    0x32, 0xcd, 0x4a, 0x27, 0x31, 0x98, 0xb7, 0xb7, 0x03, 0xe3, 0xe9, 0xc6,
    0xe2, 0x15, 0x7f, 0xf5, 0xc0, 0xeb, 0x3f, 0x46, 0xfe, 0x4c, 0xfe, 0xf5,
    0x18, 0x47, 0xed, 0x1e, 0xde, 0xeb, 0xc8, 0xad, 0x1d, 0x2e, 0xfe, 0x0d,
    0xa1, 0x12, 0xf6, 0xfc, 0xab, 0xe3, 0x0a, 0xef, 0x1f, 0xd3, 0xff, 0xdb,
    0x1d, 0x27, 0x0a, 0xaf, 0x81, 0xdf, 0xd0, 0xd7, 0xa2, 0xd7, 0xf7, 0xb6,
    0x0c, 0xe9, 0x18, 0x11, 0xea, 0xb8, 0xe3, 0x49, 0x10, 0x24, 0x28, 0x23,
    0x0c, 0xe5, 0xc0, 0x08, 0x5d, 0xd0, 0xc8, 0x53, 0x27, 0xe7, 0xf5, 0x0e,
    0x43, 0xde, 0x1c, 0xfd, 0xd8, 0x17, 0xe3, 0x11, 0x27, 0x24, 0xdb, 0x19,
    0x1e, 0x1f, 0x6b, 0xf7, 0xfc, 0x24, 0x28, 0x5c, 0xff, 0x33, 0x1a, 0x20,
    0x7d, 0x19, 0xff, 0x13, 0x11, 0xcb, 0x12, 0xd4, 0x2e, 0xc8, 0xcb, 0xd6,
    0x0c, 0x72, 0xf0, 0xf8, 0xdb, 0xcb, 0x1d, 0xb8, 0x75, 0x82, 0xf0, 0x7f,
    0x04, 0xfd, 0x21, 0x06, 0xe0, 0xfb, 0xd8, 0x48, 0x7f, 0x69, 0x2b, 0x26,
    0xfe, 0xf6, 0xf9, 0xe4, 0x44, 0x0d, 0x1b, 0xfa, 0x08, 0xef, 0x25, 0x16,
    0x04, 0x23, 0xbe, 0xf8, 0xf7, 0x35, 0xc8, 0x49, 0xb7, 0x05, 0x13, 0xf1,
    0xca, 0x19, 0xe5, 0x0b, 0x22, 0x0d, 0xd0, 0x2c, 0x08, 0x73, 0x81, 0xb0,
    0xa2, 0x8a, 0xe1, 0xdd, 0x96, 0xc9, 0xf9, 0x3f, 0x50, 0xa9, 0xc0, 0xf3,
    0x9c, 0x62, 0xdb, 0x21, 0xaf, 0xa5, 0x44, 0x5b, 0x1c, 0xeb, 0xa8, 0xef,
    0x06, 0x1b, 0x0f, 0xde, 0x2b, 0x6a, 0xf8, 0xa5, 0xfd, 0xe0, 0xcf, 0xef,
    0xcd, 0x70, 0x0a, 0x17, 0xa3, 0x26, 0x57, 0xfd, 0xbc, 0x81, 0xce, 0xd5,
    0xee, 0xc2, 0xfc, 0xb4, 0x2b, 0xf3, 0xde, 0xd5, 0x24, 0x04, 0xce, 0xf1,
    0xa4, 0xeb, 0xfb, 0x47, 0x28, 0x06, 0x08, 0xcb, 0xd9, 0x07, 0xc1, 0x5c,
    0x29, 0x12, 0xb3, 0xf5, 0xed, 0x13, 0x0a, 0x0d, 0x06, 0x7f, 0xc4, 0x41,
    0xc2, 0x36, 0xbb, 0x1a, 0x34, 0xdf, 0x27, 0xea, 0xef, 0x4a, 0xfd, 0x13,
    0xe0, 0x12, 0x32, 0xf8, 0xef, 0xe2, 0xf3, 0x19, 0xdc, 0xfa, 0xd3, 0xcb,
    0xd7, 0xdb, 0xed, 0x17, 0xd9, 0x00, 0xf5, 0x12, 0x16, 0x11, 0x2c, 0xdc,
    0x03, 0xda, 0x23, 0xbe, 0xbc, 0xe3, 0x25, 0x37, 0x61, 0x67, 0x4e, 0x54,
    0x36, 0xff, 0x5f, 0x1f, 0x31, 0x2e, 0x4f, 0xf8, 0xb0, 0x3d, 0x36, 0x4a,
    0x5d, 0xe7, 0x16, 0x3b, 0xcb, 0x0c, 0xc2, 0x1c, 0xbf, 0x2f, 0x81, 0xaa,
    0x96, 0xf4, 0x34, 0x8a, 0xdb, 0x54, 0x44, 0xde, 0xfa, 0x0a, 0xb0, 0x1c,
    0xff, 0x17, 0x09, 0xe3, 0xab, 0xe9, 0x31, 0x66, 0xb7, 0xde, 0xd3, 0x4a,
    0x16, 0x18, 0x00, 0x15, 0x81, 0xd6, 0xea, 0x25, 0xe0, 0x49, 0x34, 0xfd,
    0x3e, 0xbb, 0x24, 0xc1, 0x47, 0xbb, 0xbb, 0xc4, 0xa1, 0x46, 0xc5, 0x10,
    0x43, 0xe8, 0x04, 0x81, 0x09, 0xf4, 0xc9, 0x07, 0xd9, 0x94, 0xe9, 0xe4,
    0x12, 0x32, 0x06, 0xdf, 0xfa, 0xe7, 0x59, 0xc7, 0xed, 0x0b, 0xe8, 0x45,
    0x0a, 0xe4, 0x58, 0xfc, 0x49, 0x03, 0x03, 0x72, 0xe5, 0x08, 0xc5, 0xcf,
    0x11, 0x3e, 0xdd, 0x36, 0x1d, 0x6a, 0x3a, 0xc3, 0x09, 0x6b, 0x99, 0xd9,
    0x22, 0x4e, 0x98, 0x9c, 0x03, 0x11, 0x04, 0xdc, 0x32, 0xa8, 0xf9, 0x38,
    0xac, 0x5a, 0x1b, 0xa9, 0xf6, 0xb1, 0xdd, 0xe8, 0xd5, 0xac, 0xe4, 0x7f,
    0x40, 0x3e, 0x44, 0xdb, 0x6a, 0xe1, 0xc3, 0x08, 0x0b, 0x57, 0x54, 0xd9,
    0xe8, 0xff, 0xf1, 0x0a, 0xd9, 0xaa, 0x02, 0xe8, 0xec, 0xf3, 0x60, 0x7f,
    0x2e, 0xfa, 0x5b, 0x30, 0x2a, 0xfc, 0xf9, 0xbd, 0x21, 0xcf, 0x9c, 0x25,
    0xfd, 0xe3, 0x3c, 0x14, 0x01, 0x66, 0x1c, 0xcf, 0x40, 0xe3, 0x57, 0xe8,
    0xd4, 0x00, 0xb9, 0x3c, 0xff, 0x2a, 0x31, 0x22, 0x02, 0x81, 0xdb, 0x13,
    0x38, 0x46, 0x89, 0x31, 0xd5, 0xc3, 0xea, 0xfa, 0x88, 0x4f, 0x2c, 0xbe,
    0x1b, 0x2a, 0x1c, 0x2a, 0x24, 0x2c, 0xd6, 0xea, 0x34, 0x57, 0xd8, 0xc1,
    0xf7, 0xf1, 0xdd, 0x37, 0xa2, 0x43, 0x71, 0xf4, 0x13, 0x05, 0xbe, 0x24,
    0x49, 0x04, 0x03, 0xc1, 0x44, 0x21, 0xe4, 0xba, 0x00, 0xc4, 0xc0, 0x0a,
    0x4a, 0xe1, 0xc0, 0xf7, 0x66, 0xdf, 0x7f, 0xa8, 0x03, 0x02, 0xeb, 0x05,
    0x29, 0xe7, 0xec, 0xef, 0x01, 0xed, 0x20, 0x11, 0xec, 0xf6, 0x3b, 0xfe,
    0x4b, 0x39, 0x2a, 0xfc, 0x0a, 0xef, 0x49, 0xff, 0x03, 0x1b, 0x32, 0x20,
    0x31, 0xec, 0xf0, 0x38, 0x81, 0xea, 0x0f, 0xed, 0x20, 0xe5, 0xca, 0xc1,
    0xcd, 0x11, 0xd2, 0x0e, 0xf9, 0xf5, 0xe4, 0xf3, 0x17, 0x37, 0xec, 0xbc,
    0xf1, 0x1c, 0x09, 0x1e, 0xe9, 0x3a, 0x1a, 0x06, 0xd7, 0xf0, 0x15, 0x13,
    0xbf, 0x1a, 0x1e, 0x26, 0x1f, 0x16, 0xf9, 0x3b, 0x34, 0x49, 0x56, 0x5f,
    0x3e, 0x1b, 0x41, 0xf4, 0x16, 0x39, 0x7f, 0x2a, 0xeb, 0x01, 0xe3, 0x3b,
    0xd3, 0xfd, 0xef, 0xd6, 0x1e, 0xb2, 0x2b, 0x03, 0xc6, 0xd2, 0xe4, 0xfa,
    0xf4, 0x4e, 0x4f, 0x1b, 0xda, 0x2e, 0x07, 0xcd, 0xf6, 0x17, 0x09, 0xcf,
    0xf5, 0xdd, 0x1b, 0xe4, 0x2c, 0x7f, 0xe7, 0xe2, 0x0e, 0xfd, 0xf9, 0x08,
    0xc5, 0xf5, 0xe3, 0xc4, 0x20, 0xf9, 0x0e, 0x07, 0xf6, 0x10, 0x3c, 0x11,
    0xe1, 0x38, 0xea, 0xc3, 0x12, 0x12, 0x06, 0x1c, 0xf6, 0xbf, 0xdb, 0x34,
    0xce, 0x21, 0x01, 0xf0, 0x16, 0xba, 0x2d, 0x46, 0x93, 0x06, 0xa9, 0xb4,
    0x2a, 0x3f, 0xf8, 0x2e, 0xed, 0x3b, 0x95, 0xea, 0x00, 0x14, 0xb6, 0xc5,
    0x6f, 0x3f, 0xe2, 0xc2, 0xcc, 0xfa, 0x0b, 0x81, 0xbc, 0xda, 0x22, 0x3a,
    0x38, 0xdb, 0xf0, 0xd9, 0x0a, 0x57, 0x45, 0xe6, 0x04, 0x61, 0x81, 0x0d,
    0x8f, 0x1c, 0xeb, 0xf8, 0xee, 0xf3, 0xf6, 0xd8, 0x19, 0xac, 0xc3, 0x1f,
    0x8d, 0x15, 0x1b, 0x20, 0x11, 0x66, 0x53, 0x60, 0x32, 0xe9, 0x18, 0x3d,
    0x03, 0xd2, 0xfa, 0x35, 0x16, 0x02, 0xfd, 0xc4, 0xd8, 0x15, 0x1b, 0xc1,
    0xee, 0xe7, 0x01, 0x03, 0x0c, 0xe6, 0x18, 0xee, 0x0d, 0x15, 0x21, 0x7f,
    0xd8, 0xd6, 0x08, 0x0e, 0x05, 0x38, 0xf3, 0xf8, 0xe6, 0xcc, 0xe3, 0xfe,
    0x37, 0x06, 0xee, 0x0a, 0x2d, 0x05, 0x0a, 0x28, 0x3a, 0x22, 0xe7, 0x13,
    0xf7, 0x22, 0xf7, 0x04, 0xf2, 0xf3, 0xf3, 0x24, 0x05, 0x2f, 0x7c, 0x5a,
    0x2b, 0x76, 0xa9, 0xf6, 0xc0, 0xba, 0x33, 0x0e, 0xd3, 0x4f, 0x09, 0xf4,
    0x7f, 0x41, 0x1a, 0x0b, 0xc1, 0xc6, 0xef, 0xff, 0x2f, 0x0b, 0xb4, 0xc5,
    0xf0, 0x00, 0xfd, 0x1b, 0xec, 0xec, 0x4c, 0x0b, 0x56, 0x0f, 0xa5, 0x99,
    0xfc, 0xc7, 0x21, 0xb4, 0xbd, 0x33, 0x48, 0x35, 0x15, 0x10, 0x37, 0xee,
    0xd7, 0x2d, 0x2d, 0xcf, 0x48, 0x49, 0x6a, 0xd1, 0x55, 0xfb, 0xbc, 0x27,
    0xde, 0xb3, 0xb7, 0x14, 0x4d, 0x51, 0x31, 0x13, 0x81, 0xdd, 0xbe, 0x2d,
    0xce, 0x3a, 0xc7, 0x35, 0x9f, 0xcd, 0xbe, 0xdb, 0xe6, 0xf5, 0xff, 0xff,
    0x04, 0x00, 0x00, 0x00, 0xa8, 0x00, 0x00, 0x00, 0xef, 0xff, 0xff, 0xff,
    0xb3, 0xff, 0xff, 0xff, 0x3d, 0xff, 0xff, 0xff, 0x4a, 0xff, 0xff, 0xff,
    0xe2, 0xff, 0xff, 0xff, 0xe8, 0xff, 0xff, 0xff, 0x8a, 0xff, 0xff, 0xff,
    0x32, 0xff, 0xff, 0xff, 0x65, 0xff, 0xff, 0xff, 0xa3, 0xff, 0xff, 0xff,
    0x2c, 0x00, 0x00, 0x00, 0xf5, 0xfe, 0xff, 0xff, 0x7b, 0xff, 0xff, 0xff,
    0x94, 0xff, 0xff, 0xff, 0xe0, 0xff, 0xff, 0xff, 0x71, 0xff, 0xff, 0xff,
    0x80, 0xff, 0xff, 0xff, 0x30, 0x00, 0x00, 0x00, 0x37, 0xff, 0xff, 0xff,
    0x25, 0xff, 0xff, 0xff, 0xa1, 0xff, 0xff, 0xff, 0xa5, 0xff, 0xff, 0xff,
    0x4f, 0xff, 0xff, 0xff, 0x90, 0xff, 0xff, 0xff, 0x4a, 0x00, 0x00, 0x00,
    0x7d, 0xff, 0xff, 0xff, 0x5c, 0xff, 0xff, 0xff, 0x67, 0xff, 0xff, 0xff,
    0x75, 0xff, 0xff, 0xff, 0x96, 0xff, 0xff, 0xff, 0x5b, 0xff, 0xff, 0xff,
    0x43, 0x00, 0x00, 0x00, 0x9e, 0xff, 0xff, 0xff, 0x86, 0xff, 0xff, 0xff,
    0x28, 0xff, 0xff, 0xff, 0x9a, 0xff, 0xff, 0xff, 0x11, 0x00, 0x00, 0x00,
    0x98, 0xff, 0xff, 0xff, 0x68, 0xff, 0xff, 0xff, 0xf2, 0xff, 0xff, 0xff,
    0x47, 0xff, 0xff, 0xff, 0xa1, 0xff, 0xff, 0xff, 0x9a, 0xf6, 0xff, 0xff,
    0x04, 0x00, 0x00, 0x00, 0x40, 0x05, 0x00, 0x00, 0xb8, 0x53, 0x2c, 0x9c,
    0x1c, 0x40, 0x45, 0xd2, 0x1e, 0xfe, 0xad, 0xb1, 0xed, 0xd0, 0x30, 0xd3,
    0xe8, 0xbd, 0xeb, 0xe5, 0xad, 0xce, 0xd3, 0xe4, 0xdf, 0xf4, 0x19, 0xd9,
    0x81, 0xd9, 0xaa, 0xed, 0x39, 0x09, 0x3b, 0xc6, 0xa0, 0xbf, 0xe8, 0x4c,
    0x2c, 0xcc, 0x8f, 0x0e, 0xe6, 0x20, 0xca, 0x5f, 0x1c, 0x3b, 0x00, 0x37,
    0x40, 0x9f, 0x0e, 0x20, 0x36, 0x0d, 0xce, 0x81, 0xce, 0xdc, 0x1c, 0xe1,
    0x32, 0x08, 0x9f, 0xe7, 0xc9, 0xe3, 0x31, 0x94, 0xf8, 0x28, 0xbe, 0xf9,
    0xec, 0xd0, 0xac, 0x38, 0xcd, 0x5a, 0xbf, 0xf9, 0x39, 0x07, 0x7f, 0x1a,
    0x11, 0x0a, 0xef, 0xee, 0x35, 0xd6, 0x13, 0x26, 0x39, 0x13, 0xcb, 0x53,
    0xe0, 0xf3, 0x5a, 0xec, 0x66, 0x37, 0xcf, 0x17, 0xfa, 0x16, 0x5d, 0xec,
    0xcb, 0x08, 0x70, 0xd8, 0x49, 0xd0, 0x5f, 0x0d, 0xea, 0x1d, 0x6f, 0xf3,
    0x20, 0x08, 0xa9, 0xe0, 0xaa, 0xb1, 0xe0, 0xf1, 0xac, 0x28, 0xd3, 0xc0,
    0x46, 0xf1, 0x05, 0xda, 0x48, 0x02, 0xc4, 0x22, 0x81, 0x08, 0x13, 0xb7,
    0x2e, 0xb7, 0x06, 0xee, 0xbf, 0x05, 0x2c, 0x1b, 0xc8, 0x25, 0xb4, 0xcd,
    0x02, 0x48, 0x32, 0xd0, 0x95, 0x4c, 0xb0, 0x14, 0xed, 0x32, 0xbb, 0x8f,
    0x39, 0xfb, 0xc9, 0x2e, 0xd2, 0xeb, 0xd2, 0xdf, 0x81, 0x1f, 0x51, 0xcf,
    0xd0, 0x43, 0xd6, 0x9c, 0xfa, 0xd4, 0x1d, 0x41, 0x85, 0xd9, 0xb7, 0x24,
    0xde, 0xbc, 0xce, 0xf7, 0xda, 0x13, 0xc0, 0x3c, 0x09, 0x21, 0xd9, 0x50,
    0xbb, 0x07, 0x39, 0x31, 0x1b, 0x22, 0xfc, 0x09, 0xaf, 0xd9, 0xfc, 0xfb,
    0x29, 0x16, 0x26, 0xd9, 0xef, 0x17, 0x02, 0xf6, 0x78, 0x29, 0x27, 0x4e,
    0xc2, 0xd4, 0xde, 0x36, 0x54, 0x0f, 0x29, 0x54, 0x5a, 0x17, 0xcb, 0xf0,
    0x19, 0xf6, 0x08, 0xbf, 0x7f, 0xe8, 0x5a, 0x33, 0x55, 0x8f, 0xe0, 0xf6,
    0x6c, 0x23, 0xde, 0x3e, 0xbb, 0xc1, 0x34, 0x12, 0xfe, 0x05, 0x43, 0x0d,
    0xba, 0xd2, 0xf5, 0xc9, 0x81, 0xc4, 0xef, 0xb8, 0x20, 0xdd, 0xad, 0xb9,
    0xd3, 0xaf, 0x17, 0xf1, 0x07, 0xb8, 0x18, 0x99, 0x09, 0xdd, 0x13, 0x43,
    0x18, 0x20, 0xdb, 0xf8, 0xf4, 0xfd, 0x52, 0x31, 0x30, 0xfc, 0xd7, 0xef,
    0x2f, 0x03, 0xf3, 0xed, 0x58, 0x0a, 0xbd, 0xe5, 0xc4, 0xff, 0x17, 0x97,
    0x29, 0x10, 0xba, 0x8d, 0xf3, 0x41, 0xb2, 0xd3, 0x29, 0xfd, 0xb7, 0xc1,
    0x03, 0x6e, 0xd3, 0x8d, 0x81, 0x3d, 0x22, 0x01, 0xc9, 0x65, 0x31, 0xf8,
    0x3d, 0xa8, 0xc3, 0xbb, 0x9d, 0x67, 0x5d, 0x13, 0xc1, 0x1b, 0x15, 0x2e,
    0xda, 0xfa, 0x0c, 0xff, 0x12, 0xb1, 0xcd, 0xdf, 0x04, 0xe2, 0x9e, 0x3e,
    0x94, 0xde, 0x02, 0x2c, 0x09, 0xee, 0x81, 0x2b, 0x41, 0xd2, 0xf8, 0x26,
    0xa1, 0xa5, 0xdc, 0x1d, 0x5e, 0x34, 0xc0, 0x81, 0xf8, 0x42, 0xc5, 0xa1,
    0xd0, 0x16, 0xae, 0xe5, 0x8a, 0xb3, 0x27, 0x10, 0xfa, 0xf2, 0x5a, 0xd8,
    0x32, 0xf3, 0x1d, 0xdc, 0x19, 0xa1, 0x2c, 0x31, 0xb9, 0x9a, 0xc9, 0xcd,
    0x09, 0xeb, 0xd0, 0xdc, 0x6b, 0x0b, 0x7f, 0xb5, 0x48, 0xbd, 0x78, 0x2c,
    0xdb, 0x09, 0xd9, 0x2a, 0xf4, 0x05, 0x08, 0x65, 0x42, 0xf1, 0x08, 0x7f,
    0xca, 0xdb, 0x69, 0x38, 0x56, 0x6b, 0x1d, 0xfd, 0x44, 0x2e, 0x7a, 0xfa,
    0xd5, 0xef, 0xd1, 0x1f, 0x0f, 0x57, 0x4d, 0xa8, 0x1b, 0x46, 0xd7, 0x25,
    0x71, 0xb0, 0x58, 0xf6, 0x1c, 0xf4, 0x15, 0xe1, 0xfe, 0x21, 0x43, 0xf7,
    0xf7, 0xd8, 0x65, 0xf8, 0xe7, 0x7f, 0xf9, 0xde, 0x43, 0x5d, 0x25, 0xdc,
    0xe0, 0xfb, 0x23, 0x3c, 0x6e, 0xe2, 0x05, 0x28, 0x4f, 0xde, 0x59, 0x35,
    0x6c, 0xf8, 0xeb, 0x1e, 0x6b, 0x22, 0x2a, 0xde, 0x56, 0xd8, 0x0a, 0xea,
    0xdb, 0x32, 0x89, 0x43, 0x15, 0xa0, 0xb8, 0xeb, 0xa8, 0x1b, 0x25, 0xcd,
    0x20, 0x2a, 0x81, 0x06, 0xa5, 0xd7, 0x32, 0xb0, 0xfe, 0xe2, 0xfb, 0x33,
    0x3a, 0x40, 0xf5, 0xd3, 0x25, 0xa7, 0xc6, 0x31, 0xe0, 0x2b, 0xbb, 0xdc,
    0xdc, 0x2c, 0x3e, 0xd9, 0xf2, 0x06, 0x16, 0xd0, 0xab, 0x31, 0xa0, 0xad,
    0x1e, 0xba, 0x01, 0xdb, 0x71, 0x27, 0x09, 0xa0, 0xa6, 0x1e, 0xdc, 0xff,
    0xd2, 0x45, 0xa1, 0x5a, 0x05, 0xb4, 0x3c, 0xe6, 0x0b, 0x81, 0xd0, 0xf3,
    0x90, 0x01, 0x08, 0xf6, 0x2e, 0xc0, 0x52, 0xf8, 0x9b, 0x27, 0xa5, 0xb1,
    0x32, 0x22, 0xfb, 0x07, 0xa7, 0x19, 0x01, 0xdf, 0xb5, 0xf5, 0x0b, 0xbd,
    0xfe, 0xe9, 0xdd, 0xdc, 0xea, 0xbe, 0x11, 0x30, 0x8d, 0xb3, 0xae, 0x27,
    0x05, 0xf2, 0xb9, 0x1d, 0x81, 0xf9, 0xef, 0x37, 0x26, 0xfc, 0xd8, 0x38,
    0xb0, 0x19, 0x31, 0x1c, 0x73, 0x43, 0xfe, 0xbb, 0xdc, 0xeb, 0x83, 0xbc,
    0xf2, 0x4d, 0x0d, 0x1d, 0xf5, 0x5d, 0x54, 0xcd, 0x16, 0x46, 0x1b, 0x37,
    0xb3, 0x01, 0x06, 0x38, 0xd1, 0x38, 0x2c, 0x6f, 0x09, 0xc4, 0xdd, 0xca,
    0x7f, 0xbc, 0x17, 0x09, 0x11, 0x25, 0xd3, 0xd1, 0xe6, 0x04, 0x01, 0xb4,
    0xe7, 0x3d, 0x3d, 0x31, 0x33, 0x2d, 0x50, 0xeb, 0xef, 0xdd, 0xc9, 0xa2,
    0xa9, 0x81, 0x0f, 0xc7, 0x31, 0x83, 0xb5, 0x4e, 0x06, 0xc0, 0xa1, 0x01,
    0x34, 0x18, 0xf6, 0x14, 0x4d, 0xbe, 0xe5, 0xce, 0x50, 0x96, 0xb5, 0xcb,
    0x26, 0x26, 0x0e, 0xe8, 0xfa, 0x01, 0xb3, 0x09, 0x81, 0xf8, 0x16, 0x07,
    0x39, 0x3a, 0x3d, 0x4d, 0xb2, 0x94, 0x42, 0xfa, 0x3c, 0x10, 0xaa, 0xf3,
    0x0e, 0x1f, 0x2d, 0x41, 0x57, 0xb0, 0xfb, 0x65, 0x34, 0x84, 0xe7, 0x86,
    0x93, 0xc1, 0x20, 0x9f, 0x67, 0xdf, 0x90, 0xe6, 0xda, 0x30, 0xfc, 0xe3,
    0x1b, 0xa7, 0xb8, 0x65, 0x22, 0xa4, 0x23, 0xdf, 0xbc, 0xe2, 0x14, 0xba,
    0xed, 0xce, 0xa8, 0xfd, 0x7f, 0x3f, 0xf9, 0xba, 0xc0, 0x05, 0x2e, 0xb1,
    0x05, 0x57, 0xa2, 0x96, 0x0f, 0x4a, 0xb8, 0xcb, 0xb3, 0x04, 0x2a, 0xa9,
    0xaf, 0xcc, 0x4c, 0xc1, 0xd8, 0x0a, 0x1a, 0x4c, 0xc6, 0xdd, 0xc6, 0x09,
    0x10, 0xc6, 0xb0, 0x2b, 0x12, 0xfa, 0x19, 0x10, 0xab, 0xd0, 0x16, 0x99,
    0x3f, 0xbb, 0x48, 0xcb, 0xc0, 0xb9, 0xf6, 0xdd, 0x34, 0xb7, 0x81, 0x22,
    0xc6, 0xeb, 0xd8, 0x24, 0x1c, 0x26, 0x3a, 0x12, 0xf4, 0xbd, 0xde, 0xc0,
    0x1a, 0xfc, 0xc1, 0xf0, 0x81, 0xb5, 0xb4, 0x26, 0xce, 0x30, 0xee, 0xfb,
    0xe4, 0x32, 0xac, 0xb9, 0xbb, 0xbe, 0xfb, 0xdc, 0x25, 0x8e, 0xc7, 0x29,
    0x1f, 0xb9, 0x8c, 0x08, 0xe6, 0xae, 0xb9, 0xc7, 0x09, 0x3a, 0x06, 0xcc,
    0xea, 0xe9, 0x55, 0x9e, 0xd0, 0x0f, 0x14, 0x41, 0x81, 0x5f, 0xfd, 0x4c,
    0xdf, 0x2a, 0x8c, 0xaf, 0x02, 0x2c, 0x25, 0x36, 0xf4, 0xf7, 0x94, 0xf7,
    0x8d, 0x00, 0xac, 0xf1, 0x20, 0x1b, 0xf9, 0x87, 0xb0, 0x17, 0xce, 0xaf,
    0x1b, 0xb4, 0xfd, 0x28, 0x9a, 0x12, 0xa8, 0x85, 0xb2, 0x26, 0x2e, 0x04,
    0x1c, 0x7f, 0x22, 0xd6, 0xa3, 0xfe, 0xe4, 0xda, 0x0f, 0xaa, 0x6e, 0x14,
    0xeb, 0xad, 0xbc, 0xe5, 0xe7, 0x0d, 0x1c, 0x5f, 0xf3, 0x03, 0xd8, 0xbf,
    0x8e, 0xaf, 0x14, 0xe6, 0x3c, 0xc3, 0xf4, 0x31, 0xf5, 0x89, 0xd7, 0x3b,
    0x1a, 0x06, 0xa2, 0xdf, 0xae, 0xa5, 0xd8, 0x0f, 0x0a, 0x1f, 0x01, 0x1f,
    0x2b, 0xec, 0xdb, 0xd4, 0x0a, 0xe7, 0xfd, 0x2c, 0x87, 0xd1, 0x18, 0xeb,
    0x33, 0x2a, 0x81, 0xae, 0x8f, 0xe7, 0xf4, 0xd2, 0xed, 0x24, 0xe1, 0x01,
    0xfd, 0x4b, 0x34, 0xeb, 0xad, 0xe2, 0xd7, 0x24, 0x4b, 0xb4, 0x0c, 0xf5,
    0xee, 0xcf, 0xd5, 0x19, 0x69, 0x15, 0xf9, 0x41, 0x7f, 0xb9, 0x2f, 0x39,
    0xe0, 0x0e, 0x70, 0x55, 0x39, 0xf5, 0xbd, 0xec, 0x22, 0xf8, 0x38, 0xcb,
    0x2a, 0x0b, 0x3f, 0xd9, 0x12, 0xd8, 0x63, 0x12, 0x05, 0x0c, 0x27, 0x0f,
    0x31, 0x02, 0x23, 0x3b, 0x52, 0x36, 0xfd, 0x13, 0xdd, 0x4c, 0x43, 0xc0,
    0xe6, 0x39, 0x40, 0xf5, 0xd7, 0x7f, 0xdd, 0xfb, 0x21, 0x28, 0x10, 0xda,
    0x1e, 0xf9, 0x13, 0xf8, 0x24, 0xe2, 0xf1, 0x49, 0xf4, 0xf2, 0x10, 0xfa,
    0x43, 0x06, 0x12, 0xd1, 0x2d, 0xe3, 0x4d, 0xe0, 0x16, 0xc8, 0xeb, 0x0b,
    0xce, 0xfe, 0x49, 0xad, 0x3c, 0xb6, 0x83, 0x29, 0x81, 0x0f, 0x57, 0x8c,
    0x00, 0x9b, 0x18, 0x43, 0xbb, 0x4c, 0xa5, 0x17, 0x99, 0x3a, 0xe6, 0xf7,
    0x9b, 0x8b, 0x18, 0xb5, 0xd0, 0x53, 0x22, 0x47, 0xb0, 0x17, 0x96, 0xef,
    0x94, 0xee, 0x18, 0x39, 0x2a, 0xb9, 0xb0, 0xca, 0xe4, 0x0e, 0x1f, 0xfd,
    0x3e, 0x04, 0xb8, 0x81, 0x03, 0xe5, 0x07, 0x9d, 0x13, 0xd3, 0x20, 0xcf,
    0x26, 0x16, 0xdb, 0xb5, 0xe7, 0x21, 0x8d, 0xb2, 0xf0, 0xf6, 0xbd, 0xd8,
    0x15, 0xe9, 0xd9, 0xd0, 0xda, 0xdd, 0x11, 0x3a, 0x03, 0xd5, 0x63, 0x5c,
    0xfa, 0x0e, 0xf1, 0xcb, 0x54, 0xe6, 0x4a, 0x2c, 0xf6, 0xf5, 0xbf, 0x6c,
    0xe4, 0xfe, 0x1c, 0x18, 0x5b, 0xf8, 0xee, 0x07, 0x07, 0x7c, 0x7f, 0xc8,
    0x06, 0x41, 0x1b, 0x05, 0x46, 0x5d, 0x5a, 0xfe, 0xef, 0xf4, 0x3a, 0x14,
    0x05, 0xc3, 0x9c, 0xb3, 0x9c, 0xe7, 0x23, 0x0a, 0xb7, 0xd2, 0x81, 0x25,
    0xe4, 0xbc, 0xfa, 0xc4, 0xc3, 0xeb, 0x2a, 0x0e, 0xf8, 0xda, 0xc9, 0xfd,
    0xf4, 0x0e, 0xb1, 0x97, 0xa0, 0xb6, 0xef, 0xb9, 0xca, 0x0f, 0xca, 0xdd,
    0xe4, 0xdd, 0x1d, 0xe6, 0xf7, 0x21, 0xfb, 0xdb, 0x45, 0x0a, 0xc4, 0xd3,
    0xa2, 0x32, 0xca, 0xd4, 0x92, 0xe4, 0x5c, 0x0f, 0x9a, 0x25, 0x06, 0xdd,
    0x23, 0xfb, 0x81, 0xd2, 0x87, 0x09, 0xe8, 0x8a, 0x99, 0x9d, 0x06, 0x51,
    0x58, 0xbf, 0x11, 0x26, 0x05, 0xa9, 0xcb, 0x0b, 0x3c, 0xc5, 0x9d, 0x26,
    0x24, 0x4c, 0x3a, 0xcb, 0x17, 0xf7, 0xe8, 0xec, 0xe6, 0x55, 0xc4, 0xf2,
    0xe3, 0xfa, 0x79, 0x38, 0xf1, 0xf6, 0x2d, 0xe5, 0x74, 0xbf, 0x1f, 0xeb,
    0xf8, 0xd6, 0x0f, 0x73, 0x0e, 0xdf, 0x0c, 0x23, 0xcc, 0xee, 0xf8, 0x5e,
    0x7f, 0xd4, 0x0d, 0xe2, 0x4c, 0x2e, 0xd5, 0x20, 0xe6, 0xfb, 0xff, 0xff,
    0x04, 0x00, 0x00, 0x00, 0x80, 0x00, 0x00, 0x00, 0xdf, 0xfe, 0xff, 0xff,
    0x33, 0x01, 0x00, 0x00, 0x0d, 0xfe, 0xff, 0xff, 0xe5, 0x01, 0x00, 0x00,
    0x6e, 0x02, 0x00, 0x00, 0x20, 0xfe, 0xff, 0xff, 0xa3, 0x01, 0x00, 0x00,
    0xb0, 0x00, 0x00, 0x00, 0x4f, 0x00, 0x00, 0x00, 0xa7, 0xfe, 0xff, 0xff,
    0xc7, 0xfd, 0xff, 0xff, 0x75, 0xfe, 0xff, 0xff, 0x04, 0x02, 0x00, 0x00,
    0x05, 0xff, 0xff, 0xff, 0xdf, 0x01, 0x00, 0x00, 0xdc, 0xfd, 0xff, 0xff,
    0x48, 0x01, 0x00, 0x00, 0x91, 0xfe, 0xff, 0xff, 0x2e, 0xff, 0xff, 0xff,
    0x71, 0x00, 0x00, 0x00, 0xba, 0x02, 0x00, 0x00, 0xa8, 0x01, 0x00, 0x00,
    0xfa, 0x00, 0x00, 0x00, 0x8d, 0x00, 0x00, 0x00, 0x3c, 0xfe, 0xff, 0xff,
    0xa5, 0xfd, 0xff, 0xff, 0x9e, 0xfe, 0xff, 0xff, 0x3d, 0x00, 0x00, 0x00,
    0x9d, 0xfc, 0xff, 0xff, 0x4b, 0x01, 0x00, 0x00, 0x18, 0x02, 0x00, 0x00,
    0x3a, 0xfe, 0xff, 0xff, 0x72, 0xfc, 0xff, 0xff, 0x04, 0x00, 0x00, 0x00,
    0x00, 0x02, 0x00, 0x00, 0x0e, 0x0f, 0x6d, 0xc1, 0xf8, 0x1a, 0xa9, 0xf7,
    0x3c, 0xbf, 0x6a, 0x72, 0xda, 0x81, 0x94, 0x34, 0x1c, 0xe5, 0x24, 0xb0,
    0xa9, 0xf9, 0x89, 0xd3, 0x58, 0x52, 0xa8, 0x85, 0x2b, 0x2d, 0x12, 0xfd,
    0x2a, 0xe7, 0x4b, 0x1a, 0xcf, 0x6c, 0xd8, 0xd8, 0xf3, 0x5a, 0x74, 0x7f,
    0xd4, 0x2d, 0x28, 0x1c, 0x3f, 0x38, 0xf8, 0x4a, 0xdd, 0x87, 0x09, 0x13,
    0x36, 0x01, 0xee, 0x9c, 0x1f, 0xae, 0xa6, 0x0d, 0x25, 0x04, 0x03, 0xb7,
    0xc1, 0xfb, 0x13, 0x68, 0xfe, 0x82, 0xf9, 0xef, 0xe7, 0xa7, 0x5c, 0x1e,
    0x10, 0x54, 0x24, 0x1b, 0x96, 0x14, 0x1c, 0x65, 0xdc, 0x0a, 0xbb, 0x7f,
    0xa2, 0xd1, 0xd2, 0xac, 0xe1, 0x5c, 0x46, 0xdd, 0xe5, 0xef, 0xd1, 0x18,
    0x00, 0xd6, 0x31, 0xfd, 0xef, 0x06, 0xac, 0x41, 0xc9, 0x5d, 0x7d, 0xe7,
    0xbb, 0xe0, 0x81, 0x3c, 0x5a, 0x5b, 0xe3, 0x45, 0xcb, 0x35, 0xb9, 0x1b,
    0xe3, 0xe2, 0xae, 0x27, 0x27, 0x21, 0x04, 0xd5, 0xaa, 0xe8, 0x1c, 0xdf,
    0x1c, 0xd3, 0x7f, 0x46, 0xeb, 0xa4, 0xe0, 0x3c, 0x4a, 0xf6, 0x17, 0xd8,
    0xcf, 0xbc, 0xc5, 0xa8, 0xdc, 0x0f, 0x5b, 0x19, 0x3f, 0xbb, 0x1e, 0x16,
    0xc1, 0x6a, 0x94, 0x17, 0x2b, 0xdc, 0x6b, 0x7f, 0xea, 0x5a, 0x92, 0x3f,
    0xf3, 0x08, 0x4a, 0x21, 0x10, 0xc6, 0xcb, 0xed, 0xdb, 0xaf, 0xe5, 0xd8,
    0xb2, 0xd8, 0x56, 0x02, 0x14, 0x81, 0xab, 0x7c, 0x74, 0x00, 0x6b, 0xa1,
    0x4d, 0x43, 0xbc, 0xb1, 0xa2, 0x50, 0xc3, 0x9a, 0xea, 0x20, 0x66, 0xa8,
    0x40, 0xaf, 0x29, 0x2f, 0xd8, 0x4f, 0xc3, 0x36, 0xc5, 0xee, 0x2e, 0x00,
    0x0f, 0x5b, 0xdd, 0x6c, 0x60, 0xd8, 0x5b, 0x68, 0x4f, 0x18, 0xc1, 0x93,
    0x48, 0x62, 0x57, 0xc4, 0x1d, 0xd7, 0xf3, 0xb3, 0x6a, 0x08, 0x65, 0x36,
    0xba, 0x89, 0xee, 0x7f, 0xc3, 0x6f, 0x1b, 0xb6, 0x11, 0xae, 0xa7, 0x4d,
    0xe8, 0x40, 0xcc, 0x04, 0x83, 0x2d, 0x3e, 0x19, 0xcb, 0xd7, 0xdd, 0x14,
    0x81, 0x52, 0x63, 0x9c, 0xcb, 0x2f, 0x27, 0xf3, 0xd2, 0x3a, 0x42, 0xb2,
    0xf9, 0xbe, 0xee, 0x2e, 0xdd, 0x28, 0xc4, 0x93, 0x28, 0x9b, 0x69, 0xe5,
    0xd2, 0x81, 0x91, 0x27, 0xbb, 0x4d, 0xe5, 0x1e, 0x84, 0x54, 0x9a, 0xbc,
    0xe3, 0xcf, 0xa7, 0x85, 0xcf, 0xcd, 0x02, 0xd5, 0x37, 0x0a, 0xb9, 0xe2,
    0x00, 0x14, 0x97, 0x27, 0x3e, 0xc9, 0xf0, 0x36, 0x40, 0xca, 0x00, 0x81,
    0x53, 0x05, 0x52, 0xc6, 0x33, 0x36, 0xaf, 0x1c, 0x38, 0x07, 0x33, 0x54,
    0xbd, 0xb3, 0x39, 0x1f, 0xc9, 0x4a, 0x1f, 0x8e, 0x59, 0x0f, 0xc7, 0x70,
    0xfa, 0xd6, 0x59, 0x5c, 0x5a, 0xb4, 0xc5, 0xb2, 0x0c, 0xec, 0x7f, 0xff,
    0x24, 0x4a, 0xe1, 0xfe, 0x1a, 0x4e, 0xf0, 0x76, 0xf6, 0x99, 0x13, 0x61,
    0xa8, 0xf3, 0x65, 0xd5, 0x20, 0x33, 0xed, 0xed, 0xb4, 0x3a, 0xf1, 0xab,
    0x05, 0x4a, 0xfd, 0xcf, 0x33, 0x2d, 0xd6, 0xeb, 0x2c, 0x67, 0x5c, 0x10,
    0xcd, 0x03, 0x2f, 0x0b, 0xfa, 0x61, 0x05, 0x81, 0x6a, 0x1b, 0xe4, 0x49,
    0x24, 0x39, 0xea, 0x2e, 0x22, 0xc6, 0xf8, 0x49, 0xef, 0xec, 0x9a, 0x81,
    0xdc, 0x1e, 0x79, 0xe0, 0x25, 0xbf, 0x12, 0x4c, 0x3f, 0x16, 0x57, 0x76,
    0xab, 0xd8, 0x4e, 0x07, 0xcf, 0x37, 0xd0, 0xbb, 0xab, 0xbd, 0xae, 0x4a,
    0xd4, 0xce, 0x88, 0xa9, 0x24, 0x3d, 0x35, 0x9e, 0xb5, 0x20, 0x1d, 0x96,
    0xb0, 0x81, 0xe4, 0x18, 0x8b, 0x96, 0x28, 0x47, 0x19, 0x20, 0xf2, 0x57,
    0x1e, 0xbf, 0x2b, 0x8c, 0x22, 0xdc, 0x30, 0xff, 0xa2, 0x25, 0xd5, 0x13,
    0x23, 0x7f, 0x3b, 0x2a, 0xb3, 0x36, 0xab, 0x51, 0xa7, 0xcd, 0x0d, 0xf6,
    0xed, 0xef, 0xcf, 0xc4, 0xfe, 0x39, 0x63, 0x09, 0x3c, 0xde, 0xca, 0x76,
    0x7e, 0xfe, 0xff, 0xff, 0x04, 0x00, 0x00, 0x00, 0x40, 0x00, 0x00, 0x00,
    0xa3, 0xfd, 0xff, 0xff, 0xdb, 0xfe, 0xff, 0xff, 0x27, 0x00, 0x00, 0x00,
    0x3c, 0xff, 0xff, 0xff, 0xb8, 0x01, 0x00, 0x00, 0x29, 0xfe, 0xff, 0xff,
    0x53, 0x00, 0x00, 0x00, 0xb8, 0x01, 0x00, 0x00, 0x4f, 0xff, 0xff, 0xff,
    0xa4, 0xff, 0xff, 0xff, 0x2d, 0x01, 0x00, 0x00, 0x1d, 0x02, 0x00, 0x00,
    0xd2, 0xfe, 0xff, 0xff, 0x8d, 0x01, 0x00, 0x00, 0x16, 0xff, 0xff, 0xff,
    0xb2, 0xfe, 0xff, 0xff, 0xca, 0xfe, 0xff, 0xff, 0x04, 0x00, 0x00, 0x00,
    0x80, 0x00, 0x00, 0x00, 0xcc, 0xe9, 0xcb, 0xde, 0x33, 0xfa, 0xe6, 0x64,
    0x99, 0x2a, 0x77, 0x17, 0xef, 0x7f, 0xee, 0xc8, 0xee, 0xeb, 0x57, 0xbe,
    0x40, 0xc2, 0x59, 0x7f, 0x90, 0xef, 0x29, 0x1c, 0xdf, 0x40, 0x26, 0xb2,
    0xcd, 0xb8, 0x4c, 0xd5, 0xe0, 0xd3, 0x0c, 0xf3, 0x31, 0x0a, 0x7f, 0x7d,
    0x97, 0x71, 0xbe, 0xb9, 0x9b, 0xbd, 0x73, 0xa0, 0xd6, 0xf3, 0x0d, 0x7f,
    0xff, 0x9d, 0x18, 0xb9, 0x12, 0xe8, 0x1a, 0xca, 0xf6, 0x96, 0x81, 0xf4,
    0x98, 0xc2, 0x32, 0x99, 0xaf, 0x62, 0x27, 0xeb, 0x0d, 0x01, 0x0d, 0xb9,
    0x9b, 0x99, 0xb8, 0x76, 0x81, 0x9d, 0x4f, 0xae, 0xee, 0xc2, 0x91, 0xff,
    0xed, 0xcd, 0x89, 0xd9, 0xc6, 0x8c, 0x12, 0xdb, 0x90, 0xfa, 0xa7, 0x81,
    0x21, 0x53, 0xc9, 0xf6, 0xf8, 0xf5, 0x99, 0x92, 0xcb, 0xcc, 0xff, 0x24,
    0x7f, 0xd3, 0x11, 0x44, 0x9c, 0xf5, 0x6a, 0x66, 0xbc, 0x6f, 0x58, 0xae,
    0x56, 0xff, 0xff, 0xff, 0x04, 0x00, 0x00, 0x00, 0x20, 0x00, 0x00, 0x00,
    0xa8, 0x01, 0x00, 0x00, 0xb3, 0x01, 0x00, 0x00, 0x1b, 0x01, 0x00, 0x00,
    0xbd, 0xff, 0xff, 0xff, 0x2b, 0xff, 0xff, 0xff, 0x81, 0xff, 0xff, 0xff,
    0xed, 0xff, 0xff, 0xff, 0x3a, 0x01, 0x00, 0x00, 0x82, 0xff, 0xff, 0xff,
    0x04, 0x00, 0x00, 0x00, 0x20, 0x00, 0x00, 0x00, 0x1f, 0x4b, 0x4d, 0x33,
    0xc0, 0xf2, 0x81, 0x27, 0x81, 0x07, 0xe3, 0xc6, 0x35, 0x01, 0x68, 0xc5,
    0x68, 0x47, 0x7f, 0xee, 0x25, 0xcb, 0x27, 0x78, 0x6e, 0x7f, 0x64, 0xdb,
    0xbe, 0xff, 0xa9, 0xf5, 0xae, 0xff, 0xff, 0xff, 0x04, 0x00, 0x00, 0x00,
    0x10, 0x00, 0x00, 0x00, 0xf5, 0xff, 0xff, 0xff, 0x33, 0xfe, 0xff, 0xff,
    0xf7, 0xff, 0xff, 0xff, 0xf6, 0xff, 0xff, 0xff, 0xca, 0xff, 0xff, 0xff,
    0x04, 0x00, 0x00, 0x00, 0x08, 0x00, 0x00, 0x00, 0x7f, 0xa0, 0x41, 0xfa,
    0x4c, 0x28, 0x40, 0x7f, 0xde, 0xff, 0xff, 0xff, 0x04, 0x00, 0x00, 0x00,
    0x08, 0x00, 0x00, 0x00, 0xfb, 0xff, 0xff, 0xff, 0xff, 0xff, 0xff, 0xff,
    0xf2, 0xff, 0xff, 0xff, 0x04, 0x00, 0x00, 0x00, 0x02, 0x00, 0x00, 0x00,
    0x81, 0xc8, 0x06, 0x00, 0x08, 0x00, 0x04, 0x00, 0x06, 0x00, 0x00, 0x00,
    0x04, 0x00, 0x00, 0x00, 0x04, 0x00, 0x00, 0x00, 0xe8, 0x01, 0x00, 0x00,
    0x1c, 0xff, 0xff, 0xff, 0x20, 0xff, 0xff, 0xff, 0x0f, 0x00, 0x00, 0x00,
    0x4d, 0x4c, 0x49, 0x52, 0x20, 0x43, 0x6f, 0x6e, 0x76, 0x65, 0x72, 0x74,
    0x65, 0x64, 0x2e, 0x00, 0x01, 0x00, 0x00, 0x00, 0x14, 0x00, 0x00, 0x00,
    0x00, 0x00, 0x0e, 0x00, 0x18, 0x00, 0x14, 0x00, 0x10, 0x00, 0x0c, 0x00,
    0x08, 0x00, 0x04, 0x00, 0x0e, 0x00, 0x00, 0x00, 0x14, 0x00, 0x00, 0x00,
    0x1c, 0x00, 0x00, 0x00, 0x54, 0x02, 0x00, 0x00, 0x58, 0x02, 0x00, 0x00,
    0x5c, 0x02, 0x00, 0x00, 0x04, 0x00, 0x00, 0x00, 0x6d, 0x61, 0x69, 0x6e,
    0x00, 0x00, 0x00, 0x00, 0x0a, 0x00, 0x00, 0x00, 0x1c, 0x02, 0x00, 0x00,
    0xcc, 0x01, 0x00, 0x00, 0x80, 0x01, 0x00, 0x00, 0x44, 0x01, 0x00, 0x00,
    0x08, 0x01, 0x00, 0x00, 0xcc, 0x00, 0x00, 0x00, 0x90, 0x00, 0x00, 0x00,
    0x54, 0x00, 0x00, 0x00, 0x30, 0x00, 0x00, 0x00, 0x04, 0x00, 0x00, 0x00,
    0x16, 0xfe, 0xff, 0xff, 0x08, 0x00, 0x00, 0x00, 0x0c, 0x00, 0x00, 0x00,
    0x01, 0x00, 0x00, 0x00, 0x18, 0x00, 0x00, 0x00, 0x01, 0x00, 0x00, 0x00,
    0x17, 0x00, 0x00, 0x00, 0x00, 0x00, 0x0a, 0x00, 0x10, 0x00, 0x0c, 0x00,
    0x08, 0x00, 0x04, 0x00, 0x0a, 0x00, 0x00, 0x00, 0x0c, 0x00, 0x00, 0x00,
    0x10, 0x00, 0x00, 0x00, 0x02, 0x00, 0x00, 0x00, 0x01, 0x00, 0x00, 0x00,
    0x17, 0x00, 0x00, 0x00, 0x01, 0x00, 0x00, 0x00, 0x16, 0x00, 0x00, 0x00,
    0xae, 0xfe, 0xff, 0xff, 0x18, 0x00, 0x00, 0x00, 0x00, 0x00, 0x00, 0x08,
    0x14, 0x00, 0x00, 0x00, 0x18, 0x00, 0x00, 0x00, 0x01, 0x00, 0x00, 0x00,
    0x04, 0x00, 0x04, 0x00, 0x04, 0x00, 0x00, 0x00, 0x01, 0x00, 0x00, 0x00,
    0x16, 0x00, 0x00, 0x00, 0x03, 0x00, 0x00, 0x00, 0x15, 0x00, 0x00, 0x00,
    0x02, 0x00, 0x00, 0x00, 0x01, 0x00, 0x00, 0x00, 0xe6, 0xfe, 0xff, 0xff,
    0x14, 0x00, 0x00, 0x00, 0x00, 0x00, 0x00, 0x08, 0x14, 0x00, 0x00, 0x00,
    0x18, 0x00, 0x00, 0x00, 0x01, 0x00, 0x00, 0x00, 0xd6, 0xfe, 0xff, 0xff,
    0x00, 0x00, 0x00, 0x01, 0x01, 0x00, 0x00, 0x00, 0x15, 0x00, 0x00, 0x00,
    0x03, 0x00, 0x00, 0x00, 0x14, 0x00, 0x00, 0x00, 0x04, 0x00, 0x00, 0x00,
    0x03, 0x00, 0x00, 0x00, 0x1e, 0xff, 0xff, 0xff, 0x14, 0x00, 0x00, 0x00,
    0x00, 0x00, 0x00, 0x08, 0x14, 0x00, 0x00, 0x00, 0x18, 0x00, 0x00, 0x00,
    0x01, 0x00, 0x00, 0x00, 0x0e, 0xff, 0xff, 0xff, 0x00, 0x00, 0x00, 0x01,
    0x01, 0x00, 0x00, 0x00, 0x14, 0x00, 0x00, 0x00, 0x03, 0x00, 0x00, 0x00,
    0x13, 0x00, 0x00, 0x00, 0x06, 0x00, 0x00, 0x00, 0x05, 0x00, 0x00, 0x00,
    0x56, 0xff, 0xff, 0xff, 0x14, 0x00, 0x00, 0x00, 0x00, 0x00, 0x00, 0x08,
    0x14, 0x00, 0x00, 0x00, 0x18, 0x00, 0x00, 0x00, 0x01, 0x00, 0x00, 0x00,
    0x46, 0xff, 0xff, 0xff, 0x00, 0x00, 0x00, 0x01, 0x01, 0x00, 0x00, 0x00,
    0x13, 0x00, 0x00, 0x00, 0x03, 0x00, 0x00, 0x00, 0x12, 0x00, 0x00, 0x00,
    0x08, 0x00, 0x00, 0x00, 0x07, 0x00, 0x00, 0x00, 0x8e, 0xff, 0xff, 0xff,
    0x14, 0x00, 0x00, 0x00, 0x00, 0x00, 0x00, 0x08, 0x14, 0x00, 0x00, 0x00,
    0x18, 0x00, 0x00, 0x00, 0x01, 0x00, 0x00, 0x00, 0x7e, 0xff, 0xff, 0xff,
    0x00, 0x00, 0x00, 0x01, 0x01, 0x00, 0x00, 0x00, 0x12, 0x00, 0x00, 0x00,
    0x03, 0x00, 0x00, 0x00, 0x11, 0x00, 0x00, 0x00, 0x0a, 0x00, 0x00, 0x00,
    0x09, 0x00, 0x00, 0x00, 0xc6, 0xff, 0xff, 0xff, 0x14, 0x00, 0x00, 0x00,
    0x00, 0x00, 0x00, 0x08, 0x14, 0x00, 0x00, 0x00, 0x18, 0x00, 0x00, 0x00,
    0x01, 0x00, 0x00, 0x00, 0xb6, 0xff, 0xff, 0xff, 0x00, 0x00, 0x00, 0x01,
    0x01, 0x00, 0x00, 0x00, 0x11, 0x00, 0x00, 0x00, 0x03, 0x00, 0x00, 0x00,
    0x10, 0x00, 0x00, 0x00, 0x0c, 0x00, 0x00, 0x00, 0x0b, 0x00, 0x00, 0x00,
    0x00, 0x00, 0x0e, 0x00, 0x1a, 0x00, 0x14, 0x00, 0x10, 0x00, 0x0c, 0x00,
    0x0b, 0x00, 0x04, 0x00, 0x0e, 0x00, 0x00, 0x00, 0x1c, 0x00, 0x00, 0x00,
    0x00, 0x00, 0x00, 0x08, 0x1c, 0x00, 0x00, 0x00, 0x20, 0x00, 0x00, 0x00,
    0x01, 0x00, 0x00, 0x00, 0x00, 0x00, 0x06, 0x00, 0x08, 0x00, 0x07, 0x00,
    0x06, 0x00, 0x00, 0x00, 0x00, 0x00, 0x00, 0x01, 0x01, 0x00, 0x00, 0x00,
    0x10, 0x00, 0x00, 0x00, 0x03, 0x00, 0x00, 0x00, 0x0f, 0x00, 0x00, 0x00,
    0x0e, 0x00, 0x00, 0x00, 0x0d, 0x00, 0x00, 0x00, 0x00, 0x00, 0x0a, 0x00,
    0x0c, 0x00, 0x00, 0x00, 0x08, 0x00, 0x04, 0x00, 0x0a, 0x00, 0x00, 0x00,
    0x08, 0x00, 0x00, 0x00, 0x0c, 0x00, 0x00, 0x00, 0x01, 0x00, 0x00, 0x00,
    0x0f, 0x00, 0x00, 0x00, 0x01, 0x00, 0x00, 0x00, 0x00, 0x00, 0x00, 0x00,
    0x01, 0x00, 0x00, 0x00, 0x18, 0x00, 0x00, 0x00, 0x01, 0x00, 0x00, 0x00,
    0x00, 0x00, 0x00, 0x00, 0x19, 0x00, 0x00, 0x00, 0x48, 0x15, 0x00, 0x00,
    0xd0, 0x14, 0x00, 0x00, 0x54, 0x14, 0x00, 0x00, 0xe8, 0x13, 0x00, 0x00,
    0x74, 0x13, 0x00, 0x00, 0xf0, 0x12, 0x00, 0x00, 0x64, 0x12, 0x00, 0x00,
    0xb0, 0x11, 0x00, 0x00, 0xf4, 0x10, 0x00, 0x00, 0xe0, 0x0f, 0x00, 0x00,
    0xc4, 0x0e, 0x00, 0x00, 0xf0, 0x0c, 0x00, 0x00, 0x14, 0x0b, 0x00, 0x00,
    0xc8, 0x08, 0x00, 0x00, 0x74, 0x06, 0x00, 0x00, 0x00, 0x06, 0x00, 0x00,
    0x4c, 0x05, 0x00, 0x00, 0x90, 0x04, 0x00, 0x00, 0xd4, 0x03, 0x00, 0x00,
    0x18, 0x03, 0x00, 0x00, 0x5c, 0x02, 0x00, 0x00, 0xa0, 0x01, 0x00, 0x00,
    0x04, 0x01, 0x00, 0x00, 0x80, 0x00, 0x00, 0x00, 0x04, 0x00, 0x00, 0x00,
    0x32, 0xeb, 0xff, 0xff, 0x00, 0x00, 0x00, 0x01, 0x18, 0x00, 0x00, 0x00,
    0x20, 0x00, 0x00, 0x00, 0x3c, 0x00, 0x00, 0x00, 0x19, 0x00, 0x00, 0x00,
    0x00, 0x00, 0x00, 0x03, 0x50, 0x00, 0x00, 0x00, 0x02, 0x00, 0x00, 0x00,
    0xff, 0xff, 0xff, 0xff, 0x01, 0x00, 0x00, 0x00, 0x1c, 0xeb, 0xff, 0xff,
    0x08, 0x00, 0x00, 0x00, 0x10, 0x00, 0x00, 0x00, 0x01, 0x00, 0x00, 0x00,
    0x00, 0x00, 0x00, 0x00, 0x00, 0x00, 0x00, 0x00, 0x01, 0x00, 0x00, 0x00,
    0x00, 0x00, 0x80, 0x3b, 0x1b, 0x00, 0x00, 0x00, 0x53, 0x74, 0x61, 0x74,
    0x65, 0x66, 0x75, 0x6c, 0x50, 0x61, 0x72, 0x74, 0x69, 0x74, 0x69, 0x6f,
    0x6e, 0x65, 0x64, 0x43, 0x61, 0x6c, 0x6c, 0x5f, 0x31, 0x3a, 0x30, 0x00,
    0x02, 0x00, 0x00, 0x00, 0x01, 0x00, 0x00, 0x00, 0x01, 0x00, 0x00, 0x00,
    0xaa, 0xeb, 0xff, 0xff, 0x00, 0x00, 0x00, 0x01, 0x18, 0x00, 0x00, 0x00,
    0x20, 0x00, 0x00, 0x00, 0x40, 0x00, 0x00, 0x00, 0x18, 0x00, 0x00, 0x00,
    0x00, 0x00, 0x00, 0x09, 0x58, 0x00, 0x00, 0x00, 0x02, 0x00, 0x00, 0x00,
    0xff, 0xff, 0xff, 0xff, 0x01, 0x00, 0x00, 0x00, 0x94, 0xeb, 0xff, 0xff,
    0x08, 0x00, 0x00, 0x00, 0x14, 0x00, 0x00, 0x00, 0x01, 0x00, 0x00, 0x00,
    0x80, 0xff, 0xff, 0xff, 0xff, 0xff, 0xff, 0xff, 0x00, 0x00, 0x00, 0x00,
    0x01, 0x00, 0x00, 0x00, 0x00, 0x00, 0x80, 0x3b, 0x1c, 0x00, 0x00, 0x00,
    0x53, 0x74, 0x61, 0x74, 0x65, 0x66, 0x75, 0x6c, 0x50, 0x61, 0x72, 0x74,
    0x69, 0x74, 0x69, 0x6f, 0x6e, 0x65, 0x64, 0x43, 0x61, 0x6c, 0x6c, 0x5f,
    0x31, 0x3a, 0x30, 0x31, 0x00, 0x00, 0x00, 0x00, 0x02, 0x00, 0x00, 0x00,
    0x01, 0x00, 0x00, 0x00, 0x01, 0x00, 0x00, 0x00, 0x2a, 0xec, 0xff, 0xff,
    0x00, 0x00, 0x00, 0x01, 0x18, 0x00, 0x00, 0x00, 0x20, 0x00, 0x00, 0x00,
    0x3c, 0x00, 0x00, 0x00, 0x17, 0x00, 0x00, 0x00, 0x00, 0x00, 0x00, 0x09,
    0x70, 0x00, 0x00, 0x00, 0x02, 0x00, 0x00, 0x00, 0xff, 0xff, 0xff, 0xff,
    0x01, 0x00, 0x00, 0x00, 0x14, 0xec, 0xff, 0xff, 0x08, 0x00, 0x00, 0x00,
    0x10, 0x00, 0x00, 0x00, 0x01, 0x00, 0x00, 0x00, 0x7a, 0x00, 0x00, 0x00,
    0x00, 0x00, 0x00, 0x00, 0x01, 0x00, 0x00, 0x00, 0xd3, 0x51, 0x0e, 0x3f,
    0x38, 0x00, 0x00, 0x00, 0x73, 0x65, 0x71, 0x75, 0x65, 0x6e, 0x74, 0x69,
    0x61, 0x6c, 0x5f, 0x31, 0x2f, 0x64, 0x65, 0x6e, 0x73, 0x65, 0x5f, 0x36,
    0x5f, 0x31, 0x2f, 0x4d, 0x61, 0x74, 0x4d, 0x75, 0x6c, 0x3b, 0x73, 0x65,
    0x71, 0x75, 0x65, 0x6e, 0x74, 0x69, 0x61, 0x6c, 0x5f, 0x31, 0x2f, 0x64,
    0x65, 0x6e, 0x73, 0x65, 0x5f, 0x36, 0x5f, 0x31, 0x2f, 0x41, 0x64, 0x64,
    0x00, 0x00, 0x00, 0x00, 0x02, 0x00, 0x00, 0x00, 0x01, 0x00, 0x00, 0x00,
    0x01, 0x00, 0x00, 0x00, 0xc2, 0xec, 0xff, 0xff, 0x00, 0x00, 0x00, 0x01,
    0x18, 0x00, 0x00, 0x00, 0x20, 0x00, 0x00, 0x00, 0x3c, 0x00, 0x00, 0x00,
    0x16, 0x00, 0x00, 0x00, 0x00, 0x00, 0x00, 0x09, 0x90, 0x00, 0x00, 0x00,
    0x02, 0x00, 0x00, 0x00, 0xff, 0xff, 0xff, 0xff, 0x02, 0x00, 0x00, 0x00,
    0xac, 0xec, 0xff, 0xff, 0x08, 0x00, 0x00, 0x00, 0x10, 0x00, 0x00, 0x00,
    0x01, 0x00, 0x00, 0x00, 0x80, 0xff, 0xff, 0xff, 0xff, 0xff, 0xff, 0xff,
    0x01, 0x00, 0x00, 0x00, 0x3b, 0xed, 0xf9, 0x3e, 0x58, 0x00, 0x00, 0x00,
    0x73, 0x65, 0x71, 0x75, 0x65, 0x6e, 0x74, 0x69, 0x61, 0x6c, 0x5f, 0x31,
    0x2f, 0x64, 0x65, 0x6e, 0x73, 0x65, 0x5f, 0x35, 0x5f, 0x31, 0x2f, 0x4d,
    0x61, 0x74, 0x4d, 0x75, 0x6c, 0x3b, 0x73, 0x65, 0x71, 0x75, 0x65, 0x6e,
    0x74, 0x69, 0x61, 0x6c, 0x5f, 0x31, 0x2f, 0x64, 0x65, 0x6e, 0x73, 0x65,
    0x5f, 0x35, 0x5f, 0x31, 0x2f, 0x52, 0x65, 0x6c, 0x75, 0x3b, 0x73, 0x65,
    0x71, 0x75, 0x65, 0x6e, 0x74, 0x69, 0x61, 0x6c, 0x5f, 0x31, 0x2f, 0x64,
    0x65, 0x6e, 0x73, 0x65, 0x5f, 0x35, 0x5f, 0x31, 0x2f, 0x42, 0x69, 0x61,
    0x73, 0x41, 0x64, 0x64, 0x00, 0x00, 0x00, 0x00, 0x02, 0x00, 0x00, 0x00,
    0x01, 0x00, 0x00, 0x00, 0x02, 0x00, 0x00, 0x00, 0x7a, 0xed, 0xff, 0xff,
    0x00, 0x00, 0x00, 0x01, 0x18, 0x00, 0x00, 0x00, 0x20, 0x00, 0x00, 0x00,
    0x3c, 0x00, 0x00, 0x00, 0x15, 0x00, 0x00, 0x00, 0x00, 0x00, 0x00, 0x09,
    0x90, 0x00, 0x00, 0x00, 0x02, 0x00, 0x00, 0x00, 0xff, 0xff, 0xff, 0xff,
    0x04, 0x00, 0x00, 0x00, 0x64, 0xed, 0xff, 0xff, 0x08, 0x00, 0x00, 0x00,
    0x10, 0x00, 0x00, 0x00, 0x01, 0x00, 0x00, 0x00, 0x80, 0xff, 0xff, 0xff,
    0xff, 0xff, 0xff, 0xff, 0x01, 0x00, 0x00, 0x00, 0x25, 0xf8, 0x65, 0x3e,
    0x58, 0x00, 0x00, 0x00, 0x73, 0x65, 0x71, 0x75, 0x65, 0x6e, 0x74, 0x69,
    0x61, 0x6c, 0x5f, 0x31, 0x2f, 0x64, 0x65, 0x6e, 0x73, 0x65, 0x5f, 0x34,
    0x5f, 0x31, 0x2f, 0x4d, 0x61, 0x74, 0x4d, 0x75, 0x6c, 0x3b, 0x73, 0x65,
    0x71, 0x75, 0x65, 0x6e, 0x74, 0x69, 0x61, 0x6c, 0x5f, 0x31, 0x2f, 0x64,
    0x65, 0x6e, 0x73, 0x65, 0x5f, 0x34, 0x5f, 0x31, 0x2f, 0x52, 0x65, 0x6c,
    0x75, 0x3b, 0x73, 0x65, 0x71, 0x75, 0x65, 0x6e, 0x74, 0x69, 0x61, 0x6c,
    0x5f, 0x31, 0x2f, 0x64, 0x65, 0x6e, 0x73, 0x65, 0x5f, 0x34, 0x5f, 0x31,
    0x2f, 0x42, 0x69, 0x61, 0x73, 0x41, 0x64, 0x64, 0x00, 0x00, 0x00, 0x00,
    0x02, 0x00, 0x00, 0x00, 0x01, 0x00, 0x00, 0x00, 0x04, 0x00, 0x00, 0x00,
    0x32, 0xee, 0xff, 0xff, 0x00, 0x00, 0x00, 0x01, 0x18, 0x00, 0x00, 0x00,
    0x20, 0x00, 0x00, 0x00, 0x3c, 0x00, 0x00, 0x00, 0x14, 0x00, 0x00, 0x00,
    0x00, 0x00, 0x00, 0x09, 0x90, 0x00, 0x00, 0x00, 0x02, 0x00, 0x00, 0x00,
    0xff, 0xff, 0xff, 0xff, 0x08, 0x00, 0x00, 0x00, 0x1c, 0xee, 0xff, 0xff,
    0x08, 0x00, 0x00, 0x00, 0x10, 0x00, 0x00, 0x00, 0x01, 0x00, 0x00, 0x00,
    0x80, 0xff, 0xff, 0xff, 0xff, 0xff, 0xff, 0xff, 0x01, 0x00, 0x00, 0x00,
    0x2e, 0x5e, 0xf9, 0x3d, 0x58, 0x00, 0x00, 0x00, 0x73, 0x65, 0x71, 0x75,
    0x65, 0x6e, 0x74, 0x69, 0x61, 0x6c, 0x5f, 0x31, 0x2f, 0x64, 0x65, 0x6e,
    0x73, 0x65, 0x5f, 0x33, 0x5f, 0x31, 0x2f, 0x4d, 0x61, 0x74, 0x4d, 0x75,
    0x6c, 0x3b, 0x73, 0x65, 0x71, 0x75, 0x65, 0x6e, 0x74, 0x69, 0x61, 0x6c,
    0x5f, 0x31, 0x2f, 0x64, 0x65, 0x6e, 0x73, 0x65, 0x5f, 0x33, 0x5f, 0x31,
    0x2f, 0x52, 0x65, 0x6c, 0x75, 0x3b, 0x73, 0x65, 0x71, 0x75, 0x65, 0x6e,
    0x74, 0x69, 0x61, 0x6c, 0x5f, 0x31, 0x2f, 0x64, 0x65, 0x6e, 0x73, 0x65,
    0x5f, 0x33, 0x5f, 0x31, 0x2f, 0x42, 0x69, 0x61, 0x73, 0x41, 0x64, 0x64,
    0x00, 0x00, 0x00, 0x00, 0x02, 0x00, 0x00, 0x00, 0x01, 0x00, 0x00, 0x00,
    0x08, 0x00, 0x00, 0x00, 0xea, 0xee, 0xff, 0xff, 0x00, 0x00, 0x00, 0x01,
    0x18, 0x00, 0x00, 0x00, 0x20, 0x00, 0x00, 0x00, 0x3c, 0x00, 0x00, 0x00,
    0x13, 0x00, 0x00, 0x00, 0x00, 0x00, 0x00, 0x09, 0x90, 0x00, 0x00, 0x00,
    0x02, 0x00, 0x00, 0x00, 0xff, 0xff, 0xff, 0xff, 0x10, 0x00, 0x00, 0x00,
    0xd4, 0xee, 0xff, 0xff, 0x08, 0x00, 0x00, 0x00, 0x10, 0x00, 0x00, 0x00,
    0x01, 0x00, 0x00, 0x00, 0x80, 0xff, 0xff, 0xff, 0xff, 0xff, 0xff, 0xff,
    0x01, 0x00, 0x00, 0x00, 0xa3, 0x0c, 0xa3, 0x3e, 0x58, 0x00, 0x00, 0x00,
    0x73, 0x65, 0x71, 0x75, 0x65, 0x6e, 0x74, 0x69, 0x61, 0x6c, 0x5f, 0x31,
    0x2f, 0x64, 0x65, 0x6e, 0x73, 0x65, 0x5f, 0x32, 0x5f, 0x31, 0x2f, 0x4d,
    0x61, 0x74, 0x4d, 0x75, 0x6c, 0x3b, 0x73, 0x65, 0x71, 0x75, 0x65, 0x6e,
    0x74, 0x69, 0x61, 0x6c, 0x5f, 0x31, 0x2f, 0x64, 0x65, 0x6e, 0x73, 0x65,
    0x5f, 0x32, 0x5f, 0x31, 0x2f, 0x52, 0x65, 0x6c, 0x75, 0x3b, 0x73, 0x65,
    0x71, 0x75, 0x65, 0x6e, 0x74, 0x69, 0x61, 0x6c, 0x5f, 0x31, 0x2f, 0x64,
    0x65, 0x6e, 0x73, 0x65, 0x5f, 0x32, 0x5f, 0x31, 0x2f, 0x42, 0x69, 0x61,
    0x73, 0x41, 0x64, 0x64, 0x00, 0x00, 0x00, 0x00, 0x02, 0x00, 0x00, 0x00,
    0x01, 0x00, 0x00, 0x00, 0x10, 0x00, 0x00, 0x00, 0xa2, 0xef, 0xff, 0xff,
    0x00, 0x00, 0x00, 0x01, 0x18, 0x00, 0x00, 0x00, 0x20, 0x00, 0x00, 0x00,
    0x3c, 0x00, 0x00, 0x00, 0x12, 0x00, 0x00, 0x00, 0x00, 0x00, 0x00, 0x09,
    0x90, 0x00, 0x00, 0x00, 0x02, 0x00, 0x00, 0x00, 0xff, 0xff, 0xff, 0xff,
    0x20, 0x00, 0x00, 0x00, 0x8c, 0xef, 0xff, 0xff, 0x08, 0x00, 0x00, 0x00,
    0x10, 0x00, 0x00, 0x00, 0x01, 0x00, 0x00, 0x00, 0x80, 0xff, 0xff, 0xff,
    0xff, 0xff, 0xff, 0xff, 0x01, 0x00, 0x00, 0x00, 0xcf, 0x58, 0x83, 0x3e,
    0x58, 0x00, 0x00, 0x00, 0x73, 0x65, 0x71, 0x75, 0x65, 0x6e, 0x74, 0x69,
    0x61, 0x6c, 0x5f, 0x31, 0x2f, 0x64, 0x65, 0x6e, 0x73, 0x65, 0x5f, 0x31,
    0x5f, 0x32, 0x2f, 0x4d, 0x61, 0x74, 0x4d, 0x75, 0x6c, 0x3b, 0x73, 0x65,
    0x71, 0x75, 0x65, 0x6e, 0x74, 0x69, 0x61, 0x6c, 0x5f, 0x31, 0x2f, 0x64,
    0x65, 0x6e, 0x73, 0x65, 0x5f, 0x31, 0x5f, 0x32, 0x2f, 0x52, 0x65, 0x6c,
    0x75, 0x3b, 0x73, 0x65, 0x71, 0x75, 0x65, 0x6e, 0x74, 0x69, 0x61, 0x6c,
    0x5f, 0x31, 0x2f, 0x64, 0x65, 0x6e, 0x73, 0x65, 0x5f, 0x31, 0x5f, 0x32,
    0x2f, 0x42, 0x69, 0x61, 0x73, 0x41, 0x64, 0x64, 0x00, 0x00, 0x00, 0x00,
    0x02, 0x00, 0x00, 0x00, 0x01, 0x00, 0x00, 0x00, 0x20, 0x00, 0x00, 0x00,
    0x5a, 0xf0, 0xff, 0xff, 0x00, 0x00, 0x00, 0x01, 0x18, 0x00, 0x00, 0x00,
    0x20, 0x00, 0x00, 0x00, 0x3c, 0x00, 0x00, 0x00, 0x11, 0x00, 0x00, 0x00,
    0x00, 0x00, 0x00, 0x09, 0x88, 0x00, 0x00, 0x00, 0x02, 0x00, 0x00, 0x00,
    0xff, 0xff, 0xff, 0xff, 0x2a, 0x00, 0x00, 0x00, 0x44, 0xf0, 0xff, 0xff,
    0x08, 0x00, 0x00, 0x00, 0x10, 0x00, 0x00, 0x00, 0x01, 0x00, 0x00, 0x00,
    0x80, 0xff, 0xff, 0xff, 0xff, 0xff, 0xff, 0xff, 0x01, 0x00, 0x00, 0x00,
    0xb6, 0xd8, 0x0b, 0x3e, 0x52, 0x00, 0x00, 0x00, 0x73, 0x65, 0x71, 0x75,
    0x65, 0x6e, 0x74, 0x69, 0x61, 0x6c, 0x5f, 0x31, 0x2f, 0x64, 0x65, 0x6e,
    0x73, 0x65, 0x5f, 0x31, 0x2f, 0x4d, 0x61, 0x74, 0x4d, 0x75, 0x6c, 0x3b,
    0x73, 0x65, 0x71, 0x75, 0x65, 0x6e, 0x74, 0x69, 0x61, 0x6c, 0x5f, 0x31,
    0x2f, 0x64, 0x65, 0x6e, 0x73, 0x65, 0x5f, 0x31, 0x2f, 0x52, 0x65, 0x6c,
    0x75, 0x3b, 0x73, 0x65, 0x71, 0x75, 0x65, 0x6e, 0x74, 0x69, 0x61, 0x6c,
    0x5f, 0x31, 0x2f, 0x64, 0x65, 0x6e, 0x73, 0x65, 0x5f, 0x31, 0x2f, 0x42,
    0x69, 0x61, 0x73, 0x41, 0x64, 0x64, 0x00, 0x00, 0x02, 0x00, 0x00, 0x00,
    0x01, 0x00, 0x00, 0x00, 0x2a, 0x00, 0x00, 0x00, 0x0a, 0xf1, 0xff, 0xff,
    0x00, 0x00, 0x00, 0x01, 0x18, 0x00, 0x00, 0x00, 0x20, 0x00, 0x00, 0x00,
    0x40, 0x00, 0x00, 0x00, 0x10, 0x00, 0x00, 0x00, 0x00, 0x00, 0x00, 0x09,
    0x48, 0x00, 0x00, 0x00, 0x02, 0x00, 0x00, 0x00, 0xff, 0xff, 0xff, 0xff,
    0x2a, 0x00, 0x00, 0x00, 0xf4, 0xf0, 0xff, 0xff, 0x08, 0x00, 0x00, 0x00,
    0x14, 0x00, 0x00, 0x00, 0x01, 0x00, 0x00, 0x00, 0xd5, 0xff, 0xff, 0xff,
    0xff, 0xff, 0xff, 0xff, 0x00, 0x00, 0x00, 0x00, 0x01, 0x00, 0x00, 0x00,
    0x78, 0xd5, 0xf8, 0x3e, 0x0c, 0x00, 0x00, 0x00, 0x74, 0x66, 0x6c, 0x2e,
    0x71, 0x75, 0x61, 0x6e, 0x74, 0x69, 0x7a, 0x65, 0x00, 0x00, 0x00, 0x00,
    0x02, 0x00, 0x00, 0x00, 0x01, 0x00, 0x00, 0x00, 0x2a, 0x00, 0x00, 0x00,
    0xee, 0xf1, 0xff, 0xff, 0x00, 0x00, 0x00, 0x01, 0x14, 0x00, 0x00, 0x00,
    0x20, 0x02, 0x00, 0x00, 0x0f, 0x00, 0x00, 0x00, 0x00, 0x00, 0x00, 0x09,
    0x2c, 0x02, 0x00, 0x00, 0x54, 0xf1, 0xff, 0xff, 0x08, 0x00, 0x00, 0x00,
    0x5c, 0x01, 0x00, 0x00, 0x2a, 0x00, 0x00, 0x00, 0x00, 0x00, 0x00, 0x00,
    0x00, 0x00, 0x00, 0x00, 0x00, 0x00, 0x00, 0x00, 0x00, 0x00, 0x00, 0x00,
    0x00, 0x00, 0x00, 0x00, 0x00, 0x00, 0x00, 0x00, 0x00, 0x00, 0x00, 0x00,
    0x00, 0x00, 0x00, 0x00, 0x00, 0x00, 0x00, 0x00, 0x00, 0x00, 0x00, 0x00,
    0x00, 0x00, 0x00, 0x00, 0x00, 0x00, 0x00, 0x00, 0x00, 0x00, 0x00, 0x00,
    0x00, 0x00, 0x00, 0x00, 0x00, 0x00, 0x00, 0x00, 0x00, 0x00, 0x00, 0x00,
    0x00, 0x00, 0x00, 0x00, 0x00, 0x00, 0x00, 0x00, 0x00, 0x00, 0x00, 0x00,
    0x00, 0x00, 0x00, 0x00, 0x00, 0x00, 0x00, 0x00, 0x00, 0x00, 0x00, 0x00,
    0x00, 0x00, 0x00, 0x00, 0x00, 0x00, 0x00, 0x00, 0x00, 0x00, 0x00, 0x00,
    0x00, 0x00, 0x00, 0x00, 0x00, 0x00, 0x00, 0x00, 0x00, 0x00, 0x00, 0x00,
    0x00, 0x00, 0x00, 0x00, 0x00, 0x00, 0x00, 0x00, 0x00, 0x00, 0x00, 0x00,
    0x00, 0x00, 0x00, 0x00, 0x00, 0x00, 0x00, 0x00, 0x00, 0x00, 0x00, 0x00,
    0x00, 0x00, 0x00, 0x00, 0x00, 0x00, 0x00, 0x00, 0x00, 0x00, 0x00, 0x00,
    0x00, 0x00, 0x00, 0x00, 0x00, 0x00, 0x00, 0x00, 0x00, 0x00, 0x00, 0x00,
    0x00, 0x00, 0x00, 0x00, 0x00, 0x00, 0x00, 0x00, 0x00, 0x00, 0x00, 0x00,
    0x00, 0x00, 0x00, 0x00, 0x00, 0x00, 0x00, 0x00, 0x00, 0x00, 0x00, 0x00,
    0x00, 0x00, 0x00, 0x00, 0x00, 0x00, 0x00, 0x00, 0x00, 0x00, 0x00, 0x00,
    0x00, 0x00, 0x00, 0x00, 0x00, 0x00, 0x00, 0x00, 0x00, 0x00, 0x00, 0x00,
    0x00, 0x00, 0x00, 0x00, 0x00, 0x00, 0x00, 0x00, 0x00, 0x00, 0x00, 0x00,
    0x00, 0x00, 0x00, 0x00, 0x00, 0x00, 0x00, 0x00, 0x00, 0x00, 0x00, 0x00,
    0x00, 0x00, 0x00, 0x00, 0x00, 0x00, 0x00, 0x00, 0x00, 0x00, 0x00, 0x00,
    0x00, 0x00, 0x00, 0x00, 0x00, 0x00, 0x00, 0x00, 0x00, 0x00, 0x00, 0x00,
    0x00, 0x00, 0x00, 0x00, 0x00, 0x00, 0x00, 0x00, 0x00, 0x00, 0x00, 0x00,
    0x00, 0x00, 0x00, 0x00, 0x00, 0x00, 0x00, 0x00, 0x00, 0x00, 0x00, 0x00,
    0x00, 0x00, 0x00, 0x00, 0x00, 0x00, 0x00, 0x00, 0x00, 0x00, 0x00, 0x00,
    0x00, 0x00, 0x00, 0x00, 0x00, 0x00, 0x00, 0x00, 0x00, 0x00, 0x00, 0x00,
    0x00, 0x00, 0x00, 0x00, 0x00, 0x00, 0x00, 0x00, 0x00, 0x00, 0x00, 0x00,
    0x00, 0x00, 0x00, 0x00, 0x00, 0x00, 0x00, 0x00, 0x00, 0x00, 0x00, 0x00,
    0x00, 0x00, 0x00, 0x00, 0x00, 0x00, 0x00, 0x00, 0x00, 0x00, 0x00, 0x00,
    0x2a, 0x00, 0x00, 0x00, 0x5a, 0x7b, 0x7a, 0x3b, 0x4b, 0xdc, 0x2d, 0x3b,
    0x8f, 0x2d, 0x5c, 0x3b, 0x93, 0x3b, 0x5a, 0x3b, 0x3f, 0x62, 0xbf, 0x3b,
    0xa8, 0x53, 0x82, 0x3b, 0xd8, 0xa7, 0x8b, 0x3b, 0xc6, 0xf1, 0x23, 0x3b,
    0x83, 0x70, 0x60, 0x3b, 0xfc, 0x7e, 0x7b, 0x3b, 0x35, 0x39, 0x27, 0x3b,
    0xef, 0xd9, 0x5d, 0x3b, 0x7f, 0x9c, 0x81, 0x3b, 0x9f, 0x8c, 0x6c, 0x3b,
    0x63, 0xda, 0x9d, 0x3b, 0x15, 0x83, 0x8d, 0x3b, 0x6a, 0x4a, 0x26, 0x3b,
    0x23, 0x0b, 0x52, 0x3b, 0xd5, 0x54, 0x63, 0x3b, 0xce, 0xda, 0x7b, 0x3b,
    0xfe, 0xc8, 0x5a, 0x3b, 0x4c, 0xc0, 0x87, 0x3b, 0xbb, 0x7f, 0x31, 0x3b,
    0xf4, 0xe0, 0x80, 0x3b, 0x99, 0xcd, 0x42, 0x3b, 0x20, 0xb7, 0x83, 0x3b,
    0x87, 0x52, 0x92, 0x3b, 0x27, 0x64, 0x2f, 0x3b, 0x9f, 0xd9, 0x47, 0x3b,
    0x88, 0xc5, 0x7c, 0x3b, 0x70, 0x79, 0x54, 0x3b, 0x0e, 0x3c, 0x3f, 0x3b,
    0xa9, 0x7d, 0x7a, 0x3b, 0xc3, 0xa0, 0x81, 0x3b, 0x78, 0xcb, 0xb0, 0x3b,
    0xd7, 0x5d, 0x80, 0x3b, 0x3c, 0x0c, 0x8b, 0x3b, 0x49, 0x56, 0x35, 0x3b,
    0x9f, 0xa4, 0x69, 0x3b, 0x25, 0x33, 0x9b, 0x3b, 0x2f, 0xe2, 0x81, 0x3b,
    0xc8, 0xf3, 0x45, 0x3b, 0x13, 0x00, 0x00, 0x00, 0x74, 0x66, 0x6c, 0x2e,
    0x70, 0x73, 0x65, 0x75, 0x64, 0x6f, 0x5f, 0x71, 0x63, 0x6f, 0x6e, 0x73,
    0x74, 0x31, 0x33, 0x00, 0x02, 0x00, 0x00, 0x00, 0x2a, 0x00, 0x00, 0x00,
    0x2a, 0x00, 0x00, 0x00, 0x3e, 0xf4, 0xff, 0xff, 0x00, 0x00, 0x00, 0x01,
    0x14, 0x00, 0x00, 0x00, 0x1c, 0x02, 0x00, 0x00, 0x0e, 0x00, 0x00, 0x00,
    0x00, 0x00, 0x00, 0x02, 0x28, 0x02, 0x00, 0x00, 0xa4, 0xf3, 0xff, 0xff,
    0x08, 0x00, 0x00, 0x00, 0x58, 0x01, 0x00, 0x00, 0x2a, 0x00, 0x00, 0x00,
    0x00, 0x00, 0x00, 0x00, 0x00, 0x00, 0x00, 0x00, 0x00, 0x00, 0x00, 0x00,
    0x00, 0x00, 0x00, 0x00, 0x00, 0x00, 0x00, 0x00, 0x00, 0x00, 0x00, 0x00,
    0x00, 0x00, 0x00, 0x00, 0x00, 0x00, 0x00, 0x00, 0x00, 0x00, 0x00, 0x00,
    0x00, 0x00, 0x00, 0x00, 0x00, 0x00, 0x00, 0x00, 0x00, 0x00, 0x00, 0x00,
    0x00, 0x00, 0x00, 0x00, 0x00, 0x00, 0x00, 0x00, 0x00, 0x00, 0x00, 0x00,
    0x00, 0x00, 0x00, 0x00, 0x00, 0x00, 0x00, 0x00, 0x00, 0x00, 0x00, 0x00,
    0x00, 0x00, 0x00, 0x00, 0x00, 0x00, 0x00, 0x00, 0x00, 0x00, 0x00, 0x00,
    0x00, 0x00, 0x00, 0x00, 0x00, 0x00, 0x00, 0x00, 0x00, 0x00, 0x00, 0x00,
    0x00, 0x00, 0x00, 0x00, 0x00, 0x00, 0x00, 0x00, 0x00, 0x00, 0x00, 0x00,
    0x00, 0x00, 0x00, 0x00, 0x00, 0x00, 0x00, 0x00, 0x00, 0x00, 0x00, 0x00,
    0x00, 0x00, 0x00, 0x00, 0x00, 0x00, 0x00, 0x00, 0x00, 0x00, 0x00, 0x00,
    0x00, 0x00, 0x00, 0x00, 0x00, 0x00, 0x00, 0x00, 0x00, 0x00, 0x00, 0x00,
    0x00, 0x00, 0x00, 0x00, 0x00, 0x00, 0x00, 0x00, 0x00, 0x00, 0x00, 0x00,
    0x00, 0x00, 0x00, 0x00, 0x00, 0x00, 0x00, 0x00, 0x00, 0x00, 0x00, 0x00,
    0x00, 0x00, 0x00, 0x00, 0x00, 0x00, 0x00, 0x00, 0x00, 0x00, 0x00, 0x00,
    0x00, 0x00, 0x00, 0x00, 0x00, 0x00, 0x00, 0x00, 0x00, 0x00, 0x00, 0x00,
    0x00, 0x00, 0x00, 0x00, 0x00, 0x00, 0x00, 0x00, 0x00, 0x00, 0x00, 0x00,
    0x00, 0x00, 0x00, 0x00, 0x00, 0x00, 0x00, 0x00, 0x00, 0x00, 0x00, 0x00,
    0x00, 0x00, 0x00, 0x00, 0x00, 0x00, 0x00, 0x00, 0x00, 0x00, 0x00, 0x00,
    0x00, 0x00, 0x00, 0x00, 0x00, 0x00, 0x00, 0x00, 0x00, 0x00, 0x00, 0x00,
    0x00, 0x00, 0x00, 0x00, 0x00, 0x00, 0x00, 0x00, 0x00, 0x00, 0x00, 0x00,
    0x00, 0x00, 0x00, 0x00, 0x00, 0x00, 0x00, 0x00, 0x00, 0x00, 0x00, 0x00,
    0x00, 0x00, 0x00, 0x00, 0x00, 0x00, 0x00, 0x00, 0x00, 0x00, 0x00, 0x00,
    0x00, 0x00, 0x00, 0x00, 0x00, 0x00, 0x00, 0x00, 0x00, 0x00, 0x00, 0x00,
    0x00, 0x00, 0x00, 0x00, 0x00, 0x00, 0x00, 0x00, 0x00, 0x00, 0x00, 0x00,
    0x00, 0x00, 0x00, 0x00, 0x00, 0x00, 0x00, 0x00, 0x00, 0x00, 0x00, 0x00,
    0x00, 0x00, 0x00, 0x00, 0x00, 0x00, 0x00, 0x00, 0x00, 0x00, 0x00, 0x00,
    0x00, 0x00, 0x00, 0x00, 0x00, 0x00, 0x00, 0x00, 0x00, 0x00, 0x00, 0x00,
    0x2a, 0x00, 0x00, 0x00, 0x5d, 0x78, 0xf3, 0x3a, 0x62, 0xfe, 0xa8, 0x3a,
    0xbc, 0x03, 0xd6, 0x3a, 0xb0, 0x1f, 0xd4, 0x3a, 0xc3, 0x06, 0x3a, 0x3b,
    0x6f, 0x5b, 0xfd, 0x3a, 0x0d, 0xbf, 0x07, 0x3b, 0xed, 0x5a, 0x9f, 0x3a,
    0x26, 0x28, 0xda, 0x3a, 0xbb, 0x74, 0xf4, 0x3a, 0xdc, 0x8a, 0xa2, 0x3a,
    0x1e, 0xa4, 0xd7, 0x3a, 0x5e, 0xf7, 0xfb, 0x3a, 0x7a, 0xed, 0xe5, 0x3a,
    0x31, 0x6f, 0x19, 0x3b, 0xfd, 0x8c, 0x09, 0x3b, 0xc1, 0xa2, 0xa1, 0x3a,
    0xf0, 0x29, 0xcc, 0x3a, 0xbe, 0xf7, 0xdc, 0x3a, 0xfb, 0xcd, 0xf4, 0x3a,
    0x26, 0xa9, 0xd4, 0x3a, 0x7c, 0xf3, 0x03, 0x3b, 0xc0, 0x87, 0xac, 0x3a,
    0xc8, 0x8a, 0xfa, 0x3a, 0x9d, 0x59, 0xbd, 0x3a, 0x3c, 0x07, 0x00, 0x3b,
    0xf6, 0x39, 0x0e, 0x3b, 0x46, 0x7b, 0xaa, 0x3a, 0x78, 0x41, 0xc2, 0x3a,
    0x23, 0xb2, 0xf5, 0x3a, 0xd1, 0x86, 0xce, 0x3a, 0xa4, 0xe1, 0xb9, 0x3a,
    0x9c, 0x7a, 0xf3, 0x3a, 0xa9, 0xff, 0xfb, 0x3a, 0x88, 0xd8, 0x2b, 0x3b,
    0xe5, 0x8b, 0xf9, 0x3a, 0xcc, 0x27, 0x07, 0x3b, 0xcd, 0x42, 0xb0, 0x3a,
    0x4e, 0x1a, 0xe3, 0x3a, 0xf6, 0xda, 0x16, 0x3b, 0xd7, 0x7e, 0xfc, 0x3a,
    0x3a, 0x69, 0xc0, 0x3a, 0x13, 0x00, 0x00, 0x00, 0x74, 0x66, 0x6c, 0x2e,
    0x70, 0x73, 0x65, 0x75, 0x64, 0x6f, 0x5f, 0x71, 0x63, 0x6f, 0x6e, 0x73,
    0x74, 0x31, 0x32, 0x00, 0x01, 0x00, 0x00, 0x00, 0x2a, 0x00, 0x00, 0x00,
    0x86, 0xf6, 0xff, 0xff, 0x00, 0x00, 0x00, 0x01, 0x14, 0x00, 0x00, 0x00,
    0xa8, 0x01, 0x00, 0x00, 0x0d, 0x00, 0x00, 0x00, 0x00, 0x00, 0x00, 0x09,
    0xb4, 0x01, 0x00, 0x00, 0xec, 0xf5, 0xff, 0xff, 0x08, 0x00, 0x00, 0x00,
    0x0c, 0x01, 0x00, 0x00, 0x20, 0x00, 0x00, 0x00, 0x00, 0x00, 0x00, 0x00,
    0x00, 0x00, 0x00, 0x00, 0x00, 0x00, 0x00, 0x00, 0x00, 0x00, 0x00, 0x00,
    0x00, 0x00, 0x00, 0x00, 0x00, 0x00, 0x00, 0x00, 0x00, 0x00, 0x00, 0x00,
    0x00, 0x00, 0x00, 0x00, 0x00, 0x00, 0x00, 0x00, 0x00, 0x00, 0x00, 0x00,
    0x00, 0x00, 0x00, 0x00, 0x00, 0x00, 0x00, 0x00, 0x00, 0x00, 0x00, 0x00,
    0x00, 0x00, 0x00, 0x00, 0x00, 0x00, 0x00, 0x00, 0x00, 0x00, 0x00, 0x00,
    0x00, 0x00, 0x00, 0x00, 0x00, 0x00, 0x00, 0x00, 0x00, 0x00, 0x00, 0x00,
    0x00, 0x00, 0x00, 0x00, 0x00, 0x00, 0x00, 0x00, 0x00, 0x00, 0x00, 0x00,
    0x00, 0x00, 0x00, 0x00, 0x00, 0x00, 0x00, 0x00, 0x00, 0x00, 0x00, 0x00,
    0x00, 0x00, 0x00, 0x00, 0x00, 0x00, 0x00, 0x00, 0x00, 0x00, 0x00, 0x00,
    0x00, 0x00, 0x00, 0x00, 0x00, 0x00, 0x00, 0x00, 0x00, 0x00, 0x00, 0x00,
    0x00, 0x00, 0x00, 0x00, 0x00, 0x00, 0x00, 0x00, 0x00, 0x00, 0x00, 0x00,
    0x00, 0x00, 0x00, 0x00, 0x00, 0x00, 0x00, 0x00, 0x00, 0x00, 0x00, 0x00,
    0x00, 0x00, 0x00, 0x00, 0x00, 0x00, 0x00, 0x00, 0x00, 0x00, 0x00, 0x00,
    0x00, 0x00, 0x00, 0x00, 0x00, 0x00, 0x00, 0x00, 0x00, 0x00, 0x00, 0x00,
    0x00, 0x00, 0x00, 0x00, 0x00, 0x00, 0x00, 0x00, 0x00, 0x00, 0x00, 0x00,
    0x00, 0x00, 0x00, 0x00, 0x00, 0x00, 0x00, 0x00, 0x00, 0x00, 0x00, 0x00,
    0x00, 0x00, 0x00, 0x00, 0x00, 0x00, 0x00, 0x00, 0x00, 0x00, 0x00, 0x00,
    0x00, 0x00, 0x00, 0x00, 0x00, 0x00, 0x00, 0x00, 0x00, 0x00, 0x00, 0x00,
    0x00, 0x00, 0x00, 0x00, 0x00, 0x00, 0x00, 0x00, 0x00, 0x00, 0x00, 0x00,
    0x00, 0x00, 0x00, 0x00, 0x00, 0x00, 0x00, 0x00, 0x00, 0x00, 0x00, 0x00,
    0x00, 0x00, 0x00, 0x00, 0x00, 0x00, 0x00, 0x00, 0x00, 0x00, 0x00, 0x00,
    0x00, 0x00, 0x00, 0x00, 0x20, 0x00, 0x00, 0x00, 0xa4, 0x09, 0x3a, 0x3b,
    0xda, 0x4b, 0x2c, 0x3b, 0xe4, 0xe8, 0x80, 0x3b, 0xa5, 0x7b, 0x7e, 0x3b,
    0xea, 0x5e, 0x68, 0x3b, 0xea, 0x55, 0x66, 0x3b, 0xb7, 0x6b, 0x45, 0x3b,
    0x8d, 0xc8, 0x5d, 0x3b, 0x4c, 0xee, 0x3d, 0x3b, 0x5a, 0x3a, 0x25, 0x3b,
    0xb2, 0x47, 0x4f, 0x3b, 0xbb, 0x45, 0x8b, 0x3b, 0x37, 0x51, 0x31, 0x3b,
    0x59, 0xe5, 0x2c, 0x3b, 0x33, 0x89, 0x8f, 0x3b, 0x82, 0xa1, 0x3f, 0x3b,
    0x5d, 0x72, 0x33, 0x3b, 0xcf, 0xb4, 0x1b, 0x3b, 0xb3, 0x03, 0x3f, 0x3b,
    0x76, 0x48, 0x4a, 0x3b, 0x5d, 0x0f, 0x85, 0x3b, 0x37, 0x10, 0x22, 0x3b,
    0x73, 0xb6, 0x3c, 0x3b, 0xd4, 0x0d, 0x93, 0x3b, 0x44, 0x6c, 0x81, 0x3b,
    0xc7, 0xeb, 0x8b, 0x3b, 0x9b, 0x74, 0x13, 0x3b, 0x73, 0x2b, 0x78, 0x3b,
    0x0c, 0x42, 0x49, 0x3b, 0x45, 0x7c, 0x7a, 0x3b, 0x00, 0xe7, 0x34, 0x3b,
    0x59, 0x01, 0x6b, 0x3b, 0x13, 0x00, 0x00, 0x00, 0x74, 0x66, 0x6c, 0x2e,
    0x70, 0x73, 0x65, 0x75, 0x64, 0x6f, 0x5f, 0x71, 0x63, 0x6f, 0x6e, 0x73,
    0x74, 0x31, 0x31, 0x00, 0x02, 0x00, 0x00, 0x00, 0x20, 0x00, 0x00, 0x00,
    0x2a, 0x00, 0x00, 0x00, 0x5e, 0xf8, 0xff, 0xff, 0x00, 0x00, 0x00, 0x01,
    0x14, 0x00, 0x00, 0x00, 0xa4, 0x01, 0x00, 0x00, 0x0c, 0x00, 0x00, 0x00,
    0x00, 0x00, 0x00, 0x02, 0xb0, 0x01, 0x00, 0x00, 0xc4, 0xf7, 0xff, 0xff,
    0x08, 0x00, 0x00, 0x00, 0x08, 0x01, 0x00, 0x00, 0x20, 0x00, 0x00, 0x00,
    0x00, 0x00, 0x00, 0x00, 0x00, 0x00, 0x00, 0x00, 0x00, 0x00, 0x00, 0x00,
    0x00, 0x00, 0x00, 0x00, 0x00, 0x00, 0x00, 0x00, 0x00, 0x00, 0x00, 0x00,
    0x00, 0x00, 0x00, 0x00, 0x00, 0x00, 0x00, 0x00, 0x00, 0x00, 0x00, 0x00,
    0x00, 0x00, 0x00, 0x00, 0x00, 0x00, 0x00, 0x00, 0x00, 0x00, 0x00, 0x00,
    0x00, 0x00, 0x00, 0x00, 0x00, 0x00, 0x00, 0x00, 0x00, 0x00, 0x00, 0x00,
    0x00, 0x00, 0x00, 0x00, 0x00, 0x00, 0x00, 0x00, 0x00, 0x00, 0x00, 0x00,
    0x00, 0x00, 0x00, 0x00, 0x00, 0x00, 0x00, 0x00, 0x00, 0x00, 0x00, 0x00,
    0x00, 0x00, 0x00, 0x00, 0x00, 0x00, 0x00, 0x00, 0x00, 0x00, 0x00, 0x00,
    0x00, 0x00, 0x00, 0x00, 0x00, 0x00, 0x00, 0x00, 0x00, 0x00, 0x00, 0x00,
    0x00, 0x00, 0x00, 0x00, 0x00, 0x00, 0x00, 0x00, 0x00, 0x00, 0x00, 0x00,
    0x00, 0x00, 0x00, 0x00, 0x00, 0x00, 0x00, 0x00, 0x00, 0x00, 0x00, 0x00,
    0x00, 0x00, 0x00, 0x00, 0x00, 0x00, 0x00, 0x00, 0x00, 0x00, 0x00, 0x00,
    0x00, 0x00, 0x00, 0x00, 0x00, 0x00, 0x00, 0x00, 0x00, 0x00, 0x00, 0x00,
    0x00, 0x00, 0x00, 0x00, 0x00, 0x00, 0x00, 0x00, 0x00, 0x00, 0x00, 0x00,
    0x00, 0x00, 0x00, 0x00, 0x00, 0x00, 0x00, 0x00, 0x00, 0x00, 0x00, 0x00,
    0x00, 0x00, 0x00, 0x00, 0x00, 0x00, 0x00, 0x00, 0x00, 0x00, 0x00, 0x00,
    0x00, 0x00, 0x00, 0x00, 0x00, 0x00, 0x00, 0x00, 0x00, 0x00, 0x00, 0x00,
    0x00, 0x00, 0x00, 0x00, 0x00, 0x00, 0x00, 0x00, 0x00, 0x00, 0x00, 0x00,
    0x00, 0x00, 0x00, 0x00, 0x00, 0x00, 0x00, 0x00, 0x00, 0x00, 0x00, 0x00,
    0x00, 0x00, 0x00, 0x00, 0x00, 0x00, 0x00, 0x00, 0x00, 0x00, 0x00, 0x00,
    0x00, 0x00, 0x00, 0x00, 0x00, 0x00, 0x00, 0x00, 0x00, 0x00, 0x00, 0x00,
    0x00, 0x00, 0x00, 0x00, 0x20, 0x00, 0x00, 0x00, 0x71, 0x41, 0xcb, 0x39,
    0x14, 0x3e, 0xbc, 0x39, 0x28, 0xd7, 0x0c, 0x3a, 0x90, 0x04, 0x0b, 0x3a,
    0x7d, 0xe0, 0xfd, 0x39, 0x45, 0xa7, 0xfb, 0x39, 0x37, 0xb1, 0xd7, 0x39,
    0x47, 0x4f, 0xf2, 0x39, 0x57, 0x82, 0xcf, 0x39, 0x1b, 0x85, 0xb4, 0x39,
    0xcb, 0x76, 0xe2, 0x39, 0x85, 0x29, 0x18, 0x3a, 0x67, 0xba, 0xc1, 0x39,
    0xc8, 0xe5, 0xbc, 0x39, 0x01, 0xd2, 0x1c, 0x3a, 0xd4, 0x5d, 0xd1, 0x39,
    0x01, 0x0e, 0xc4, 0x39, 0xf7, 0x1d, 0xaa, 0x39, 0x6a, 0xb1, 0xd0, 0x39,
    0x2a, 0x01, 0xdd, 0x39, 0xf6, 0x5f, 0x11, 0x3a, 0xfe, 0x0f, 0xb1, 0x39,
    0xa1, 0x2d, 0xce, 0x39, 0xfd, 0xa9, 0x20, 0x3a, 0xb1, 0x66, 0x0d, 0x3a,
    0xef, 0xde, 0x18, 0x3a, 0x47, 0x1a, 0xa1, 0x39, 0xad, 0x91, 0x07, 0x3a,
    0x77, 0xe2, 0xdb, 0x39, 0x84, 0xd5, 0x08, 0x3a, 0x21, 0xa5, 0xc5, 0x39,
    0xac, 0x60, 0x00, 0x3a, 0x13, 0x00, 0x00, 0x00, 0x74, 0x66, 0x6c, 0x2e,
    0x70, 0x73, 0x65, 0x75, 0x64, 0x6f, 0x5f, 0x71, 0x63, 0x6f, 0x6e, 0x73,
    0x74, 0x31, 0x30, 0x00, 0x01, 0x00, 0x00, 0x00, 0x20, 0x00, 0x00, 0x00,
    0x2e, 0xfa, 0xff, 0xff, 0x00, 0x00, 0x00, 0x01, 0x14, 0x00, 0x00, 0x00,
    0xe8, 0x00, 0x00, 0x00, 0x0b, 0x00, 0x00, 0x00, 0x00, 0x00, 0x00, 0x09,
    0xf4, 0x00, 0x00, 0x00, 0x94, 0xf9, 0xff, 0xff, 0x08, 0x00, 0x00, 0x00,
    0x8c, 0x00, 0x00, 0x00, 0x10, 0x00, 0x00, 0x00, 0x00, 0x00, 0x00, 0x00,
    0x00, 0x00, 0x00, 0x00, 0x00, 0x00, 0x00, 0x00, 0x00, 0x00, 0x00, 0x00,
    0x00, 0x00, 0x00, 0x00, 0x00, 0x00, 0x00, 0x00, 0x00, 0x00, 0x00, 0x00,
    0x00, 0x00, 0x00, 0x00, 0x00, 0x00, 0x00, 0x00, 0x00, 0x00, 0x00, 0x00,
    0x00, 0x00, 0x00, 0x00, 0x00, 0x00, 0x00, 0x00, 0x00, 0x00, 0x00, 0x00,
    0x00, 0x00, 0x00, 0x00, 0x00, 0x00, 0x00, 0x00, 0x00, 0x00, 0x00, 0x00,
    0x00, 0x00, 0x00, 0x00, 0x00, 0x00, 0x00, 0x00, 0x00, 0x00, 0x00, 0x00,
    0x00, 0x00, 0x00, 0x00, 0x00, 0x00, 0x00, 0x00, 0x00, 0x00, 0x00, 0x00,
    0x00, 0x00, 0x00, 0x00, 0x00, 0x00, 0x00, 0x00, 0x00, 0x00, 0x00, 0x00,
    0x00, 0x00, 0x00, 0x00, 0x00, 0x00, 0x00, 0x00, 0x00, 0x00, 0x00, 0x00,
    0x00, 0x00, 0x00, 0x00, 0x00, 0x00, 0x00, 0x00, 0x00, 0x00, 0x00, 0x00,
    0x00, 0x00, 0x00, 0x00, 0x00, 0x00, 0x00, 0x00, 0x10, 0x00, 0x00, 0x00,
    0xec, 0x3c, 0x2f, 0x3b, 0x7b, 0x90, 0x58, 0x3b, 0x53, 0x20, 0x4b, 0x3b,
    0x3b, 0x3e, 0x53, 0x3b, 0x5f, 0xe2, 0x82, 0x3b, 0xf8, 0xc2, 0x3a, 0x3b,
    0xd9, 0x2c, 0x28, 0x3b, 0x82, 0x6a, 0x25, 0x3b, 0x04, 0xaa, 0x4f, 0x3b,
    0xe8, 0x24, 0x4a, 0x3b, 0xb3, 0xb3, 0x81, 0x3b, 0xf1, 0x2f, 0x42, 0x3b,
    0xc3, 0x5d, 0x5b, 0x3b, 0x83, 0x0b, 0x7d, 0x3b, 0xbb, 0x6c, 0x4d, 0x3b,
    0x6a, 0x2e, 0x55, 0x3b, 0x12, 0x00, 0x00, 0x00, 0x74, 0x66, 0x6c, 0x2e,
    0x70, 0x73, 0x65, 0x75, 0x64, 0x6f, 0x5f, 0x71, 0x63, 0x6f, 0x6e, 0x73,
    0x74, 0x39, 0x00, 0x00, 0x02, 0x00, 0x00, 0x00, 0x10, 0x00, 0x00, 0x00,
    0x20, 0x00, 0x00, 0x00, 0x46, 0xfb, 0xff, 0xff, 0x00, 0x00, 0x00, 0x01,
    0x14, 0x00, 0x00, 0x00, 0xe4, 0x00, 0x00, 0x00, 0x0a, 0x00, 0x00, 0x00,
    0x00, 0x00, 0x00, 0x02, 0xf0, 0x00, 0x00, 0x00, 0xac, 0xfa, 0xff, 0xff,
    0x08, 0x00, 0x00, 0x00, 0x88, 0x00, 0x00, 0x00, 0x10, 0x00, 0x00, 0x00,
    0x00, 0x00, 0x00, 0x00, 0x00, 0x00, 0x00, 0x00, 0x00, 0x00, 0x00, 0x00,
    0x00, 0x00, 0x00, 0x00, 0x00, 0x00, 0x00, 0x00, 0x00, 0x00, 0x00, 0x00,
    0x00, 0x00, 0x00, 0x00, 0x00, 0x00, 0x00, 0x00, 0x00, 0x00, 0x00, 0x00,
    0x00, 0x00, 0x00, 0x00, 0x00, 0x00, 0x00, 0x00, 0x00, 0x00, 0x00, 0x00,
    0x00, 0x00, 0x00, 0x00, 0x00, 0x00, 0x00, 0x00, 0x00, 0x00, 0x00, 0x00,
    0x00, 0x00, 0x00, 0x00, 0x00, 0x00, 0x00, 0x00, 0x00, 0x00, 0x00, 0x00,
    0x00, 0x00, 0x00, 0x00, 0x00, 0x00, 0x00, 0x00, 0x00, 0x00, 0x00, 0x00,
    0x00, 0x00, 0x00, 0x00, 0x00, 0x00, 0x00, 0x00, 0x00, 0x00, 0x00, 0x00,
    0x00, 0x00, 0x00, 0x00, 0x00, 0x00, 0x00, 0x00, 0x00, 0x00, 0x00, 0x00,
    0x00, 0x00, 0x00, 0x00, 0x00, 0x00, 0x00, 0x00, 0x00, 0x00, 0x00, 0x00,
    0x00, 0x00, 0x00, 0x00, 0x00, 0x00, 0x00, 0x00, 0x10, 0x00, 0x00, 0x00,
    0xef, 0xd1, 0x33, 0x3a, 0x1f, 0x3a, 0x5e, 0x3a, 0x04, 0x70, 0x50, 0x3a,
    0x41, 0xc4, 0x58, 0x3a, 0x7d, 0x4e, 0x86, 0x3a, 0x1e, 0xa5, 0x3f, 0x3a,
    0x95, 0x92, 0x2c, 0x3a, 0xc6, 0xbd, 0x29, 0x3a, 0x15, 0x18, 0x55, 0x3a,
    0x06, 0x6e, 0x4f, 0x3a, 0xe6, 0x17, 0x85, 0x3a, 0xcc, 0x43, 0x47, 0x3a,
    0x29, 0x1a, 0x61, 0x3a, 0xad, 0xd4, 0x81, 0x3a, 0xce, 0xcb, 0x52, 0x3a,
    0x69, 0xc1, 0x5a, 0x3a, 0x12, 0x00, 0x00, 0x00, 0x74, 0x66, 0x6c, 0x2e,
    0x70, 0x73, 0x65, 0x75, 0x64, 0x6f, 0x5f, 0x71, 0x63, 0x6f, 0x6e, 0x73,
    0x74, 0x38, 0x00, 0x00, 0x01, 0x00, 0x00, 0x00, 0x10, 0x00, 0x00, 0x00,
    0x56, 0xfc, 0xff, 0xff, 0x00, 0x00, 0x00, 0x01, 0x14, 0x00, 0x00, 0x00,
    0x88, 0x00, 0x00, 0x00, 0x09, 0x00, 0x00, 0x00, 0x00, 0x00, 0x00, 0x09,
    0x94, 0x00, 0x00, 0x00, 0xbc, 0xfb, 0xff, 0xff, 0x08, 0x00, 0x00, 0x00,
    0x4c, 0x00, 0x00, 0x00, 0x08, 0x00, 0x00, 0x00, 0x00, 0x00, 0x00, 0x00,
    0x00, 0x00, 0x00, 0x00, 0x00, 0x00, 0x00, 0x00, 0x00, 0x00, 0x00, 0x00,
    0x00, 0x00, 0x00, 0x00, 0x00, 0x00, 0x00, 0x00, 0x00, 0x00, 0x00, 0x00,
    0x00, 0x00, 0x00, 0x00, 0x00, 0x00, 0x00, 0x00, 0x00, 0x00, 0x00, 0x00,
    0x00, 0x00, 0x00, 0x00, 0x00, 0x00, 0x00, 0x00, 0x00, 0x00, 0x00, 0x00,
    0x00, 0x00, 0x00, 0x00, 0x00, 0x00, 0x00, 0x00, 0x00, 0x00, 0x00, 0x00,
    0x00, 0x00, 0x00, 0x00, 0x08, 0x00, 0x00, 0x00, 0xf6, 0xa1, 0x9e, 0x3b,
    0xfa, 0x0b, 0x87, 0x3b, 0xe8, 0x5f, 0x92, 0x3b, 0x55, 0x4d, 0x81, 0x3b,
    0x86, 0x31, 0x83, 0x3b, 0x26, 0x96, 0x6c, 0x3b, 0x79, 0x53, 0x63, 0x3b,
    0x68, 0x15, 0x8b, 0x3b, 0x12, 0x00, 0x00, 0x00, 0x74, 0x66, 0x6c, 0x2e,
    0x70, 0x73, 0x65, 0x75, 0x64, 0x6f, 0x5f, 0x71, 0x63, 0x6f, 0x6e, 0x73,
    0x74, 0x37, 0x00, 0x00, 0x02, 0x00, 0x00, 0x00, 0x08, 0x00, 0x00, 0x00,
    0x10, 0x00, 0x00, 0x00, 0x0e, 0xfd, 0xff, 0xff, 0x00, 0x00, 0x00, 0x01,
    0x14, 0x00, 0x00, 0x00, 0x84, 0x00, 0x00, 0x00, 0x08, 0x00, 0x00, 0x00,
    0x00, 0x00, 0x00, 0x02, 0x90, 0x00, 0x00, 0x00, 0x74, 0xfc, 0xff, 0xff,
    0x08, 0x00, 0x00, 0x00, 0x48, 0x00, 0x00, 0x00, 0x08, 0x00, 0x00, 0x00,
    0x00, 0x00, 0x00, 0x00, 0x00, 0x00, 0x00, 0x00, 0x00, 0x00, 0x00, 0x00,
    0x00, 0x00, 0x00, 0x00, 0x00, 0x00, 0x00, 0x00, 0x00, 0x00, 0x00, 0x00,
    0x00, 0x00, 0x00, 0x00, 0x00, 0x00, 0x00, 0x00, 0x00, 0x00, 0x00, 0x00,
    0x00, 0x00, 0x00, 0x00, 0x00, 0x00, 0x00, 0x00, 0x00, 0x00, 0x00, 0x00,
    0x00, 0x00, 0x00, 0x00, 0x00, 0x00, 0x00, 0x00, 0x00, 0x00, 0x00, 0x00,
    0x00, 0x00, 0x00, 0x00, 0x08, 0x00, 0x00, 0x00, 0xe8, 0x11, 0xca, 0x3a,
    0x95, 0x06, 0xac, 0x3a, 0x95, 0x74, 0xba, 0x3a, 0x3e, 0xb5, 0xa4, 0x3a,
    0x04, 0x1e, 0xa7, 0x3a, 0x48, 0xaf, 0x96, 0x3a, 0x5f, 0xc9, 0x90, 0x3a,
    0xfe, 0x2a, 0xb1, 0x3a, 0x12, 0x00, 0x00, 0x00, 0x74, 0x66, 0x6c, 0x2e,
    0x70, 0x73, 0x65, 0x75, 0x64, 0x6f, 0x5f, 0x71, 0x63, 0x6f, 0x6e, 0x73,
    0x74, 0x36, 0x00, 0x00, 0x01, 0x00, 0x00, 0x00, 0x08, 0x00, 0x00, 0x00,
    0xbe, 0xfd, 0xff, 0xff, 0x00, 0x00, 0x00, 0x01, 0x14, 0x00, 0x00, 0x00,
    0x58, 0x00, 0x00, 0x00, 0x07, 0x00, 0x00, 0x00, 0x00, 0x00, 0x00, 0x09,
    0x64, 0x00, 0x00, 0x00, 0x24, 0xfd, 0xff, 0xff, 0x08, 0x00, 0x00, 0x00,
    0x2c, 0x00, 0x00, 0x00, 0x04, 0x00, 0x00, 0x00, 0x00, 0x00, 0x00, 0x00,
    0x00, 0x00, 0x00, 0x00, 0x00, 0x00, 0x00, 0x00, 0x00, 0x00, 0x00, 0x00,
    0x00, 0x00, 0x00, 0x00, 0x00, 0x00, 0x00, 0x00, 0x00, 0x00, 0x00, 0x00,
    0x00, 0x00, 0x00, 0x00, 0x00, 0x00, 0x00, 0x00, 0x04, 0x00, 0x00, 0x00,
    0x1d, 0x1e, 0xcb, 0x3b, 0xd8, 0xd3, 0x9a, 0x3b, 0x99, 0xe3, 0x9f, 0x3b,
    0x7c, 0x08, 0xd1, 0x3b, 0x12, 0x00, 0x00, 0x00, 0x74, 0x66, 0x6c, 0x2e,
    0x70, 0x73, 0x65, 0x75, 0x64, 0x6f, 0x5f, 0x71, 0x63, 0x6f, 0x6e, 0x73,
    0x74, 0x35, 0x00, 0x00, 0x02, 0x00, 0x00, 0x00, 0x04, 0x00, 0x00, 0x00,
    0x08, 0x00, 0x00, 0x00, 0x46, 0xfe, 0xff, 0xff, 0x00, 0x00, 0x00, 0x01,
    0x14, 0x00, 0x00, 0x00, 0x54, 0x00, 0x00, 0x00, 0x06, 0x00, 0x00, 0x00,
    0x00, 0x00, 0x00, 0x02, 0x60, 0x00, 0x00, 0x00, 0xac, 0xfd, 0xff, 0xff,
    0x08, 0x00, 0x00, 0x00, 0x28, 0x00, 0x00, 0x00, 0x04, 0x00, 0x00, 0x00,
    0x00, 0x00, 0x00, 0x00, 0x00, 0x00, 0x00, 0x00, 0x00, 0x00, 0x00, 0x00,
    0x00, 0x00, 0x00, 0x00, 0x00, 0x00, 0x00, 0x00, 0x00, 0x00, 0x00, 0x00,
    0x00, 0x00, 0x00, 0x00, 0x00, 0x00, 0x00, 0x00, 0x04, 0x00, 0x00, 0x00,
    0x04, 0xdb, 0x45, 0x3a, 0x03, 0xd1, 0x16, 0x3a, 0x32, 0xbf, 0x1b, 0x3a,
    0x27, 0x9e, 0x4b, 0x3a, 0x12, 0x00, 0x00, 0x00, 0x74, 0x66, 0x6c, 0x2e,
    0x70, 0x73, 0x65, 0x75, 0x64, 0x6f, 0x5f, 0x71, 0x63, 0x6f, 0x6e, 0x73,
    0x74, 0x34, 0x00, 0x00, 0x01, 0x00, 0x00, 0x00, 0x04, 0x00, 0x00, 0x00,
    0xc6, 0xfe, 0xff, 0xff, 0x00, 0x00, 0x00, 0x01, 0x14, 0x00, 0x00, 0x00,
    0x40, 0x00, 0x00, 0x00, 0x05, 0x00, 0x00, 0x00, 0x00, 0x00, 0x00, 0x09,
    0x4c, 0x00, 0x00, 0x00, 0x2c, 0xfe, 0xff, 0xff, 0x08, 0x00, 0x00, 0x00,
    0x1c, 0x00, 0x00, 0x00, 0x02, 0x00, 0x00, 0x00, 0x00, 0x00, 0x00, 0x00,
    0x00, 0x00, 0x00, 0x00, 0x00, 0x00, 0x00, 0x00, 0x00, 0x00, 0x00, 0x00,
    0x00, 0x00, 0x00, 0x00, 0x02, 0x00, 0x00, 0x00, 0x42, 0x86, 0xba, 0x3b,
    0xf9, 0x72, 0x15, 0x3c, 0x12, 0x00, 0x00, 0x00, 0x74, 0x66, 0x6c, 0x2e,
    0x70, 0x73, 0x65, 0x75, 0x64, 0x6f, 0x5f, 0x71, 0x63, 0x6f, 0x6e, 0x73,
    0x74, 0x33, 0x00, 0x00, 0x02, 0x00, 0x00, 0x00, 0x02, 0x00, 0x00, 0x00,
    0x04, 0x00, 0x00, 0x00, 0x36, 0xff, 0xff, 0xff, 0x00, 0x00, 0x00, 0x01,
    0x14, 0x00, 0x00, 0x00, 0x3c, 0x00, 0x00, 0x00, 0x04, 0x00, 0x00, 0x00,
    0x00, 0x00, 0x00, 0x02, 0x48, 0x00, 0x00, 0x00, 0x9c, 0xfe, 0xff, 0xff,
    0x08, 0x00, 0x00, 0x00, 0x18, 0x00, 0x00, 0x00, 0x02, 0x00, 0x00, 0x00,
    0x00, 0x00, 0x00, 0x00, 0x00, 0x00, 0x00, 0x00, 0x00, 0x00, 0x00, 0x00,
    0x00, 0x00, 0x00, 0x00, 0x02, 0x00, 0x00, 0x00, 0xe6, 0x8e, 0xa7, 0x3a,
    0xb6, 0x40, 0x06, 0x3b, 0x12, 0x00, 0x00, 0x00, 0x74, 0x66, 0x6c, 0x2e,
    0x70, 0x73, 0x65, 0x75, 0x64, 0x6f, 0x5f, 0x71, 0x63, 0x6f, 0x6e, 0x73,
    0x74, 0x32, 0x00, 0x00, 0x01, 0x00, 0x00, 0x00, 0x02, 0x00, 0x00, 0x00,
    0x9e, 0xff, 0xff, 0xff, 0x00, 0x00, 0x00, 0x01, 0x14, 0x00, 0x00, 0x00,
    0x30, 0x00, 0x00, 0x00, 0x03, 0x00, 0x00, 0x00, 0x00, 0x00, 0x00, 0x09,
    0x3c, 0x00, 0x00, 0x00, 0x04, 0xff, 0xff, 0xff, 0x08, 0x00, 0x00, 0x00,
    0x10, 0x00, 0x00, 0x00, 0x01, 0x00, 0x00, 0x00, 0x00, 0x00, 0x00, 0x00,
    0x00, 0x00, 0x00, 0x00, 0x01, 0x00, 0x00, 0x00, 0x56, 0x0f, 0x31, 0x3c,
    0x12, 0x00, 0x00, 0x00, 0x74, 0x66, 0x6c, 0x2e, 0x70, 0x73, 0x65, 0x75,
    0x64, 0x6f, 0x5f, 0x71, 0x63, 0x6f, 0x6e, 0x73, 0x74, 0x31, 0x00, 0x00,
    0x02, 0x00, 0x00, 0x00, 0x01, 0x00, 0x00, 0x00, 0x02, 0x00, 0x00, 0x00,
    0x00, 0x00, 0x16, 0x00, 0x1c, 0x00, 0x18, 0x00, 0x17, 0x00, 0x10, 0x00,
    0x0c, 0x00, 0x08, 0x00, 0x00, 0x00, 0x00, 0x00, 0x00, 0x00, 0x07, 0x00,
    0x16, 0x00, 0x00, 0x00, 0x00, 0x00, 0x00, 0x01, 0x14, 0x00, 0x00, 0x00,
    0x30, 0x00, 0x00, 0x00, 0x02, 0x00, 0x00, 0x00, 0x00, 0x00, 0x00, 0x02,
    0x3c, 0x00, 0x00, 0x00, 0x7c, 0xff, 0xff, 0xff, 0x08, 0x00, 0x00, 0x00,
    0x10, 0x00, 0x00, 0x00, 0x01, 0x00, 0x00, 0x00, 0x00, 0x00, 0x00, 0x00,
    0x00, 0x00, 0x00, 0x00, 0x01, 0x00, 0x00, 0x00, 0xff, 0xdb, 0xac, 0x3b,
    0x11, 0x00, 0x00, 0x00, 0x74, 0x66, 0x6c, 0x2e, 0x70, 0x73, 0x65, 0x75,
    0x64, 0x6f, 0x5f, 0x71, 0x63, 0x6f, 0x6e, 0x73, 0x74, 0x00, 0x00, 0x00,
    0x01, 0x00, 0x00, 0x00, 0x01, 0x00, 0x00, 0x00, 0x00, 0x00, 0x16, 0x00,
    0x20, 0x00, 0x1c, 0x00, 0x1b, 0x00, 0x14, 0x00, 0x10, 0x00, 0x0c, 0x00,
    0x00, 0x00, 0x00, 0x00, 0x08, 0x00, 0x07, 0x00, 0x16, 0x00, 0x00, 0x00,
    0x00, 0x00, 0x00, 0x01, 0x18, 0x00, 0x00, 0x00, 0x2c, 0x00, 0x00, 0x00,
    0x4c, 0x00, 0x00, 0x00, 0x01, 0x00, 0x00, 0x00, 0x00, 0x00, 0x00, 0x03,
    0x64, 0x00, 0x00, 0x00, 0x02, 0x00, 0x00, 0x00, 0xff, 0xff, 0xff, 0xff,
    0x2a, 0x00, 0x00, 0x00, 0x0c, 0x00, 0x0c, 0x00, 0x00, 0x00, 0x00, 0x00,
    0x08, 0x00, 0x04, 0x00, 0x0c, 0x00, 0x00, 0x00, 0x08, 0x00, 0x00, 0x00,
    0x14, 0x00, 0x00, 0x00, 0x01, 0x00, 0x00, 0x00, 0x55, 0x00, 0x00, 0x00,
    0x00, 0x00, 0x00, 0x00, 0x00, 0x00, 0x00, 0x00, 0x01, 0x00, 0x00, 0x00,
    0x78, 0xd5, 0xf8, 0x3e, 0x1d, 0x00, 0x00, 0x00, 0x73, 0x65, 0x72, 0x76,
    0x69, 0x6e, 0x67, 0x5f, 0x64, 0x65, 0x66, 0x61, 0x75, 0x6c, 0x74, 0x5f,
    0x69, 0x6e, 0x70, 0x75, 0x74, 0x5f, 0x6c, 0x61, 0x79, 0x65, 0x72, 0x3a,
    0x30, 0x00, 0x00, 0x00, 0x02, 0x00, 0x00, 0x00, 0x01, 0x00, 0x00, 0x00,
    0x2a, 0x00, 0x00, 0x00, 0x03, 0x00, 0x00, 0x00, 0x44, 0x00, 0x00, 0x00,
    0x24, 0x00, 0x00, 0x00, 0x04, 0x00, 0x00, 0x00, 0xf0, 0xff, 0xff, 0xff,
    0x0e, 0x00, 0x00, 0x00, 0x02, 0x00, 0x00, 0x00, 0x00, 0x00, 0x00, 0x0e,
    0x0c, 0x00, 0x10, 0x00, 0x0f, 0x00, 0x00, 0x00, 0x08, 0x00, 0x04, 0x00,
    0x0c, 0x00, 0x00, 0x00, 0x09, 0x00, 0x00, 0x00, 0x04, 0x00, 0x00, 0x00,
    0x00, 0x00, 0x00, 0x09, 0x0c, 0x00, 0x0c, 0x00, 0x0b, 0x00, 0x00, 0x00,
    0x00, 0x00, 0x04, 0x00, 0x0c, 0x00, 0x00, 0x00, 0x72, 0x00, 0x00, 0x00,
    0x00, 0x00, 0x00, 0x72,
};
const int g_model_len = 11368;
